<unk>	0
<bos>	0
<eos>	0
▁<space>	0
▁<eol>	0
<pad>	0
<s>	0
</s>	0
<mask>	0
<eod>	0
<cls>	0
<sep>	0
<pld0>	0
<pld1>	0
<pld2>	0
<pld3>	0
<pld4>	0
<pld5>	0
<pld6>	0
<pld7>	0
<pld8>	0
<pld9>	0
▁,	-0
▁的	-1
▁。	-2
▁一	-3
▁了	-4
▁不	-5
▁在	-6
▁、	-7
▁是	-8
▁这	-9
▁有	-10
▁1	-11
▁2	-12
▁人	-13
▁也	-14
▁中	-15
▁和	-16
▁就	-17
▁“	-18
▁”	-19
▁大	-20
▁我	-21
▁他	-22
▁上	-23
▁年	-24
▁可	-25
▁对	-26
▁都	-27
▁自	-28
▁为	-29
▁时	-30
▁:	-31
▁还	-32
▁发	-33
▁很	-34
▁最	-35
▁你	-36
▁而	-37
▁之	-38
▁但	-39
▁20	-40
▁出	-41
▁以	-42
▁会	-43
▁没	-44
▁多	-45
▁小	-46
▁日	-47
▁新	-48
▁一个	-49
▁成	-50
▁来	-51
▁能	-52
▁)	-53
▁月	-54
▁(	-55
▁要	-56
▁其	-57
▁3	-58
▁后	-59
▁到	-60
▁更	-61
▁自己	-62
▁看	-63
▁比	-64
▁高	-65
▁地	-66
▁如	-67
▁当	-68
▁说	-69
▁开	-70
▁与	-71
▁生	-72
▁被	-73
▁所	-74
▁下	-75
▁公	-76
▁等	-77
▁进	-78
▁那	-79
▁分	-80
▁全	-81
▁第	-82
▁》	-83
▁《	-84
▁好	-85
▁并	-86
▁没有	-87
▁将	-88
▁因	-89
▁国	-90
▁可以	-91
▁她	-92
▁过	-93
▁让	-94
▁无	-95
▁只	-96
▁两	-97
▁从	-98
▁?	-99
▁工	-100
▁我们	-101
▁相	-102
▁主	-103
▁经	-104
▁基	-105
▁三	-106
▁!	-107
▁已	-108
▁美	-109
▁提	-110
▁-	-111
▁同	-112
▁就是	-113
▁实	-114
▁;	-115
▁做	-116
▁5	-117
▁.	-118
▁重	-119
▁%	-120
▁方	-121
▁作	-122
▁4	-123
▁打	-124
▁现	-125
▁感	-126
▁事	-127
▁表	-128
▁女	-129
▁关	-130
▁家	-131
▁本	-132
▁个	-133
▁前	-134
▁加	-135
▁中国	-136
▁着	-137
▁想	-138
▁非	-139
▁得	-140
▁202	-141
▁万	-142
▁给	-143
▁学	-144
▁天	-145
▁老	-146
▁他们	-147
▁内	-148
▁正	-149
▁用	-150
▁去	-151
▁总	-152
▁电	-153
▁这个	-154
▁建	-155
▁特	-156
00	-157
▁保	-158
▁真	-159
▁通	-160
▁再	-161
▁工作	-162
▁但是	-163
▁原	-164
▁已经	-165
▁回	-166
▁又	-167
▁或	-168
▁身	-169
▁因为	-170
▁心	-171
▁网	-172
▁长	-173
▁情	-174
▁市	-175
▁文	-176
▁车	-177
▁行	-178
▁每	-179
▁各	-180
▁结	-181
▁很多	-182
▁非常	-183
▁还是	-184
▁6	-185
▁于	-186
▁平	-187
▁安	-188
▁外	-189
▁把	-190
▁需	-191
▁问	-192
▁机	-193
▁完	-194
▁时候	-195
什么	-196
▁如果	-197
▁知	-198
孩子	-199
▁里	-200
▁这样	-201
▁数	-202
▁由	-203
▁应	-204
▁接	-205
▁选	-206
▁十	-207
▁19	-208
▁目	-209
▁战	-210
▁孩子	-211
▁手	-212
▁产	-213
▁所以	-214
▁球	-215
▁7	-216
▁王	-217
▁明	-218
▁才	-219
▁却	-220
▁带	-221
▁进行	-222
▁8	-223
▁0	-224
▁几	-225
▁认	-226
▁可能	-227
▁太	-228
▁收	-229
▁起	-230
▁增	-231
▁发展	-232
▁大家	-233
▁指	-234
▁交	-235
▁消	-236
▁时间	-237
▁—	-238
▁风	-239
▁此	-240
▁爱	-241
▁设	-242
▁变	-243
▁使	-244
▁合	-245
▁直	-246
▁不是	-247
▁强	-248
▁联	-249
▁今	-250
▁201	-251
▁推	-252
▁东	-253
▁防	-254
▁基金	-255
▁问题	-256
▁该	-257
▁二	-258
▁报	-259
▁张	-260
▁10	-261
▁第一	-262
▁近	-263
▁它	-264
▁面	-265
▁2020	-266
▁之后	-267
▁水	-268
▁9	-269
▁投	-270
▁疫	-271
▁对于	-272
▁虽	-273
▁名	-274
▁男	-275
▁西	-276
▁反	-277
▁开始	-278
▁李	-279
▁深	-280
▁整	-281
▁美国	-282
▁首	-283
▁世	-284
▁什么	-285
▁四	-286
▁金	-287
▁北	-288
▁影	-289
▁成为	-290
▁优	-291
▁及	-292
▁生活	-293
▁体	-294
▁12	-295
▁传	-296
▁超	-297
▁专	-298
▁走	-299
▁社	-300
▁一些	-301
▁教	-302
▁需要	-303
▁喜	-304
▁部	-305
▁放	-306
▁领	-307
▁意	-308
▁至	-309
▁未	-310
▁单	-311
▁精	-312
▁政	-313
▁广	-314
▁改	-315
▁资	-316
▁创	-317
▁期	-318
▁现在	-319
▁转	-320
▁向	-321
▁随	-322
▁清	-323
▁们	-324
▁显	-325
▁元	-326
▁运	-327
▁虽然	-328
▁能够	-329
▁连	-330
▁科	-331
▁知道	-332
▁动	-333
▁记	-334
▁城	-335
▁公司	-336
▁受	-337
▁海	-338
▁这些	-339
▁信	-340
▁服	-341
▁国家	-342
▁医	-343
▁比较	-344
▁处	-345
▁参	-346
▁呢	-347
▁确	-348
▁白	-349
▁依	-350
▁曾	-351
▁任	-352
▁情况	-353
▁英	-354
▁周	-355
▁春	-356
▁马	-357
▁越	-358
▁法	-359
▁规	-360
▁出现	-361
▁那么	-362
▁支	-363
▁热	-364
▁A	-365
▁活	-366
▁制	-367
▁快	-368
▁市场	-369
▁通过	-370
▁吃	-371
▁流	-372
▁C	-373
▁选择	-374
▁解	-375
▁点	-376
▁其实	-377
▁作为	-378
▁双	-379
▁即	-380
▁调	-381
▁还有	-382
▁代	-383
▁难	-384
▁不过	-385
▁..	-386
▁比赛	-387
▁包	-388
▁技	-389
▁...	-390
▁而且	-391
▁管	-392
▁配	-393
▁南	-394
▁亿	-395
▁11	-396
▁气	-397
▁先	-398
▁疫情	-399
▁·	-400
▁区	-401
▁目前	-402
▁民	-403
▁预	-404
▁共	-405
▁同时	-406
▁形	-407
企业	-408
▁理	-409
▁组	-410
▁不会	-411
▁根	-412
▁红	-413
▁集	-414
▁观	-415
▁像	-416
▁引	-417
▁采	-418
▁/	-419
▁为了	-420
▁五	-421
▁跟	-422
▁搭	-423
▁空	-424
▁山	-425
▁达	-426
▁路	-427
▁黄	-428
▁以及	-429
▁演	-430
▁一直	-431
▁别	-432
▁导	-433
▁方面	-434
▁考	-435
▁火	-436
▁表示	-437
▁利	-438
▁这种	-439
▁世界	-440
▁刘	-441
▁获	-442
▁检	-443
▁发现	-444
▁研	-445
▁穿	-446
▁早	-447
▁影响	-448
▁一定	-449
▁岁	-450
▁企业	-451
▁陈	-452
▁价	-453
▁2021	-454
▁系	-455
▁父	-456
▁商	-457
▁最后	-458
▁农	-459
▁除	-460
▁喜欢	-461
▁军	-462
▁离	-463
▁希	-464
.0	-465
▁重要	-466
▁病	-467
▁严	-468
▁位	-469
▁拿	-470
▁视	-471
▁注	-472
▁其中	-473
▁造	-474
▁称	-475
▁留	-476
▁不能	-477
▁经济	-478
▁游	-479
▁看到	-480
▁房	-481
▁道	-482
▁节	-483
▁一种	-484
▁净	-485
▁必	-486
▁设计	-487
▁觉	-488
▁便	-489
▁花	-490
▁排	-491
▁甚	-492
▁华	-493
▁一起	-494
▁图	-495
▁数据	-496
▁黑	-497
▁使用	-498
▁服务	-499
▁赛	-500
▁来说	-501
▁低	-502
▁另	-503
▁常	-504
▁其他	-505
▁存	-506
▁S	-507
▁环	-508
▁所有	-509
▁场	-510
▁觉得	-511
▁失	-512
▁坚	-513
▁突	-514
▁认为	-515
▁怎	-516
▁然	-517
▁核	-518
▁200	-519
▁阿	-520
▁帮	-521
▁甚至	-522
▁简	-523
▁主要	-524
▁青	-525
▁+	-526
▁干	-527
▁一样	-528
▁较	-529
▁少	-530
▁买	-531
▁继	-532
▁两个	-533
▁能力	-534
▁因此	-535
▁性	-536
▁表现	-537
▁评	-538
▁取	-539
▁安全	-540
▁"	-541
▁真的	-542
▁应该	-543
▁具	-544
▁希望	-545
▁品	-546
▁第二	-547
▁玩	-548
▁温	-549
▁历	-550
▁吧	-551
▁标	-552
▁眼	-553
▁找	-554
朋友	-555
▁一次	-556
▁则	-557
▁当时	-558
▁业	-559
▁T	-560
▁办	-561
▁事情	-562
▁满	-563
▁社会	-564
▁落	-565
▁管理	-566
▁只有	-567
▁按	-568
▁复	-569
▁股	-570
▁15	-571
▁尽	-572
▁请	-573
▁剧	-574
▁极	-575
▁建设	-576
▁技术	-577
▁人民	-578
▁要求	-579
▁城市	-580
▁实现	-581
▁武	-582
▁充	-583
▁毕	-584
▁项	-585
▁哪	-586
▁只是	-587
▁物	-588
▁吗	-589
▁健	-590
▁发生	-591
▁许	-592
▁据	-593
▁微	-594
▁不同	-595
▁决	-596
▁入	-597
▁印	-598
▁百	-599
▁不仅	-600
▁号	-601
▁属	-602
▁或者	-603
▁M	-604
▁适	-605
▁上涨	-606
▁独	-607
▁篮	-608
▁普	-609
▁负	-610
▁容	-611
▁特别	-612
▁效	-613
▁追	-614
▁不要	-615
▁计	-616
▁1.	-617
▁杨	-618
▁得到	-619
▁持	-620
▁北京	-621
▁立	-622
▁不少	-623
▁神	-624
▁古	-625
▁拉	-626
▁哈	-627
▁故	-628
▁方式	-629
▁定	-630
▁食	-631
▁监	-632
▁宣	-633
▁欧	-634
▁光	-635
▁怎么	-636
▁研究	-637
▁台	-638
▁听	-639
▁口	-640
▁18	-641
▁功	-642
▁球队	-643
▁直接	-644
er	-645
▁拥	-646
▁关注	-647
▁30	-648
▁净值	-649
▁产品	-650
▁亲	-651
▁更加	-652
▁某	-653
▁儿	-654
▁客	-655
▁一年	-656
▁谁	-657
▁感觉	-658
▁香	-659
▁之前	-660
▁版	-661
▁网友	-662
▁根据	-663
▁获得	-664
▁职	-665
▁起来	-666
▁模	-667
▁终	-668
▁出来	-669
▁居	-670
▁发布	-671
▁由于	-672
▁德	-673
▁官	-674
▁P	-675
▁进入	-676
▁相关	-677
▁提供	-678
▁并且	-679
▁头	-680
▁思	-681
▁团	-682
▁一点	-683
▁今天	-684
▁朋友	-685
▁投资	-686
▁状	-687
▁条	-688
▁智	-689
▁提升	-690
▁人员	-691
▁减	-692
▁宝	-693
▁存在	-694
▁证	-695
▁拍	-696
▁继续	-697
▁活动	-698
▁历史	-699
▁约	-700
▁死	-701
▁营	-702
▁村	-703
汽车	-704
▁江	-705
▁积	-706
▁报告	-707
▁力	-708
▁毛	-709
▁仍	-710
▁党	-711
▁来源	-712
▁L	-713
▁湖	-714
▁项目	-715
▁B	-716
▁维	-717
▁的话	-718
▁未来	-719
▁控	-720
▁原因	-721
▁举	-722
▁显示	-723
▁文化	-724
▁展	-725
▁差	-726
▁最终	-727
in	-728
▁队	-729
▁十分	-730
▁照	-731
▁地区	-732
▁装	-733
▁财	-734
▁次	-735
▁14	-736
▁命	-737
▁万元	-738
▁角	-739
▁短	-740
▁苏	-741
▁线	-742
▁远	-743
▁教育	-744
▁除了	-745
▁背	-746
▁站	-747
▁送	-748
▁结果	-749
▁增长	-750
▁这么	-751
▁群	-752
▁学习	-753
▁半	-754
▁准	-755
▁不断	-756
▁13	-757
▁飞	-758
▁例	-759
▁钱	-760
▁巨	-761
▁绝	-762
▁伤	-763
▁爆	-764
▁皮	-765
▁16	-766
▁左	-767
▁信息	-768
▁轻	-769
▁见	-770
▁个人	-771
▁成功	-772
▁均	-773
▁类	-774
▁电影	-775
▁网络	-776
▁这是	-777
▁占	-778
▁健康	-779
▁书	-780
▁压	-781
▁往	-782
▁稳	-783
▁最大	-784
▁担	-785
▁销	-786
▁细	-787
▁巴	-788
▁想要	-789
▁承	-790
▁无法	-791
▁粉	-792
▁仅	-793
▁执	-794
▁拥有	-795
▁写	-796
▁省	-797
▁养	-798
▁消费	-799
▁如今	-800
▁话	-801
▁一般	-802
▁千	-803
000	-804
▁足	-805
▁旅	-806
▁助	-807
▁完成	-808
▁初	-809
▁平台	-810
▁化	-811
▁基本	-812
▁「	-813
▁米	-814
▁」	-815
▁关系	-816
▁日本	-817
▁地方	-818
▁记者	-819
▁治	-820
▁达到	-821
▁父母	-822
▁综	-823
▁导致	-824
▁幸	-825
▁奥	-826
▁有些	-827
▁I	-828
▁支持	-829
▁尤	-830
▁自然	-831
▁赵	-832
▁期间	-833
▁这里	-834
▁协	-835
▁牛	-836
▁任何	-837
▁一下	-838
▁容易	-839
▁手机	-840
▁河	-841
▁比如	-842
▁17	-843
▁球员	-844
▁带来	-845
▁值	-846
▁包括	-847
an	-848
▁布	-849
▁累	-850
▁银	-851
▁降	-852
▁完全	-853
▁今年	-854
▁之间	-855
▁建议	-856
▁编	-857
公司	-858
▁互	-859
▁帮助	-860
▁修	-861
on	-862
▁汽车	-863
▁家庭	-864
▁G	-865
▁人们	-866
▁格	-867
▁价格	-868
▁成立	-869
▁了解	-870
▁N	-871
▁住	-872
▁刚	-873
.5	-874
▁统	-875
▁注意	-876
▁努	-877
▁防控	-878
▁生产	-879
▁年轻	-880
▁当然	-881
▁游戏	-882
▁如何	-883
▁卡	-884
▁环境	-885
▁部分	-886
▁紧	-887
▁门	-888
▁攻	-889
▁福	-890
▁款	-891
▁顺	-892
▁国际	-893
▁质	-894
▁身体	-895
▁警	-896
▁行业	-897
▁林	-898
▁随着	-899
▁过程	-900
▁补	-901
▁停	-902
▁吸	-903
▁讲	-904
▁毕竟	-905
▁系统	-906
▁来看	-907
▁以上	-908
▁E	-909
▁告	-910
▁融	-911
▁石	-912
▁D	-913
▁退	-914
▁25	-915
▁冷	-916
▁缺	-917
▁罗	-918
▁唐	-919
▁国内	-920
▁越来	-921
▁状态	-922
▁永	-923
▁搭配	-924
▁越来越	-925
▁级	-926
▁换	-927
▁努力	-928
▁2019	-929
▁后来	-930
▁第三	-931
▁机会	-932
媒体	-933
▁晚	-934
时间	-935
▁不错	-936
▁供	-937
▁科技	-938
▁组织	-939
▁声	-940
▁全国	-941
▁品牌	-942
▁购	-943
▁登	-944
▁代表	-945
▁上海	-946
▁两人	-947
▁学生	-948
▁亿元	-949
▁种	-950
▁一位	-951
▁副	-952
▁程	-953
▁增加	-954
▁卫	-955
▁以来	-956
▁遇	-957
▁更是	-958
▁婚	-959
▁许多	-960
▁郑	-961
▁中心	-962
▁春节	-963
▁R	-964
▁冲	-965
▁视频	-966
▁内容	-967
▁检测	-968
▁关于	-969
▁保持	-970
▁合作	-971
▁别人	-972
▁愿	-973
▁算	-974
▁参加	-975
▁时代	-976
▁产业	-977
▁升	-978
▁六	-979
▁皇	-980
▁欢	-981
部分	-982
▁何	-983
▁酒	-984
▁24	-985
▁归	-986
▁叫	-987
▁媒体	-988
▁母	-989
▁实力	-990
▁云	-991
▁范	-992
▁审	-993
▁土	-994
▁超过	-995
▁只能	-996
▁21	-997
▁争	-998
▁竞	-999
▁如此	-1000
▁各种	-1001
▁运动	-1002
▁决定	-1003
▁韩	-1004
▁全球	-1005
▁面对	-1006
▁新冠	-1007
▁过去	-1008
▁星	-1009
▁消息	-1010
▁人生	-1011
▁持续	-1012
▁最高	-1013
▁吴	-1014
▁血	-1015
▁观众	-1016
▁相信	-1017
▁我国	-1018
▁只要	-1019
▁不得	-1020
▁实际	-1021
▁克	-1022
▁节目	-1023
▁而是	-1024
▁有人	-1025
▁单位	-1026
▁然后	-1027
▁之一	-1028
▁八	-1029
▁违	-1030
▁驾	-1031
▁累计	-1032
▁整体	-1033
▁颜	-1034
▁令	-1035
▁接受	-1036
▁龙	-1037
▁破	-1038
▁】	-1039
▁亚	-1040
▁【	-1041
▁输	-1042
▁抗	-1043
▁曾经	-1044
▁激	-1045
▁啊	-1046
▁整个	-1047
▁采用	-1048
▁空间	-1049
▁受到	-1050
▁尤其	-1051
▁丰	-1052
▁计划	-1053
▁试	-1054
▁解决	-1055
▁孙	-1056
▁大学	-1057
▁t	-1058
▁明显	-1059
▁基础	-1060
.2	-1061
▁逐	-1062
▁真正	-1063
▁确实	-1064
▁作品	-1065
▁学校	-1066
人员	-1067
▁奇	-1068
▁胜	-1069
.1	-1070
▁行为	-1071
▁必须	-1072
▁专业	-1073
▁众	-1074
▁才能	-1075
责任	-1076
▁F	-1077
▁幸福	-1078
▁以后	-1079
▁为什么	-1080
▁梦	-1081
▁偏	-1082
▁女人	-1083
▁效果	-1084
▁22	-1085
▁准备	-1086
▁迎	-1087
▁全面	-1088
▁坚持	-1089
▁肯	-1090
▁既	-1091
▁朱	-1092
▁控制	-1093
.3	-1094
▁故事	-1095
▁做好	-1096
▁富	-1097
▁可是	-1098
▁字	-1099
▁重点	-1100
▁疫苗	-1101
▁对方	-1102
▁画	-1103
▁威	-1104
▁有着	-1105
▁局	-1106
▁是否	-1107
▁这次	-1108
▁错	-1109
▁博	-1110
▁三分	-1111
re	-1112
▁然而	-1113
▁粉丝	-1114
▁100	-1115
▁简单	-1116
▁无论	-1117
▁每个	-1118
▁50	-1119
▁造成	-1120
▁领导	-1121
▁赛季	-1122
▁同样	-1123
▁天气	-1124
▁那些	-1125
▁抓	-1126
▁政府	-1127
▁舒	-1128
▁值得	-1129
▁开展	-1130
▁电视	-1131
▁综合	-1132
▁东西	-1133
▁属于	-1134
一步	-1135
.8	-1136
▁优势	-1137
政府	-1138
▁县	-1139
▁者	-1140
▁指数	-1141
▁保护	-1142
▁临	-1143
▁结束	-1144
▁正式	-1145
▁很大	-1146
▁歌	-1147
▁按照	-1148
▁冬	-1149
▁铁	-1150
▁经常	-1151
▁一切	-1152
▁妈	-1153
▁余	-1154
▁正在	-1155
▁关键	-1156
▁经过	-1157
.6	-1158
▁处理	-1159
▁去年	-1160
▁坐	-1161
▁目标	-1162
▁感情	-1163
▁招	-1164
.9	-1165
.4	-1166
▁分别	-1167
▁封	-1168
▁艺	-1169
▁绿	-1170
▁患	-1171
▁需求	-1172
大学	-1173
▁最新	-1174
▁切	-1175
▁小时	-1176
▁惊	-1177
▁遭	-1178
▁聚	-1179
▁来自	-1180
▁交通	-1181
▁产生	-1182
▁具有	-1183
▁音	-1184
▁且	-1185
▁用户	-1186
▁吉	-1187
▁功能	-1188
▁新闻	-1189
▁航	-1190
▁委	-1191
▁政策	-1192
▁杀	-1193
▁另外	-1194
▁郭	-1195
▁积极	-1196
▁波	-1197
▁乐	-1198
▁挑	-1199
▁最近	-1200
▁风险	-1201
▁于是	-1202
▁倒	-1203
▁伊	-1204
▁胡	-1205
▁杜	-1206
▁女儿	-1207
▁腾	-1208
▁取得	-1209
▁权	-1210
▁精神	-1211
▁联系	-1212
▁创新	-1213
▁培	-1214
▁老师	-1215
▁车型	-1216
▁诗	-1217
▁查	-1218
▁提高	-1219
▁再次	-1220
▁乡	-1221
▁医院	-1222
▁七	-1223
▁你们	-1224
▁遗	-1225
▁衣	-1226
▁生命	-1227
▁进一步	-1228
▁加上	-1229
▁隔	-1230
▁儿子	-1231
▁限	-1232
▁子	-1233
▁交易	-1234
▁形成	-1235
▁玩家	-1236
▁度	-1237
.7	-1238
▁街	-1239
▁有限	-1240
▁司	-1241
▁一场	-1242
▁价值	-1243
▁机构	-1244
▁每天	-1245
起来	-1246
▁探	-1247
▁靠	-1248
▁零	-1249
▁假	-1250
▁俄	-1251
▁翻	-1252
▁阳	-1253
▁领域	-1254
▁改变	-1255
▁暴	-1256
▁左右	-1257
▁致	-1258
▁分钟	-1259
▁您	-1260
▁H	-1261
or	-1262
▁似	-1263
▁作用	-1264
▁借	-1265
▁爱情	-1266
▁申	-1267
▁师	-1268
▁角色	-1269
▁°	-1270
▁习	-1271
▁脱	-1272
▁一天	-1273
▁蓝	-1274
▁笑	-1275
▁边	-1276
▁谈	-1277
▁若	-1278
▁操	-1279
▁肯定	-1280
▁怀	-1281
▁脸	-1282
▁抢	-1283
▁困	-1284
▁传统	-1285
▁演员	-1286
▁女性	-1287
▁全部	-1288
▁负责	-1289
▁救	-1290
▁最好	-1291
▁严重	-1292
▁截	-1293
▁依然	-1294
▁延	-1295
▁作者	-1296
▁介	-1297
▁那个	-1298
▁舞	-1299
▁普通	-1300
▁休	-1301
▁业务	-1302
▁集团	-1303
▁针	-1304
▁签	-1305
▁提出	-1306
▁贵	-1307
▁规定	-1308
▁唯	-1309
▁涉	-1310
▁九	-1311
▁顶	-1312
▁经历	-1313
ar	-1314
en	-1315
▁风格	-1316
▁标准	-1317
▁冠	-1318
▁宋	-1319
▁父亲	-1320
▁阵	-1321
因为	-1322
▁稳定	-1323
▁是因为	-1324
▁公布	-1325
阶段	-1326
▁不管	-1327
▁利用	-1328
▁妈妈	-1329
▁危	-1330
▁油	-1331
▁位置	-1332
▁案	-1333
▁汉	-1334
▁男人	-1335
▁加强	-1336
▁里面	-1337
▁纪	-1338
▁×	-1339
▁印度	-1340
▁朝	-1341
▁事业	-1342
▁保障	-1343
▁40	-1344
▁当中	-1345
▁变得	-1346
▁篮板	-1347
▁当地	-1348
▁腾讯	-1349
▁呈	-1350
▁责任	-1351
▁英国	-1352
▁推进	-1353
▁i	-1354
▁23	-1355
▁V	-1356
方面	-1357
▁拜	-1358
▁乘	-1359
▁跑	-1360
▁读	-1361
▁一段	-1362
▁免	-1363
▁相当	-1364
▁科学	-1365
▁变化	-1366
▁雷	-1367
▁有关	-1368
▁遇到	-1369
▁荣	-1370
▁更好	-1371
▁勇	-1372
▁考虑	-1373
▁香港	-1374
▁199	-1375
措施	-1376
▁莫	-1377
▁避	-1378
▁政治	-1379
▁实施	-1380
▁助攻	-1381
▁卖	-1382
▁几乎	-1383
▁侵	-1384
▁建立	-1385
▁娱	-1386
▁阴	-1387
▁母亲	-1388
▁返	-1389
▁英雄	-1390
▁销售	-1391
▁景	-1392
▁成绩	-1393
▁28	-1394
▁灵	-1395
▁大量	-1396
▁透	-1397
▁时期	-1398
▁资金	-1399
▁总是	-1400
▁02	-1401
▁一名	-1402
▁离开	-1403
▁扩	-1404
▁加入	-1405
▁现代	-1406
▁造型	-1407
▁语	-1408
▁报道	-1409
▁核心	-1410
at	-1411
▁家长	-1412
下来	-1413
▁条件	-1414
赛季	-1415
▁身上	-1416
al	-1417
▁犯	-1418
▁皮肤	-1419
▁讨	-1420
▁隐	-1421
▁轮	-1422
▁一家	-1423
▁货	-1424
▁秦	-1425
▁药	-1426
▁工程	-1427
▁斯	-1428
▁派	-1429
▁看看	-1430
▁驾驶	-1431
▁娱乐	-1432
▁现场	-1433
▁季	-1434
▁方法	-1435
▁兴	-1436
▁贾	-1437
▁智能	-1438
▁正常	-1439
▁群众	-1440
▁密	-1441
▁及时	-1442
▁m	-1443
▁参与	-1444
▁谢	-1445
▁夜	-1446
▁告诉	-1447
▁水平	-1448
▁社区	-1449
▁这部	-1450
▁附	-1451
▁徐	-1452
▁模式	-1453
▁首先	-1454
▁31	-1455
▁有效	-1456
▁凭	-1457
▁夫	-1458
▁沉	-1459
▁找到	-1460
▁豪	-1461
▁病例	-1462
▁共同	-1463
▁含	-1464
▁期待	-1465
▁批	-1466
▁图片	-1467
▁速	-1468
▁不好	-1469
▁样	-1470
▁沙	-1471
▁人类	-1472
ro	-1473
▁慢	-1474
▁事件	-1475
▁看起来	-1476
▁职业	-1477
▁推动	-1478
▁银行	-1479
▁或许	-1480
▁毫	-1481
▁费	-1482
▁喝	-1483
▁行动	-1484
▁摄	-1485
▁K	-1486
▁评论	-1487
▁优秀	-1488
▁冰	-1489
▁主动	-1490
▁核酸	-1491
▁陪	-1492
▁医疗	-1493
▁异	-1494
▁禁	-1495
▁史	-1496
▁26	-1497
▁分享	-1498
▁结婚	-1499
▁部门	-1500
▁分析	-1501
▁不到	-1502
▁农村	-1503
▁区域	-1504
▁混	-1505
▁多少	-1506
▁W	-1507
▁段	-1508
▁动力	-1509
▁~	-1510
▁依旧	-1511
▁愿意	-1512
▁欢迎	-1513
▁妻	-1514
▁赶	-1515
BA	-1516
▁方向	-1517
▁旅游	-1518
▁系列	-1519
▁进攻	-1520
▁s	-1521
▁施	-1522
▁双方	-1523
▁根本	-1524
▁睡	-1525
▁收入	-1526
▁压力	-1527
▁资源	-1528
▁来到	-1529
▁涨	-1530
▁底	-1531
▁命中	-1532
▁终于	-1533
▁詹	-1534
it	-1535
▁连续	-1536
he	-1537
▁校	-1538
▁步	-1539
▁量	-1540
▁打造	-1541
▁相比	-1542
▁有点	-1543
▁梅	-1544
▁c	-1545
▁寻	-1546
▁寒	-1547
▁调整	-1548
▁镇	-1549
▁过年	-1550
▁测	-1551
▁肺	-1552
▁移	-1553
▁几个	-1554
▁制造	-1555
▁良	-1556
▁即使	-1557
▁率	-1558
▁体验	-1559
▁宁	-1560
▁一件	-1561
▁此外	-1562
▁建筑	-1563
▁懂	-1564
▁介绍	-1565
▁集中	-1566
▁硬	-1567
▁适合	-1568
▁戴	-1569
▁付	-1570
▁程度	-1571
▁泰	-1572
▁经营	-1573
▁联盟	-1574
▁不可	-1575
距离	-1576
▁大多	-1577
▁开发	-1578
▁员	-1579
▁病毒	-1580
▁这位	-1581
▁赢	-1582
▁熟	-1583
▁三个	-1584
▁易	-1585
▁家里	-1586
▁奖	-1587
▁这一	-1588
▁亮	-1589
▁O	-1590
姆斯	-1591
▁火箭	-1592
▁力量	-1593
▁任务	-1594
▁减少	-1595
▁楼	-1596
▁哈登	-1597
▁湖人	-1598
▁收益	-1599
▁洗	-1600
▁符	-1601
▁变成	-1602
▁祝	-1603
▁措施	-1604
▁发动	-1605
▁型	-1606
▁引起	-1607
▁具体	-1608
▁感受	-1609
▁27	-1610
▁跳	-1611
▁联合	-1612
▁随后	-1613
▁显得	-1614
▁相对	-1615
▁竞争	-1616
▁层	-1617
am	-1618
▁宣传	-1619
美元	-1620
▁宽	-1621
▁证明	-1622
▁29	-1623
▁生态	-1624
▁事实	-1625
▁文章	-1626
▁色	-1627
▁库	-1628
▁感染	-1629
▁似乎	-1630
▁公安	-1631
▁车辆	-1632
▁会议	-1633
▁法律	-1634
▁时尚	-1635
▁享	-1636
▁消费者	-1637
▁促	-1638
▁多年	-1639
▁身边	-1640
罗斯	-1641
▁突破	-1642
▁材	-1643
▁患者	-1644
▁婚姻	-1645
▁饮	-1646
▁态	-1647
▁还要	-1648
▁妻子	-1649
▁逐渐	-1650
▁不得不	-1651
▁购买	-1652
▁位于	-1653
▁一条	-1654
▁旗	-1655
▁上市	-1656
▁近日	-1657
▁官方	-1658
▁成长	-1659
▁损	-1660
▁始	-1661
▁明星	-1662
▁配置	-1663
▁陆	-1664
▁理解	-1665
▁私	-1666
▁拿到	-1667
▁有限公司	-1668
▁征	-1669
▁院	-1670
▁跨	-1671
▁做到	-1672
▁姐	-1673
▁鸡	-1674
▁2018	-1675
▁金融	-1676
▁播	-1677
▁敌	-1678
▁中央	-1679
▁刺	-1680
▁围	-1681
▁检查	-1682
▁抱	-1683
▁X	-1684
▁构	-1685
▁身份	-1686
▁列	-1687
▁阶段	-1688
▁屏	-1689
▁突然	-1690
▁诸	-1691
▁纳	-1692
▁知识	-1693
▁山东	-1694
▁令人	-1695
▁野	-1696
▁吸引	-1697
▁满足	-1698
▁针对	-1699
▁重新	-1700
▁甜	-1701
▁推出	-1702
▁港	-1703
▁战斗	-1704
▁答	-1705
▁发挥	-1706
▁数字	-1707
▁劳	-1708
▁俄罗斯	-1709
▁座	-1710
▁守	-1711
▁夏	-1712
▁判	-1713
▁掌	-1714
▁肖	-1715
▁特朗	-1716
▁音乐	-1717
▁特朗普	-1718
▁正是	-1719
▁范围	-1720
▁日常	-1721
▁赚	-1722
▁60	-1723
▁沈	-1724
▁间	-1725
▁肉	-1726
▁亦	-1727
▁自身	-1728
不是	-1729
▁恶	-1730
▁排名	-1731
▁广东	-1732
▁乌	-1733
主义	-1734
ou	-1735
▁疾	-1736
▁防守	-1737
▁本身	-1738
▁董	-1739
▁专家	-1740
▁它们	-1741
▁业绩	-1742
▁当年	-1743
▁草	-1744
▁以下	-1745
▁照片	-1746
▁丰富	-1747
▁落实	-1748
▁调查	-1749
▁软	-1750
▁艺术	-1751
▁直播	-1752
▁治疗	-1753
▁永远	-1754
▁板	-1755
▁散	-1756
▁雪	-1757
▁不再	-1758
▁启	-1759
▁恐	-1760
▁呼	-1761
▁尽管	-1762
▁果	-1763
▁长期	-1764
▁痛	-1765
▁绝对	-1766
▁到底	-1767
▁哥	-1768
▁暂	-1769
▁感到	-1770
▁此前	-1771
▁艾	-1772
▁击	-1773
▁下降	-1774
▁操作	-1775
▁套	-1776
▁现实	-1777
el	-1778
▁回到	-1779
▁伤害	-1780
▁质量	-1781
▁备	-1782
▁尊	-1783
▁本文	-1784
▁黑色	-1785
▁第四	-1786
▁做出	-1787
▁真实	-1788
▁严格	-1789
▁木	-1790
▁安排	-1791
▁名字	-1792
▁台湾	-1793
▁脚	-1794
▁魔	-1795
▁办法	-1796
▁巨大	-1797
▁本赛季	-1798
▁礼	-1799
▁编辑	-1800
▁詹姆斯	-1801
▁大部分	-1802
▁团队	-1803
▁自由	-1804
▁战略	-1805
▁等等	-1806
▁强大	-1807
时候	-1808
▁挺	-1809
▁概	-1810
▁华为	-1811
▁b	-1812
▁说明	-1813
▁辽	-1814
▁忘	-1815
▁00	-1816
▁老人	-1817
▁公开	-1818
▁道路	-1819
▁制作	-1820
▁急	-1821
▁饰	-1822
▁规划	-1823
▁明确	-1824
▁之外	-1825
▁下跌	-1826
▁01	-1827
▁执行	-1828
▁|	-1829
es	-1830
▁客户	-1831
▁境	-1832
▁35	-1833
▁对手	-1834
▁苦	-1835
▁猪	-1836
▁往往	-1837
▁护	-1838
▁指导	-1839
▁人口	-1840
▁一句	-1841
▁笔	-1842
▁心里	-1843
▁烟	-1844
▁处于	-1845
▁300	-1846
▁确诊	-1847
▁澳	-1848
▁距离	-1849
▁纯	-1850
▁独立	-1851
▁快速	-1852
▁圈	-1853
▁技能	-1854
▁舒适	-1855
▁浓	-1856
▁身材	-1857
▁不用	-1858
▁冠军	-1859
生活	-1860
▁郑爽	-1861
▁仍然	-1862
▁频	-1863
▁鱼	-1864
▁志	-1865
▁创造	-1866
▁骑	-1867
▁放弃	-1868
▁搞	-1869
▁商业	-1870
▁戏	-1871
▁符合	-1872
▁玉	-1873
▁一旦	-1874
▁篮网	-1875
▁广州	-1876
恢复	-1877
▁人物	-1878
▁份	-1879
▁式	-1880
▁唯一	-1881
▁隔离	-1882
▁一个月	-1883
▁快乐	-1884
▁善	-1885
▁速度	-1886
▁销量	-1887
▁迅	-1888
▁看来	-1889
▁结合	-1890
▁端	-1891
▁片	-1892
▁目的	-1893
▁抵	-1894
▁198	-1895
▁拍摄	-1896
▁哦	-1897
▁避免	-1898
▁辅	-1899
▁宣布	-1900
▁员工	-1901
▁回家	-1902
▁浪	-1903
▁凯	-1904
▁虚	-1905
▁互联	-1906
▁配合	-1907
▁就要	-1908
▁恢复	-1909
▁鼓	-1910
症状	-1911
▁尚	-1912
▁迷	-1913
▁公共	-1914
▁替	-1915
▁美好	-1916
▁失去	-1917
▁圆	-1918
▁原创	-1919
▁她们	-1920
▁数量	-1921
▁逃	-1922
▁乔	-1923
▁潜	-1924
▁暗	-1925
▁恋	-1926
▁高速	-1927
▁有所	-1928
▁纷	-1929
▁家人	-1930
▁应用	-1931
▁竟	-1932
▁拼	-1933
▁思想	-1934
▁这件	-1935
▁圣	-1936
▁自动	-1937
▁班	-1938
▁深圳	-1939
▁确保	-1940
▁领先	-1941
▁总统	-1942
▁摆	-1943
▁对此	-1944
▁J	-1945
▁规模	-1946
▁一生	-1947
▁居民	-1948
▁委员	-1949
▁录	-1950
▁升级	-1951
▁以为	-1952
▁拒	-1953
▁迎来	-1954
▁称为	-1955
▁求	-1956
▁f	-1957
▁食品	-1958
▁固	-1959
▁体系	-1960
▁待	-1961
▁人才	-1962
▁丈	-1963
▁斗	-1964
▁意义	-1965
▁即便	-1966
▁蒋	-1967
▁以前	-1968
▁态度	-1969
▁心理	-1970
▁而言	-1971
▁这场	-1972
▁搜	-1973
▁扶	-1974
▁预计	-1975
▁齐	-1976
▁反而	-1977
▁挂	-1978
▁曹	-1979
▁U	-1980
▁茶	-1981
▁聊	-1982
▁形式	-1983
▁得分	-1984
▁保证	-1985
▁电子	-1986
▁年龄	-1987
▁票	-1988
▁此时	-1989
▁气温	-1990
▁顾	-1991
▁确定	-1992
▁经验	-1993
▁言	-1994
▁树	-1995
▁下来	-1996
▁所谓	-1997
▁最低	-1998
▁充满	-1999
▁不想	-2000
▁呈现	-2001
▁气质	-2002
▁唱	-2003
▁偶	-2004
▁中华	-2005
▁肺炎	-2006
▁训	-2007
▁多次	-2008
伙伴	-2009
▁京	-2010
▁一款	-2011
▁佩	-2012
▁很快	-2013
▁工业	-2014
▁是不是	-2015
▁留下	-2016
▁毕业	-2017
▁一周	-2018
▁召	-2019
▁久	-2020
▁尼	-2021
▁盛	-2022
▁困难	-2023
▁原来	-2024
▁死亡	-2025
▁直到	-2026
▁放在	-2027
▁辛	-2028
▁叶	-2029
▁80	-2030
▁宝宝	-2031
▁贝	-2032
▁意味	-2033
▁0.0	-2034
▁电动	-2035
贡献	-2036
ic	-2037
▁提前	-2038
▁太阳	-2039
▁申请	-2040
▁改革	-2041
▁厚	-2042
50	-2043
▁燃	-2044
▁充分	-2045
▁麻	-2046
▁一部	-2047
▁鲜	-2048
▁素	-2049
▁总结	-2050
▁同比	-2051
▁地位	-2052
利亚	-2053
▁镜	-2054
▁特殊	-2055
▁浙	-2056
▁研发	-2057
▁从而	-2058
▁珍	-2059
▁情绪	-2060
▁行政	-2061
▁成本	-2062
▁味	-2063
▁出生	-2064
▁战争	-2065
▁佛	-2066
▁菜	-2067
▁芯	-2068
▁爸	-2069
▁年代	-2070
▁课	-2071
▁第一次	-2072
▁颜色	-2073
▁电视剧	-2074
▁经典	-2075
▁二十	-2076
▁奔	-2077
▁户	-2078
▁贫	-2079
▁迅速	-2080
▁漫	-2081
▁一份	-2082
▁全新	-2083
le	-2084
▁跌	-2085
▁版本	-2086
▁康	-2087
▁赞	-2088
▁丈夫	-2089
▁发动机	-2090
▁重大	-2091
▁射	-2092
▁阻	-2093
▁食物	-2094
▁嘉	-2095
▁没想	-2096
▁接下来	-2097
▁实在	-2098
▁难以	-2099
▁旧	-2100
▁制度	-2101
▁餐	-2102
▁意识	-2103
▁奶	-2104
▁凭借	-2105
▁就算	-2106
▁n	-2107
▁小区	-2108
▁实际上	-2109
▁抽	-2110
▁算是	-2111
▁展现	-2112
▁经理	-2113
▁认识	-2114
▁球迷	-2115
▁至少	-2116
▁小编	-2117
▁之中	-2118
▁完美	-2119
▁担任	-2120
▁孤	-2121
▁表演	-2122
▁讨论	-2123
▁残	-2124
▁兵	-2125
▁估	-2126
▁微信	-2127
▁弹	-2128
▁否	-2129
▁互联网	-2130
▁降低	-2131
▁特色	-2132
▁宇	-2133
▁指出	-2134
▁夺	-2135
▁接种	-2136
▁卫生	-2137
▁社交	-2138
▁出色	-2139
▁房子	-2140
▁此次	-2141
▁彻	-2142
▁折	-2143
▁现象	-2144
▁采取	-2145
▁大众	-2146
▁高度	-2147
▁留言	-2148
▁也许	-2149
▁36	-2150
▁机器	-2151
地区	-2152
▁舞台	-2153
▁看着	-2154
▁还会	-2155
▁欧洲	-2156
▁啦	-2157
▁上面	-2158
▁心中	-2159
▁雨	-2160
▁工作人员	-2161
▁担心	-2162
▁央	-2163
▁始终	-2164
▁另一	-2165
▁纷纷	-2166
▁曼	-2167
▁训练	-2168
▁曝	-2169
▁榜	-2170
▁韩国	-2171
▁店	-2172
▁习惯	-2173
▁形象	-2174
▁无论是	-2175
▁足够	-2176
▁成员	-2177
▁军事	-2178
▁焦	-2179
▁截至	-2180
is	-2181
▁剩	-2182
▁指挥	-2183
▁塔	-2184
▁追求	-2185
▁日讯	-2186
▁90	-2187
▁设备	-2188
▁深入	-2189
▁慢慢	-2190
▁运营	-2191
▁缓	-2192
▁联赛	-2193
▁因素	-2194
▁爆发	-2195
▁投入	-2196
▁悲	-2197
▁洛	-2198
▁脑	-2199
▁删	-2200
▁没想到	-2201
▁巡	-2202
▁阵容	-2203
▁离婚	-2204
▁贡献	-2205
▁芯片	-2206
▁明白	-2207
▁公里	-2208
▁支付	-2209
▁意味着	-2210
中心	-2211
▁彼	-2212
▁掉	-2213
▁摩	-2214
▁新增	-2215
▁挑战	-2216
▁年度	-2217
▁著	-2218
▁使得	-2219
▁耳	-2220
▁不足	-2221
▁奋	-2222
▁最佳	-2223
▁想法	-2224
系统	-2225
▁版权	-2226
▁结构	-2227
▁合同	-2228
▁大多数	-2229
▁促进	-2230
▁彩	-2231
▁租	-2232
▁网上	-2233
▁迪	-2234
▁服装	-2235
▁疾病	-2236
▁俱	-2237
▁方案	-2238
关系	-2239
▁大陆	-2240
▁计算	-2241
▁阅	-2242
▁不如	-2243
▁甘	-2244
▁h	-2245
▁付出	-2246
▁面临	-2247
▁年轻人	-2248
▁导演	-2249
▁高级	-2250
▁内部	-2251
▁内心	-2252
▁NBA	-2253
苹果	-2254
▁忍	-2255
▁更新	-2256
▁监管	-2257
▁引发	-2258
▁新年	-2259
la	-2260
▁表达	-2261
▁下面	-2262
▁浙江	-2263
▁w	-2264
▁平时	-2265
▁2017	-2266
▁材料	-2267
▁繁	-2268
▁梁	-2269
▁骨	-2270
▁论	-2271
▁给予	-2272
▁平均	-2273
▁推荐	-2274
▁女孩	-2275
▁将会	-2276
▁医生	-2277
▁德国	-2278
▁接触	-2279
▁娱乐圈	-2280
▁这款	-2281
▁攻击	-2282
▁违法	-2283
▁性格	-2284
▁小米	-2285
▁a	-2286
▁回来	-2287
▁炒	-2288
▁势	-2289
▁横	-2290
▁’	-2291
▁每年	-2292
▁拒绝	-2293
▁趋	-2294
▁一步	-2295
▁断	-2296
▁想到	-2297
▁生物	-2298
▁限制	-2299
▁农业	-2300
▁彻底	-2301
▁时刻	-2302
▁顺利	-2303
▁颜值	-2304
▁兼	-2305
▁....	-2306
▁记得	-2307
革命	-2308
▁牵	-2309
▁认真	-2310
▁森	-2311
▁苹果	-2312
▁享受	-2313
▁日子	-2314
▁回应	-2315
▁宜	-2316
▁1.5	-2317
▁几年	-2318
▁体育	-2319
▁开心	-2320
▁扎	-2321
▁源	-2322
▁贴	-2323
▁剧情	-2324
▁至今	-2325
▁机制	-2326
▁供应	-2327
▁羊	-2328
▁文明	-2329
▁自我	-2330
▁悬	-2331
▁衣服	-2332
▁采访	-2333
▁通知	-2334
▁背后	-2335
▁首次	-2336
▁刷	-2337
▁秋	-2338
▁美元	-2339
▁田	-2340
▁p	-2341
▁好好	-2342
▁松	-2343
▁主持	-2344
▁70	-2345
▁细节	-2346
▁开启	-2347
▁出行	-2348
▁为主	-2349
▁拜登	-2350
▁东北	-2351
人民	-2352
▁开放	-2353
▁像是	-2354
▁方便	-2355
▁近期	-2356
▁公众	-2357
▁超级	-2358
▁汇	-2359
▁刚刚	-2360
▁秒	-2361
▁档	-2362
▁麦	-2363
▁尝	-2364
▁500	-2365
▁白色	-2366
▁霍	-2367
▁授	-2368
▁今日	-2369
▁组成	-2370
▁口罩	-2371
▁祖	-2372
▁良好	-2373
▁典	-2374
▁植	-2375
▁办公	-2376
▁原本	-2377
▁32	-2378
▁选手	-2379
▁人民币	-2380
▁资本	-2381
▁四川	-2382
▁示	-2383
et	-2384
▁统一	-2385
▁民警	-2386
▁世纪	-2387
▁之下	-2388
▁提示	-2389
▁动作	-2390
▁邓	-2391
质量	-2392
▁右	-2393
▁灯	-2394
▁夫妻	-2395
▁外套	-2396
ing	-2397
▁样子	-2398
▁姐姐	-2399
▁轻松	-2400
▁售	-2401
▁加快	-2402
▁在于	-2403
▁秘	-2404
▁感谢	-2405
▁月份	-2406
▁.....	-2407
▁不了	-2408
▁本来	-2409
▁沿	-2410
▁突出	-2411
▁显然	-2412
▁友	-2413
▁外观	-2414
▁众多	-2415
▁组合	-2416
▁例如	-2417
▁腰	-2418
▁忽	-2419
▁体现	-2420
▁先生	-2421
▁策	-2422
▁主任	-2423
▁释	-2424
▁精彩	-2425
▁智慧	-2426
▁股份	-2427
▁队伍	-2428
▁女生	-2429
▁逆	-2430
▁主题	-2431
▁哭	-2432
▁露	-2433
▁罚	-2434
▁胜利	-2435
▁鲁	-2436
▁肖战	-2437
▁总额	-2438
▁添	-2439
▁君	-2440
▁账	-2441
▁厂	-2442
40	-2443
▁晚上	-2444
▁那样	-2445
▁国民	-2446
▁‘	-2447
兰特	-2448
▁市民	-2449
▁真是	-2450
▁续	-2451
▁创作	-2452
▁当前	-2453
▁温暖	-2454
▁面积	-2455
▁辽宁	-2456
▁倾	-2457
▁不够	-2458
▁法国	-2459
▁触	-2460
▁汤	-2461
▁&	-2462
▁农民	-2463
▁紫	-2464
▁地球	-2465
▁土地	-2466
▁魅	-2467
▁不敢	-2468
▁河北	-2469
▁恩	-2470
▁交流	-2471
▁疑	-2472
▁代码	-2473
▁评价	-2474
▁广大	-2475
▁培养	-2476
▁义	-2477
▁解释	-2478
▁部队	-2479
▁份额	-2480
▁塞	-2481
▁街道	-2482
▁红色	-2483
▁即将	-2484
▁Q	-2485
▁坦	-2486
▁所在	-2487
▁记录	-2488
▁侵权	-2489
▁创业	-2490
▁利益	-2491
▁类似	-2492
▁前往	-2493
▁失败	-2494
▁仙	-2495
乐部	-2496
▁丁	-2497
▁......	-2498
▁之所	-2499
▁比例	-2500
▁提醒	-2501
▁却是	-2502
书记	-2503
▁多个	-2504
▁面前	-2505
▁仪	-2506
▁案件	-2507
▁乡村	-2508
▁伴	-2509
▁陷	-2510
▁沃	-2511
▁俱乐部	-2512
▁曲	-2513
▁提到	-2514
▁从来	-2515
▁性能	-2516
▁同学	-2517
▁完善	-2518
▁不知	-2519
▁熟悉	-2520
▁盘	-2521
▁电话	-2522
▁沟	-2523
▁拆	-2524
▁第一个	-2525
▁正确	-2526
▁储	-2527
▁江苏	-2528
▁意外	-2529
▁蒙	-2530
▁之所以	-2531
▁美丽	-2532
▁蔡	-2533
▁33	-2534
▁成熟	-2535
▁角度	-2536
▁亿美元	-2537
▁可爱	-2538
▁一张	-2539
▁照顾	-2540
▁志愿	-2541
▁视觉	-2542
▁碰	-2543
▁增强	-2544
▁兄	-2545
▁资产	-2546
▁恒	-2547
▁学会	-2548
▁题	-2549
▁债	-2550
▁丢	-2551
世界	-2552
▁武器	-2553
▁女子	-2554
▁吐	-2555
▁地点	-2556
▁实验	-2557
▁耐	-2558
▁丝	-2559
▁监督	-2560
▁场景	-2561
▁青春	-2562
▁强化	-2563
▁并非	-2564
▁狗	-2565
▁漂	-2566
贷款	-2567
▁附近	-2568
▁哪些	-2569
▁腿	-2570
lo	-2571
斯拉	-2572
▁一线	-2573
▁侧	-2574
▁装备	-2575
▁一部分	-2576
▁爸爸	-2577
▁197	-2578
▁暖	-2579
▁竟然	-2580
▁清楚	-2581
▁配备	-2582
▁人群	-2583
▁知名	-2584
▁灰	-2585
能源	-2586
▁饭	-2587
▁通常	-2588
▁税	-2589
▁报告期	-2590
▁驻	-2591
▁一边	-2592
年人	-2593
▁裙	-2594
▁话题	-2595
▁印象	-2596
▁为何	-2597
▁影视	-2598
▁依法	-2599
▁忙	-2600
▁d	-2601
▁宫	-2602
▁宗	-2603
▁贯	-2604
▁意见	-2605
▁看出	-2606
▁删除	-2607
▁仅仅	-2608
▁默	-2609
▁增长率	-2610
▁稍	-2611
▁发表	-2612
▁天津	-2613
▁期末	-2614
▁每次	-2615
▁烧	-2616
▁皇帝	-2617
▁兰	-2618
▁凌	-2619
▁静	-2620
▁观察	-2621
▁必要	-2622
▁艰	-2623
▁194	-2624
▁杂	-2625
▁动物	-2626
▁强调	-2627
矛盾	-2628
ed	-2629
上去	-2630
▁驱	-2631
▁传播	-2632
▁委员会	-2633
▁声音	-2634
▁阅读	-2635
▁维护	-2636
▁充电	-2637
▁白天	-2638
▁震	-2639
年来	-2640
▁基准	-2641
▁袁	-2642
▁盖	-2643
om	-2644
▁举行	-2645
▁军队	-2646
▁勇士	-2647
▁融资	-2648
▁至于	-2649
▁2000	-2650
▁昨	-2651
▁索	-2652
▁拿下	-2653
▁元素	-2654
▁覆	-2655
▁梦想	-2656
▁闪	-2657
▁合理	-2658
▁医学	-2659
▁那种	-2660
▁莱	-2661
▁看不	-2662
▁一路	-2663
▁章	-2664
▁糖	-2665
▁好看	-2666
▁老板	-2667
▁幼	-2668
▁演技	-2669
▁参考	-2670
▁展示	-2671
ac	-2672
▁重庆	-2673
▁窗	-2674
▁武汉	-2675
▁拖	-2676
▁呀	-2677
▁资料	-2678
▁温馨	-2679
▁豆	-2680
▁45	-2681
▁钢	-2682
▁镜头	-2683
▁人数	-2684
▁蛋	-2685
▁他人	-2686
▁基本上	-2687
▁全市	-2688
▁营养	-2689
▁藏	-2690
▁架	-2691
▁霸	-2692
▁微博	-2693
▁无数	-2694
▁测试	-2695
▁一大	-2696
▁偷	-2697
▁小说	-2698
▁末	-2699
▁2016	-2700
▁新能源	-2701
▁带领	-2702
▁设置	-2703
▁嘴	-2704
▁苏联	-2705
▁彭	-2706
▁饰演	-2707
▁观点	-2708
▁淡	-2709
▁特斯拉	-2710
▁用于	-2711
▁眼睛	-2712
▁原则	-2713
▁很少	-2714
▁尾	-2715
▁打开	-2716
▁考试	-2717
▁哪里	-2718
▁大型	-2719
▁检察	-2720
▁涉及	-2721
▁学院	-2722
▁协议	-2723
▁理想	-2724
▁优化	-2725
▁铁路	-2726
▁改善	-2727
▁效率	-2728
▁遭遇	-2729
▁怎样	-2730
▁透露	-2731
▁冯	-2732
▁培训	-2733
▁很难	-2734
▁打出	-2735
▁嫌	-2736
▁意思	-2737
▁机场	-2738
▁南京	-2739
▁万份	-2740
60	-2741
▁河南	-2742
▁反应	-2743
▁男子	-2744
▁背景	-2745
▁潮	-2746
▁打击	-2747
▁教师	-2748
▁承担	-2749
▁议	-2750
▁公园	-2751
▁*	-2752
▁电池	-2753
▁倍	-2754
▁害	-2755
▁成就	-2756
st	-2757
▁杜兰特	-2758
▁规范	-2759
▁士	-2760
不过	-2761
▁特点	-2762
▁g	-2763
▁船	-2764
▁划	-2765
▁做法	-2766
▁污	-2767
▁纠	-2768
20	-2769
▁晋	-2770
▁立即	-2771
▁the	-2772
▁商品	-2773
▁具备	-2774
▁阳光	-2775
▁搭载	-2776
▁对比	-2777
▁小伙伴	-2778
▁语言	-2779
▁春晚	-2780
▁羽	-2781
▁工资	-2782
▁部署	-2783
▁犯罪	-2784
▁寄	-2785
▁猫	-2786
▁疯	-2787
不住	-2788
▁播出	-2789
▁无人	-2790
▁湖南	-2791
▁犹	-2792
▁主席	-2793
▁常规	-2794
▁轰	-2795
▁认可	-2796
▁乱	-2797
▁婆	-2798
▁差距	-2799
▁38	-2800
▁绿色	-2801
▁曝光	-2802
▁机器人	-2803
▁就业	-2804
▁抛	-2805
▁各地	-2806
▁劳动	-2807
▁全省	-2808
▁民族	-2809
▁收获	-2810
▁废	-2811
▁先后	-2812
▁展开	-2813
▁上升	-2814
▁对象	-2815
▁毫无	-2816
▁三年	-2817
▁吹	-2818
▁童	-2819
▁办理	-2820
▁发行	-2821
▁晴	-2822
▁甲	-2823
▁尽量	-2824
▁尝试	-2825
▁先进	-2826
▁瑞	-2827
▁内饰	-2828
▁魏	-2829
▁两年	-2830
▁趋势	-2831
one	-2832
▁屏幕	-2833
▁一段时间	-2834
▁练	-2835
▁邀	-2836
▁复杂	-2837
▁统计	-2838
▁综艺	-2839
▁改造	-2840
▁搬	-2841
▁儿童	-2842
▁理论	-2843
▁刑	-2844
▁进口	-2845
▁鼓励	-2846
▁上线	-2847
▁振	-2848
▁寻找	-2849
▁滑	-2850
▁西部	-2851
▁革命	-2852
▁大幅	-2853
▁流行	-2854
瞬间	-2855
▁精致	-2856
▁祝福	-2857
▁颇	-2858
▁成都	-2859
▁敌人	-2860
▁雄	-2861
▁青年	-2862
▁猛	-2863
▁伟	-2864
▁帝	-2865
▁央视	-2866
▁嫁	-2867
▁肝	-2868
▁误	-2869
▁兄弟	-2870
▁养老	-2871
▁掌握	-2872
▁猜	-2873
安全	-2874
PP	-2875
▁常见	-2876
▁不久	-2877
▁扩大	-2878
▁大衣	-2879
▁主力	-2880
▁万人	-2881
▁本场	-2882
▁费用	-2883
▁弱	-2884
▁森林	-2885
▁弟	-2886
▁两位	-2887
▁下午	-2888
▁长大	-2889
▁晒	-2890
▁危险	-2891
系列	-2892
▁举办	-2893
▁治理	-2894
10	-2895
▁画面	-2896
▁各项	-2897
od	-2898
▁保险	-2899
▁'	-2900
▁欲	-2901
▁可见	-2902
▁黄金	-2903
▁去世	-2904
▁维持	-2905
▁好像	-2906
▁家族	-2907
▁当天	-2908
此之	-2909
▁下去	-2910
▁托	-2911
▁孔	-2912
▁～	-2913
▁加速	-2914
▁无疑	-2915
部门	-2916
▁欧文	-2917
▁毒	-2918
垃圾	-2919
▁接近	-2920
▁负责人	-2921
▁等待	-2922
▁可谓	-2923
▁欣	-2924
▁究	-2925
▁回归	-2926
▁看上去	-2927
▁融合	-2928
▁法院	-2929
▁塑	-2930
▁说法	-2931
▁记忆	-2932
▁34	-2933
产品	-2934
▁错误	-2935
▁缩	-2936
▁链	-2937
▁室	-2938
▁纵	-2939
▁支撑	-2940
▁作出	-2941
▁渐	-2942
▁1000	-2943
▁携	-2944
▁冲击	-2945
▁看法	-2946
▁本人	-2947
▁酒店	-2948
▁想象	-2949
30	-2950
▁基地	-2951
▁诺	-2952
▁刻	-2953
▁便是	-2954
▁作战	-2955
▁声明	-2956
▁撤	-2957
▁2015	-2958
▁沟通	-2959
▁制定	-2960
▁吕	-2961
▁一系列	-2962
▁垃圾	-2963
▁扫	-2964
▁夸	-2965
▁著名	-2966
▁2.0	-2967
▁挖	-2968
▁启动	-2969
▁一度	-2970
▁魅力	-2971
▁票房	-2972
▁流量	-2973
▁插	-2974
▁词	-2975
晓彤	-2976
▁的确	-2977
▁心情	-2978
▁到来	-2979
▁狂	-2980
▁转载	-2981
▁订	-2982
▁泡	-2983
▁听到	-2984
▁覆盖	-2985
▁旁	-2986
▁诊	-2987
▁登记	-2988
▁埃	-2989
▁宠	-2990
如此	-2991
▁深刻	-2992
▁老公	-2993
▁荣耀	-2994
▁应当	-2995
▁一片	-2996
▁独特	-2997
▁回忆	-2998
▁命中率	-2999
▁温度	-3000
▁望	-3001
▁出场	-3002
▁详	-3003
▁o	-3004
▁园	-3005
▁千万	-3006
▁脱贫	-3007
▁矛盾	-3008
克斯	-3009
▁村民	-3010
▁敢	-3011
▁杰	-3012
▁加大	-3013
▁皆	-3014
▁卢	-3015
▁重视	-3016
▁防疫	-3017
▁描	-3018
▁当初	-3019
▁运行	-3020
季度	-3021
▁钟	-3022
▁砍	-3023
州市	-3024
il	-3025
▁穿着	-3026
▁遭到	-3027
贸易	-3028
▁坏	-3029
▁广告	-3030
▁庆	-3031
▁几天	-3032
▁沪	-3033
▁劝	-3034
▁股票	-3035
▁岗	-3036
▁应对	-3037
▁肌	-3038
▁类型	-3039
▁庄	-3040
▁四个	-3041
▁贷款	-3042
▁小学	-3043
▁能量	-3044
▁平安	-3045
▁尊重	-3046
▁浮	-3047
▁195	-3048
▁怕	-3049
▁飞机	-3050
▁后面	-3051
▁过于	-3052
▁新车	-3053
▁杭	-3054
▁召开	-3055
▁薄	-3056
▁诉	-3057
▁懂得	-3058
▁收到	-3059
▁温柔	-3060
▁天下	-3061
▁队友	-3062
▁快船	-3063
▁罪	-3064
地产	-3065
没有	-3066
▁居住	-3067
▁纸	-3068
▁有没有	-3069
▁布局	-3070
▁美军	-3071
▁满意	-3072
▁加盟	-3073
▁证券	-3074
▁战绩	-3075
▁干部	-3076
▁可惜	-3077
▁足球	-3078
▁第五	-3079
▁允	-3080
▁大概	-3081
▁37	-3082
▁贫困	-3083
▁航空	-3084
▁途	-3085
▁理由	-3086
▁关心	-3087
▁撰	-3088
▁敬	-3089
▁手段	-3090
▁引导	-3091
十年	-3092
▁家中	-3093
▁专门	-3094
▁主演	-3095
▁解放	-3096
▁迈	-3097
▁孟	-3098
▁房地产	-3099
▁各个	-3100
▁新疆	-3101
▁枪	-3102
▁事实上	-3103
▁估计	-3104
▁从小	-3105
▁西方	-3106
▁穿衣	-3107
▁进步	-3108
▁消防	-3109
▁警方	-3110
先生	-3111
▁怪	-3112
▁120	-3113
▁仿	-3114
▁逼	-3115
▁男篮	-3116
▁03	-3117
▁高端	-3118
▁植物	-3119
▁聚集	-3120
▁症状	-3121
▁理念	-3122
▁桥	-3123
▁思考	-3124
▁柔	-3125
▁发出	-3126
▁尺	-3127
▁休息	-3128
▁首发	-3129
▁雅	-3130
▁萨	-3131
▁国产	-3132
▁有时候	-3133
▁忠	-3134
▁恰	-3135
▁冒	-3136
▁少年	-3137
▁生长	-3138
▁在线	-3139
▁高质量	-3140
▁多种	-3141
▁车主	-3142
▁运输	-3143
▁而已	-3144
▁海外	-3145
▁路上	-3146
气温	-3147
▁赔	-3148
▁裁	-3149
不多	-3150
▁不太	-3151
▁派出	-3152
▁女主	-3153
▁说话	-3154
▁姜	-3155
▁动画	-3156
▁合适	-3157
▁受伤	-3158
▁总体	-3159
▁Y	-3160
▁表面	-3161
▁灭	-3162
▁Pro	-3163
▁福建	-3164
▁相互	-3165
▁两种	-3166
▁粮	-3167
▁贾玲	-3168
▁奉	-3169
▁一套	-3170
UV	-3171
▁即可	-3172
▁人工	-3173
▁质疑	-3174
▁陷入	-3175
▁文字	-3176
▁最为	-3177
▁辅助	-3178
▁彼此	-3179
▁承认	-3180
▁损失	-3181
▁资格	-3182
▁免费	-3183
▁添加	-3184
▁高达	-3185
▁探索	-3186
▁游客	-3187
▁究竟	-3188
▁人气	-3189
▁反对	-3190
▁豪华	-3191
▁较大	-3192
▁二人	-3193
▁长安	-3194
▁流动	-3195
▁味道	-3196
▁谋	-3197
▁物质	-3198
▁库里	-3199
明星	-3200
▁级别	-3201
▁基于	-3202
市场	-3203
▁同意	-3204
▁应急	-3205
▁防护	-3206
▁币	-3207
▁情感	-3208
▁击败	-3209
▁房价	-3210
▁广泛	-3211
▁既然	-3212
▁弗	-3213
▁湿	-3214
▁邀请	-3215
▁48	-3216
▁定位	-3217
教育	-3218
▁y	-3219
▁渠	-3220
▁秀	-3221
▁扣	-3222
▁大大	-3223
▁禁止	-3224
▁轨	-3225
▁教练	-3226
出来	-3227
▁分手	-3228
▁简直	-3229
▁板块	-3230
▁督	-3231
▁周边	-3232
▁扭	-3233
▁恋爱	-3234
▁淘	-3235
▁一方面	-3236
▁允许	-3237
▁过来	-3238
▁饮食	-3239
▁瞬间	-3240
▁骗	-3241
▁大气	-3242
▁剧中	-3243
▁出演	-3244
▁实行	-3245
▁桃	-3246
▁毛衣	-3247
▁啥	-3248
▁披	-3249
▁书记	-3250
▁出口	-3251
▁年纪	-3252
▁帅	-3253
▁各类	-3254
▁各位	-3255
▁遵	-3256
▁洪	-3257
▁上述	-3258
▁公告	-3259
▁汪	-3260
▁只不过	-3261
▁移动	-3262
▁攻坚	-3263
▁答案	-3264
▁较为	-3265
▁成交	-3266
▁盐	-3267
▁iP	-3268
▁疏	-3269
▁十四	-3270
▁少女	-3271
▁人家	-3272
▁争议	-3273
▁出去	-3274
▁惨	-3275
▁超越	-3276
▁回答	-3277
面积	-3278
▁内线	-3279
▁股东	-3280
▁热度	-3281
▁零售	-3282
▁更为	-3283
▁踏	-3284
▁漂亮	-3285
▁196	-3286
▁喜爱	-3287
▁建成	-3288
▁人士	-3289
▁女士	-3290
▁公主	-3291
▁浅	-3292
▁依靠	-3293
▁个性	-3294
▁自信	-3295
▁39	-3296
▁网站	-3297
▁炸	-3298
学院	-3299
▁本次	-3300
▁早已	-3301
▁景区	-3302
机构	-3303
▁力度	-3304
▁民众	-3305
▁输入	-3306
技术	-3307
▁命运	-3308
▁威胁	-3309
辈子	-3310
▁否则	-3311
▁干净	-3312
▁精准	-3313
▁虎	-3314
▁原作	-3315
▁胃	-3316
▁全力	-3317
▁冬季	-3318
▁SUV	-3319
▁陪伴	-3320
▁来源于	-3321
▁磨	-3322
▁南方	-3323
▁粗	-3324
▁判断	-3325
▁某某	-3326
▁遗憾	-3327
▁董事	-3328
▁外出	-3329
▁一项	-3330
and	-3331
委会	-3332
▁陕	-3333
▁给出	-3334
▁193	-3335
机关	-3336
▁或是	-3337
▁民主	-3338
▁稀	-3339
▁青岛	-3340
▁最低气温	-3341
▁履	-3342
▁卷	-3343
▁概念	-3344
▁鞋	-3345
▁据悉	-3346
▁教授	-3347
▁外界	-3348
▁瓦	-3349
▁感染者	-3350
▁投资者	-3351
▁新华	-3352
▁转型	-3353
iv	-3354
▁围绕	-3355
▁古代	-3356
▁一块	-3357
▁优质	-3358
▁界	-3359
▁]	-3360
▁预期	-3361
▁[	-3362
▁当下	-3363
▁输出	-3364
▁姚	-3365
▁程序	-3366
▁丹	-3367
▁补充	-3368
就是	-3369
▁一座	-3370
▁一体	-3371
▁勤	-3372
▁痛苦	-3373
的是	-3374
ol	-3375
和国	-3376
▁适应	-3377
▁骑士	-3378
大利亚	-3379
▁分为	-3380
ion	-3381
▁工具	-3382
▁后期	-3383
▁强烈	-3384
▁心态	-3385
▁#	-3386
▁要是	-3387
▁其次	-3388
▁_	-3389
▁咖	-3390
▁极大	-3391
▁及其	-3392
▁品质	-3393
▁上午	-3394
▁载	-3395
▁▲	-3396
12	-3397
▁山西	-3398
氛围	-3399
▁刺激	-3400
▁巨头	-3401
▁平方	-3402
▁普遍	-3403
▁澳大利亚	-3404
▁场均	-3405
▁摇	-3406
▁第十	-3407
▁吃饭	-3408
▁财富	-3409
▁州	-3410
▁软件	-3411
▁示范	-3412
▁中证	-3413
▁设施	-3414
▁伊朗	-3415
▁锦	-3416
▁事故	-3417
▁辆	-3418
▁必然	-3419
▁作业	-3420
▁监测	-3421
▁咱	-3422
▁萧	-3423
▁那里	-3424
▁战队	-3425
▁中间	-3426
▁缺乏	-3427
▁墙	-3428
▁一波	-3429
▁高校	-3430
▁@	-3431
▁色彩	-3432
▁不仅仅	-3433
hone	-3434
▁诚	-3435
▁筹	-3436
▁等到	-3437
▁由此	-3438
▁缅	-3439
▁码	-3440
不了	-3441
▁聪	-3442
▁信号	-3443
▁互动	-3444
▁胸	-3445
▁赚钱	-3446
▁妹	-3447
▁亚洲	-3448
▁亏	-3449
▁执法	-3450
▁姑	-3451
▁岳	-3452
▁用来	-3453
▁裤	-3454
▁佳	-3455
▁点赞	-3456
▁空气	-3457
▁名单	-3458
▁群体	-3459
▁读书	-3460
▁孕	-3461
▁十足	-3462
▁同一	-3463
as	-3464
▁收藏	-3465
▁东部	-3466
▁昆	-3467
▁剪	-3468
▁影片	-3469
▁渠道	-3470
▁十年	-3471
环境	-3472
▁得知	-3473
▁确认	-3474
▁飞行	-3475
▁文件	-3476
▁凡	-3477
▁预防	-3478
管理	-3479
▁走向	-3480
▁哪怕	-3481
▁马上	-3482
▁有利	-3483
▁衬	-3484
▁纪录	-3485
战争	-3486
▁一代	-3487
▁闲	-3488
▁消毒	-3489
▁仔	-3490
▁墨	-3491
学家	-3492
▁货币	-3493
▁剑	-3494
▁时光	-3495
▁届	-3496
▁和平	-3497
▁扶贫	-3498
银行	-3499
▁岛	-3500
▁陌	-3501
▁闹	-3502
▁42	-3503
不起	-3504
▁近年来	-3505
▁肩	-3506
▁东方	-3507
▁一批	-3508
▁明天	-3509
▁生存	-3510
▁释放	-3511
▁填	-3512
▁停止	-3513
▁紧张	-3514
▁律	-3515
▁相处	-3516
▁从事	-3517
▁主角	-3518
▁年底	-3519
▁后续	-3520
▁鬼	-3521
▁艺人	-3522
▁谷	-3523
▁拓	-3524
▁消失	-3525
▁一只	-3526
▁缘	-3527
▁刀	-3528
▁施工	-3529
▁撰写	-3530
▁人体	-3531
ot	-3532
▁占据	-3533
▁饱	-3534
▁教学	-3535
▁iPhone	-3536
▁珠	-3537
▁三分球	-3538
▁肥	-3539
mm	-3540
▁场所	-3541
▁见到	-3542
▁车身	-3543
▁住房	-3544
▁氛围	-3545
▁疼	-3546
▁惠	-3547
▁路线	-3548
▁落后	-3549
▁基层	-3550
▁致敬	-3551
▁休闲	-3552
ch	-3553
▁取消	-3554
▁原作者	-3555
▁忘记	-3556
不上	-3557
▁一致	-3558
▁件	-3559
▁反映	-3560
▁办公室	-3561
▁置	-3562
▁赌	-3563
▁剩下	-3564
▁缴	-3565
循环	-3566
▁婆婆	-3567
▁器	-3568
▁自从	-3569
▁该车	-3570
▁跟着	-3571
▁矿	-3572
▁=	-3573
ED	-3574
▁习近	-3575
▁优雅	-3576
▁习近平	-3577
▁营业	-3578
▁所有人	-3579
▁什么样	-3580
▁乃	-3581
▁上半	-3582
▁锁	-3583
▁响	-3584
▁v	-3585
▁达成	-3586
▁两次	-3587
▁不算	-3588
▁司机	-3589
▁穆	-3590
▁主体	-3591
▁起到	-3592
▁构建	-3593
▁防止	-3594
▁生肖	-3595
▁同事	-3596
▁旗下	-3597
▁上下	-3598
▁韦	-3599
▁飘	-3600
▁无症状	-3601
▁国王	-3602
▁这份	-3603
▁海军	-3604
▁纽	-3605
▁伟大	-3606
▁典型	-3607
▁慈	-3608
▁哥哥	-3609
▁周围	-3610
▁年报	-3611
▁另一方面	-3612
▁贺	-3613
▁蔬	-3614
ab	-3615
▁看见	-3616
▁前期	-3617
▁形势	-3618
▁宇宙	-3619
▁额	-3620
▁坚决	-3621
▁自主	-3622
▁赢得	-3623
▁害怕	-3624
▁破坏	-3625
▁坚定	-3626
▁表明	-3627
▁俗	-3628
▁云南	-3629
▁密切	-3630
▁子女	-3631
▁55	-3632
▁妇	-3633
▁一把	-3634
▁相应	-3635
就是说	-3636
▁运用	-3637
▁成果	-3638
▁屋	-3639
公里	-3640
产党	-3641
▁证据	-3642
▁煮	-3643
▁穷	-3644
▁是从	-3645
▁节奏	-3646
▁舍	-3647
▁无奈	-3648
▁疯狂	-3649
▁撒	-3650
▁杭州	-3651
▁承诺	-3652
▁对待	-3653
us	-3654
▁男性	-3655
▁中小	-3656
▁只会	-3657
▁返乡	-3658
▁对外	-3659
▁打算	-3660
▁辞	-3661
▁司法	-3662
来说	-3663
▁概率	-3664
▁欺	-3665
▁留在	-3666
▁其它	-3667
▁柳	-3668
▁如下	-3669
▁毛泽	-3670
▁对阵	-3671
不到	-3672
▁烦	-3673
▁财政	-3674
▁转发	-3675
▁切实	-3676
家庄	-3677
▁一支	-3678
▁敏	-3679
▁液	-3680
资源	-3681
社会	-3682
▁贸易	-3683
▁凉	-3684
▁打破	-3685
▁也就是说	-3686
▁陶	-3687
▁尴	-3688
▁格局	-3689
▁伦	-3690
▁一颗	-3691
▁for	-3692
▁接到	-3693
▁身高	-3694
▁尴尬	-3695
▁居然	-3696
▁出手	-3697
▁非法	-3698
▁构成	-3699
▁营销	-3700
▁动态	-3701
▁生涯	-3702
▁规则	-3703
▁爆料	-3704
▁钻	-3705
▁难度	-3706
▁协调	-3707
▁厉	-3708
▁岁月	-3709
▁隆	-3710
▁十二	-3711
▁从此	-3712
▁43	-3713
▁邻	-3714
▁市委	-3715
▁完整	-3716
▁到达	-3717
▁集体	-3718
▁物流	-3719
▁分布	-3720
规模	-3721
▁锅	-3722
▁信任	-3723
os	-3724
▁冬天	-3725
▁涨幅	-3726
ad	-3727
▁老婆	-3728
▁2014	-3729
▁手术	-3730
▁奥运	-3731
行为	-3732
▁岗位	-3733
▁幽	-3734
▁万亿	-3735
▁挣	-3736
▁大约	-3737
▁羽绒	-3738
▁股价	-3739
▁生于	-3740
▁奋斗	-3741
▁包含	-3742
▁略	-3743
▁下滑	-3744
▁状况	-3745
▁牢	-3746
▁记载	-3747
▁迟	-3748
一提	-3749
▁管控	-3750
▁把握	-3751
▁影响力	-3752
▁铺	-3753
▁国外	-3754
ig	-3755
80	-3756
▁注册	-3757
▁登上	-3758
▁厨	-3759
▁扮	-3760
▁全年	-3761
rit	-3762
▁保留	-3763
此之外	-3764
▁除此之外	-3765
▁下半	-3766
▁物业	-3767
▁注重	-3768
▁新型	-3769
▁互相	-3770
▁三十	-3771
▁多么	-3772
▁撞	-3773
▁蔬菜	-3774
▁标志	-3775
▁种植	-3776
▁扬	-3777
▁贯彻	-3778
▁常常	-3779
▁全场	-3780
▁凤	-3781
▁思维	-3782
▁设立	-3783
▁日至	-3784
▁腹	-3785
▁赤	-3786
法院	-3787
▁春天	-3788
▁再也	-3789
▁连接	-3790
▁喷	-3791
▁早就	-3792
▁鼻	-3793
▁煤	-3794
▁专项	-3795
▁炮	-3796
▁揭	-3797
ay	-3798
TF	-3799
▁篇	-3800
▁讲述	-3801
▁尺寸	-3802
▁匹	-3803
▁处罚	-3804
▁电商	-3805
▁兴趣	-3806
▁比分	-3807
▁聪明	-3808
pp	-3809
▁男主	-3810
▁熊	-3811
▁警察	-3812
▁毛泽东	-3813
▁紧急	-3814
▁大力	-3815
▁更大	-3816
▁各自	-3817
▁95	-3818
▁念	-3819
▁营造	-3820
▁荷	-3821
▁年前	-3822
▁持有	-3823
▁瘦	-3824
▁高中	-3825
▁有时	-3826
▁般	-3827
▁中学	-3828
▁有意	-3829
▁逐步	-3830
▁暂时	-3831
▁继承	-3832
▁道理	-3833
▁46	-3834
▁西安	-3835
▁工厂	-3836
牺牲	-3837
▁为此	-3838
▁惊喜	-3839
▁比特	-3840
▁沃尔	-3841
▁交警	-3842
▁旗舰	-3843
▁王者	-3844
▁上班	-3845
▁预测	-3846
▁迫	-3847
▁诱	-3848
主席	-3849
▁旅行	-3850
▁象	-3851
▁催	-3852
▁越南	-3853
▁石家庄	-3854
▁阳性	-3855
▁高效	-3856
▁一是	-3857
▁年老	-3858
▁济	-3859
▁策略	-3860
▁工人	-3861
▁洋	-3862
▁潘	-3863
▁区别	-3864
▁纪念	-3865
▁弄	-3866
▁朝鲜	-3867
70	-3868
▁境外	-3869
▁相同	-3870
▁巅	-3871
▁美食	-3872
▁以外	-3873
▁这句	-3874
▁安装	-3875
▁审核	-3876
▁堪	-3877
▁固定	-3878
▁金额	-3879
▁帕	-3880
▁务	-3881
▁一面	-3882
id	-3883
不开	-3884
▁羽绒服	-3885
▁每日	-3886
▁延续	-3887
▁一人	-3888
▁棉	-3889
▁停车	-3890
▁战胜	-3891
▁不但	-3892
▁房屋	-3893
▁手中	-3894
▁崇	-3895
▁相似	-3896
ream	-3897
▁不满	-3898
▁闭	-3899
▁41	-3900
un	-3901
水平	-3902
▁聊天	-3903
▁常规赛	-3904
组织	-3905
▁深度	-3906
▁异常	-3907
卫生	-3908
▁难道	-3909
▁退休	-3910
▁欠	-3911
▁摸	-3912
▁平衡	-3913
▁满满	-3914
▁对抗	-3915
▁凝	-3916
▁块	-3917
▁巅峰	-3918
▁热情	-3919
▁实践	-3920
▁赋	-3921
▁前后	-3922
▁陌生	-3923
▁酸	-3924
▁值得一提	-3925
▁企	-3926
利润	-3927
▁退出	-3928
▁玻	-3929
▁中共	-3930
▁不行	-3931
▁眼前	-3932
▁趁	-3933
▁三星	-3934
▁贵州	-3935
▁此后	-3936
▁弟弟	-3937
▁铜	-3938
▁进球	-3939
羡慕	-3940
▁.......	-3941
▁高考	-3942
▁鸟	-3943
▁地铁	-3944
▁日前	-3945
▁到位	-3946
节目	-3947
▁怀疑	-3948
▁前面	-3949
▁获取	-3950
▁厉害	-3951
▁辖	-3952
▁战场	-3953
▁环节	-3954
▁装饰	-3955
▁乘坐	-3956
工作	-3957
▁早期	-3958
城市	-3959
▁局面	-3960
▁埋	-3961
▁荒	-3962
▁转移	-3963
▁玛	-3964
▁详细	-3965
▁姓	-3966
▁出发	-3967
▁落地	-3968
冠军	-3969
▁带动	-3970
▁无限	-3971
▁能源	-3972
能力	-3973
▁新春	-3974
▁床	-3975
▁担当	-3976
▁湖北	-3977
▁迁	-3978
▁辉	-3979
▁科学家	-3980
▁茅	-3981
演员	-3982
21	-3983
▁市值	-3984
日报	-3985
▁锻	-3986
▁最初	-3987
▁地下	-3988
▁壮	-3989
▁摄影	-3990
▁e	-3991
▁幸运	-3992
▁流程	-3993
▁不必	-3994
▁实用	-3995
▁长时间	-3996
▁阴性	-3997
▁临床	-3998
▁线上	-3999
▁现代化	-4000
▁买房	-4001
▁抓住	-4002
▁一番	-4003
▁演出	-4004
▁赫	-4005
▁危机	-4006
▁庞	-4007
▁衰	-4008
▁抑	-4009
▁某些	-4010
▁居家	-4011
▁44	-4012
▁谢谢	-4013
▁珍惜	-4014
▁公安局	-4015
▁亲自	-4016
▁蒸	-4017
▁准确	-4018
▁季后	-4019
▁信心	-4020
▁吨	-4021
▁新鲜	-4022
▁新一	-4023
▁有趣	-4024
▁续航	-4025
▁售价	-4026
▁国务	-4027
▁风景	-4028
收入	-4029
▁菲	-4030
▁畅	-4031
▁季后赛	-4032
▁侦	-4033
▁坐在	-4034
▁诞	-4035
▁泪	-4036
不可	-4037
▁救援	-4038
▁通讯	-4039
▁Dream	-4040
▁天赋	-4041
▁案例	-4042
▁罢	-4043
▁贪	-4044
▁势力	-4045
▁2008	-4046
▁通报	-4047
▁缅甸	-4048
▁出战	-4049
▁76	-4050
▁失误	-4051
▁可能性	-4052
▁本地	-4053
▁你好	-4054
▁400	-4055
▁喜剧	-4056
▁别的	-4057
▁西装	-4058
▁to	-4059
▁闻	-4060
▁差异	-4061
健康	-4062
▁并未	-4063
▁士兵	-4064
▁二是	-4065
▁周期	-4066
▁嫌疑	-4067
▁十三	-4068
▁北方	-4069
▁责	-4070
▁叫做	-4071
99	-4072
设施	-4073
▁you	-4074
会议	-4075
▁伯	-4076
▁生日	-4077
▁将军	-4078
▁乳	-4079
▁东南	-4080
▁电脑	-4081
▁统治	-4082
▁五年	-4083
▁评估	-4084
▁擅	-4085
▁西北	-4086
▁of	-4087
▁发放	-4088
▁75	-4089
▁食用	-4090
▁激烈	-4091
▁连胜	-4092
▁CBA	-4093
▁家乡	-4094
▁l	-4095
▁口碑	-4096
▁冻	-4097
▁幼儿	-4098
▁一辆	-4099
▁牙	-4100
▁牺牲	-4101
▁玄	-4102
▁喊	-4103
▁主场	-4104
▁线条	-4105
ir	-4106
▁昨天	-4107
▁在家	-4108
里斯	-4109
▁净利润	-4110
▁外国	-4111
▁采购	-4112
▁65	-4113
▁出版	-4114
▁利率	-4115
▁安徽	-4116
▁顶级	-4117
▁机关	-4118
▁抢断	-4119
▁共有	-4120
▁夹	-4121
▁感动	-4122
▁律师	-4123
▁适当	-4124
消息	-4125
▁瓜	-4126
▁楚	-4127
▁这时	-4128
▁战士	-4129
▁止	-4130
▁本土	-4131
▁值得一提的是	-4132
▁推广	-4133
riter	-4134
DP	-4135
▁邮	-4136
▁引进	-4137
▁指标	-4138
▁十几	-4139
▁大会	-4140
▁污染	-4141
▁疲	-4142
▁舰	-4143
▁遮	-4144
▁排查	-4145
▁一身	-4146
▁能否	-4147
▁吊	-4148
▁碎	-4149
▁外援	-4150
▁自行	-4151
▁物资	-4152
▁呈现出	-4153
writer	-4154
▁姿	-4155
▁技巧	-4156
▁座椅	-4157
▁洞	-4158
▁Dreamwriter	-4159
咨询	-4160
▁清晰	-4161
▁点评	-4162
▁年老体	-4163
▁低调	-4164
▁2013	-4165
▁收购	-4166
▁差不多	-4167
ent	-4168
▁捐	-4169
▁中医	-4170
▁躲	-4171
▁佩戴	-4172
ok	-4173
▁年老体弱	-4174
▁蓝色	-4175
▁识	-4176
▁免疫	-4177
大利	-4178
▁掩	-4179
▁宏	-4180
▁与此	-4181
▁骂	-4182
▁快递	-4183
风险	-4184
▁小心	-4185
▁宿	-4186
▁偶像	-4187
ow	-4188
▁药物	-4189
▁临时	-4190
▁利润	-4191
▁仿佛	-4192
▁仓	-4193
▁歌手	-4194
▁授权	-4195
▁发言	-4196
▁47	-4197
▁出门	-4198
▁爵	-4199
▁细胞	-4200
▁抚	-4201
▁哪个	-4202
▁竹	-4203
▁艰难	-4204
▁单品	-4205
▁日军	-4206
▁巧	-4207
▁材质	-4208
▁崩	-4209
▁就让	-4210
▁渐渐	-4211
▁失望	-4212
▁发起	-4213
▁气息	-4214
▁挡	-4215
▁活力	-4216
▁外交	-4217
▁补贴	-4218
▁以往	-4219
▁一半	-4220
▁歌曲	-4221
▁广场	-4222
sp	-4223
ur	-4224
▁各国	-4225
11	-4226
▁现有	-4227
▁文学	-4228
▁荣誉	-4229
▁辣	-4230
▁博士	-4231
▁认知	-4232
▁巩	-4233
▁这边	-4234
▁电动车	-4235
▁大小	-4236
产业	-4237
▁呼吸	-4238
▁权利	-4239
▁接着	-4240
▁工艺	-4241
▁购物	-4242
同时	-4243
▁与此同时	-4244
▁有望	-4245
▁毛主席	-4246
▁射手	-4247
▁替补	-4248
▁认定	-4249
▁基因	-4250
▁头发	-4251
▁88	-4252
▁吉林	-4253
▁2010	-4254
▁强势	-4255
▁牌	-4256
▁十四五	-4257
▁熬	-4258
▁幻	-4259
▁低于	-4260
▁小孩	-4261
▁返回	-4262
▁中有	-4263
▁鉴	-4264
▁人大	-4265
▁再度	-4266
▁整治	-4267
▁社会主义	-4268
▁第六	-4269
▁主持人	-4270
▁脂	-4271
▁援	-4272
▁要说	-4273
逻辑	-4274
▁不论	-4275
▁随时	-4276
▁批评	-4277
▁抄	-4278
▁依赖	-4279
▁表情	-4280
▁IP	-4281
▁派出所	-4282
▁长沙	-4283
▁超市	-4284
▁弥	-4285
共和国	-4286
▁设定	-4287
▁川	-4288
▁尔	-4289
▁癌	-4290
▁曼联	-4291
▁一道	-4292
▁拟	-4293
服务	-4294
不得	-4295
▁陕西	-4296
▁要么	-4297
▁各大	-4298
▁款式	-4299
▁同志	-4300
▁一辈子	-4301
▁盈	-4302
▁麻烦	-4303
▁葡	-4304
▁仔细	-4305
▁全世界	-4306
▁大规模	-4307
▁买入	-4308
▁盗	-4309
▁主流	-4310
▁192	-4311
▁多多	-4312
▁考生	-4313
▁斗罗	-4314
▁走进	-4315
▁物理	-4316
▁牛仔	-4317
▁在内	-4318
至于	-4319
▁境内	-4320
▁长江	-4321
▁妥	-4322
▁1.2	-4323
▁狼	-4324
▁批准	-4325
▁没什么	-4326
▁怀孕	-4327
▁卧	-4328
▁笔者	-4329
▁最早	-4330
▁百分	-4331
▁定期	-4332
▁缓解	-4333
▁公交	-4334
▁诊断	-4335
▁公平	-4336
▁创建	-4337
▁羡慕	-4338
▁陈翔	-4339
▁高铁	-4340
▁看好	-4341
▁发布会	-4342
▁最强	-4343
▁结局	-4344
▁GDP	-4345
▁逻辑	-4346
▁足以	-4347
▁前提	-4348
▁便利	-4349
▁机械	-4350
▁主人	-4351
▁凌晨	-4352
▁丧	-4353
▁一对	-4354
▁顿	-4355
▁融入	-4356
▁人间	-4357
▁奖励	-4358
▁想起	-4359
▁凸	-4360
▁调节	-4361
▁常态	-4362
▁毁	-4363
▁预警	-4364
▁in	-4365
PL	-4366
▁整理	-4367
▁加工	-4368
▁物品	-4369
▁些	-4370
▁民生	-4371
▁遥	-4372
▁52	-4373
NG	-4374
▁转变	-4375
▁说道	-4376
▁男女	-4377
▁尚未	-4378
▁加拿	-4379
▁协会	-4380
▁踢	-4381
▁加拿大	-4382
▁带有	-4383
▁玻璃	-4384
分钟	-4385
▁杯	-4386
▁脸上	-4387
▁违规	-4388
▁振兴	-4389
▁从未	-4390
电话	-4391
▁发文	-4392
▁助力	-4393
▁阿里	-4394
中央	-4395
▁海南	-4396
▁上映	-4397
▁抬	-4398
▁特征	-4399
价比	-4400
▁Z	-4401
▁恐怕	-4402
▁The	-4403
▁赶紧	-4404
▁外面	-4405
▁最多	-4406
▁讯	-4407
▁节日	-4408
▁In	-4409
▁血液	-4410
▁回复	-4411
▁不利	-4412
▁扮演	-4413
▁51	-4414
▁好处	-4415
▁战术	-4416
▁道歉	-4417
▁舆	-4418
▁分类	-4419
▁勒	-4420
▁下方	-4421
▁伍	-4422
▁引领	-4423
德华	-4424
▁2012	-4425
▁咱们	-4426
▁热爱	-4427
▁简称	-4428
▁诞生	-4429
▁来讲	-4430
▁属性	-4431
▁投篮	-4432
▁辛苦	-4433
▁层面	-4434
▁有钱	-4435
▁奢	-4436
▁课程	-4437
▁比如说	-4438
▁盲	-4439
▁英寸	-4440
▁处置	-4441
▁舒服	-4442
ate	-4443
▁想着	-4444
VP	-4445
▁和谐	-4446
▁乘客	-4447
▁不然	-4448
▁党委	-4449
▁保暖	-4450
▁所说	-4451
▁碳	-4452
▁真心	-4453
▁便宜	-4454
▁滋	-4455
▁看似	-4456
▁描述	-4457
▁告知	-4458
▁大师	-4459
▁御	-4460
▁试图	-4461
▁毛晓彤	-4462
▁暂停	-4463
▁验	-4464
▁有序	-4465
▁育	-4466
设计	-4467
▁访	-4468
▁衣物	-4469
▁民间	-4470
▁2011	-4471
▁咸	-4472
▁上赛季	-4473
▁一时	-4474
▁灵魂	-4475
▁男生	-4476
▁权力	-4477
▁1.3	-4478
▁孝	-4479
▁水果	-4480
▁新华社	-4481
▁二手	-4482
▁一共	-4483
▁戈	-4484
▁备受	-4485
▁发射	-4486
▁热门	-4487
▁演唱	-4488
▁予	-4489
▁献	-4490
▁秘密	-4491
▁广西	-4492
▁5000	-4493
▁05	-4494
▁百姓	-4495
▁旺	-4496
▁看过	-4497
▁句	-4498
▁锻炼	-4499
▁举报	-4500
▁守护	-4501
▁含有	-4502
▁醉	-4503
▁询	-4504
▁有个	-4505
▁苍	-4506
▁沈阳	-4507
▁争取	-4508
▁爲	-4509
▁传说	-4510
▁航母	-4511
▁不小	-4512
▁积累	-4513
▁垂	-4514
▁太多	-4515
▁勾	-4516
▁败	-4517
▁竞争力	-4518
ut	-4519
▁加油	-4520
▁运势	-4521
▁轻易	-4522
▁赛事	-4523
▁咨询	-4524
▁合法	-4525
委员	-4526
▁层次	-4527
▁频繁	-4528
▁党员	-4529
▁04	-4530
▁须	-4531
▁缺少	-4532
▁好友	-4533
▁西班	-4534
▁胖	-4535
▁拿出	-4536
▁张恒	-4537
▁西班牙	-4538
▁错过	-4539
▁脾	-4540
▁这才	-4541
▁傻	-4542
工程	-4543
▁西南	-4544
▁篮球	-4545
▁寒冷	-4546
▁神秘	-4547
▁49	-4548
▁诸多	-4549
▁眼中	-4550
▁仪式	-4551
▁点击	-4552
▁修复	-4553
▁健身	-4554
▁房间	-4555
▁奇才	-4556
▁湘	-4557
▁高兴	-4558
▁纤	-4559
▁燕	-4560
▁通道	-4561
▁鸡蛋	-4562
▁化学	-4563
▁挽	-4564
▁1.4	-4565
▁见面	-4566
▁k	-4567
▁地面	-4568
▁统筹	-4569
▁nb	-4570
▁黑龙	-4571
▁毫不	-4572
▁公益	-4573
▁形态	-4574
▁3000	-4575
▁2009	-4576
▁场上	-4577
▁第二次	-4578
▁积分	-4579
▁公路	-4580
项目	-4581
▁帅气	-4582
im	-4583
▁体内	-4584
▁装修	-4585
▁陆续	-4586
▁说起	-4587
▁欣赏	-4588
▁尖	-4589
▁薪	-4590
▁控股	-4591
▁优先	-4592
▁APP	-4593
▁业主	-4594
▁一口	-4595
▁怎么样	-4596
▁颁	-4597
▁开拓	-4598
▁醒	-4599
交通	-4600
▁肠	-4601
▁多数	-4602
▁丝毫	-4603
▁现金	-4604
▁爵士	-4605
▁冲突	-4606
▁娜	-4607
▁葡萄	-4608
▁虽说	-4609
▁厂商	-4610
▁江西	-4611
▁退役	-4612
▁意大利	-4613
▁骁	-4614
▁桂	-4615
▁定义	-4616
▁巴萨	-4617
▁科研	-4618
作用	-4619
▁亮点	-4620
▁600	-4621
▁浪漫	-4622
▁辖区	-4623
▁违反	-4624
物馆	-4625
▁淘汰	-4626
▁出席	-4627
▁共享	-4628
▁尿	-4629
▁蒋介	-4630
斯坦	-4631
▁官员	-4632
▁东京	-4633
ter	-4634
▁擦	-4635
▁多云	-4636
▁度过	-4637
▁尽快	-4638
▁蒋介石	-4639
▁嘉宾	-4640
▁侯	-4641
▁动漫	-4642
问题	-4643
▁驱动	-4644
▁捕	-4645
▁段时间	-4646
▁出台	-4647
▁当日	-4648
▁随意	-4649
▁戒	-4650
▁三大	-4651
▁率先	-4652
▁坚守	-4653
▁战役	-4654
▁不止	-4655
▁相当于	-4656
▁遇见	-4657
▁够	-4658
▁踩	-4659
▁入选	-4660
▁渴	-4661
▁建造	-4662
▁粮食	-4663
▁极其	-4664
▁姑娘	-4665
▁谨	-4666
▁财务	-4667
▁万美元	-4668
▁放入	-4669
▁报警	-4670
▁观看	-4671
▁账号	-4672
▁这座	-4673
▁2006	-4674
▁收费	-4675
15	-4676
▁糟	-4677
▁依据	-4678
▁将来	-4679
▁默默	-4680
▁队员	-4681
游戏	-4682
▁胆	-4683
欢迎	-4684
▁寿	-4685
▁气象	-4686
▁环保	-4687
▁150	-4688
▁不停	-4689
▁适用	-4690
▁肾	-4691
▁机动	-4692
▁舞蹈	-4693
▁轿	-4694
▁网红	-4695
▁日起	-4696
▁等级	-4697
经理	-4698
▁精力	-4699
▁中超	-4700
▁契	-4701
▁敲	-4702
▁伪	-4703
▁深化	-4704
▁诈	-4705
▁未经	-4706
▁四大	-4707
▁1.6	-4708
▁行驶	-4709
▁漫画	-4710
▁AI	-4711
▁整改	-4712
▁99	-4713
▁天然	-4714
ula	-4715
▁感冒	-4716
▁总会	-4717
▁充足	-4718
▁赔偿	-4719
▁爬	-4720
▁生意	-4721
▁性价比	-4722
▁反复	-4723
▁复出	-4724
方案	-4725
▁小时候	-4726
▁发热	-4727
▁过度	-4728
▁祭	-4729
▁08	-4730
▁询问	-4731
▁格林	-4732
▁决策	-4733
▁摘	-4734
▁配套	-4735
▁攀	-4736
▁义务	-4737
▁极为	-4738
▁男孩	-4739
人民共和国	-4740
▁妹妹	-4741
▁走出	-4742
▁言论	-4743
▁2007	-4744
▁早上	-4745
▁太平	-4746
▁黑龙江	-4747
▁53	-4748
▁国民党	-4749
▁故意	-4750
▁扑	-4751
▁火箭队	-4752
▁腊	-4753
▁众所	-4754
▁北京市	-4755
▁井	-4756
ra	-4757
▁变速	-4758
▁发达	-4759
▁蓬	-4760
▁欧盟	-4761
▁天天	-4762
▁远远	-4763
▁高风险	-4764
▁餐饮	-4765
▁李焕	-4766
▁漏	-4767
▁此事	-4768
▁小组	-4769
▁未能	-4770
▁峰	-4771
▁800	-4772
尼亚	-4773
▁聚焦	-4774
▁明明	-4775
▁信用	-4776
▁2.5	-4777
▁不良	-4778
▁午	-4779
▁耗	-4780
▁美女	-4781
▁善良	-4782
▁泥	-4783
▁凶	-4784
▁英语	-4785
▁幼儿园	-4786
▁form	-4787
代表	-4788
百姓	-4789
▁女神	-4790
▁正面	-4791
▁消耗	-4792
▁留学	-4793
▁墓	-4794
▁旅客	-4795
▁选举	-4796
▁胎	-4797
▁伸	-4798
下去	-4799
▁▼	-4800
▁签订	-4801
▁校园	-4802
▁开局	-4803
▁活跃	-4804
▁黎	-4805
▁夺冠	-4806
▁中华人民共和国	-4807
▁导弹	-4808
▁年初	-4809
▁众所周	-4810
▁众所周知	-4811
▁发育	-4812
▁改编	-4813
▁轴	-4814
▁放松	-4815
▁全体	-4816
▁财产	-4817
▁雷霆	-4818
▁狮	-4819
▁功率	-4820
▁传奇	-4821
生涯	-4822
▁签约	-4823
▁承受	-4824
▁优惠	-4825
▁无线	-4826
▁坚强	-4827
▁嫌疑人	-4828
▁清洁	-4829
ce	-4830
▁老年人	-4831
▁标配	-4832
▁合格	-4833
▁睡眠	-4834
▁轨道	-4835
▁传承	-4836
▁春季	-4837
▁娶	-4838
▁z	-4839
▁匹配	-4840
▁第二个	-4841
▁St	-4842
▁房产	-4843
▁保罗	-4844
▁浪费	-4845
▁相声	-4846
▁我市	-4847
▁火星	-4848
▁后卫	-4849
▁好奇	-4850
▁寂	-4851
▁小姐	-4852
▁酷	-4853
▁李焕英	-4854
▁暴露	-4855
▁formula	-4856
▁捷	-4857
▁少数	-4858
秩序	-4859
▁地上	-4860
▁车站	-4861
▁使命	-4862
▁睡觉	-4863
▁放下	-4864
▁这时候	-4865
▁转会	-4866
▁练习	-4867
▁小小	-4868
▁当事	-4869
▁涂	-4870
▁演艺	-4871
作品	-4872
▁文物	-4873
▁长相	-4874
▁事务	-4875
▁绘	-4876
不同	-4877
▁人人	-4878
▁法治	-4879
▁与其	-4880
▁单纯	-4881
▁名称	-4882
▁朋友圈	-4883
▁专注	-4884
▁犯规	-4885
▁人会	-4886
▁愈	-4887
▁火车	-4888
▁nbsp	-4889
▁负担	-4890
▁我会	-4891
▁出身	-4892
▁英超	-4893
▁据说	-4894
▁立刻	-4895
▁稍微	-4896
▁不妨	-4897
▁职业生涯	-4898
▁爷	-4899
▁吉利	-4900
▁猜测	-4901
▁腐	-4902
▁一方	-4903
▁奥特	-4904
▁考验	-4905
决赛	-4906
▁000	-4907
▁实验室	-4908
▁海洋	-4909
▁孤独	-4910
▁不见	-4911
▁灵活	-4912
▁王一	-4913
▁头部	-4914
▁大队	-4915
▁昂	-4916
▁寺	-4917
▁料	-4918
▁股权	-4919
▁季节	-4920
▁绕	-4921
晓明	-4922
▁气候	-4923
▁丑	-4924
▁简约	-4925
▁防范	-4926
▁生育	-4927
▁诈骗	-4928
▁坦克	-4929
▁巴黎	-4930
▁丰田	-4931
85	-4932
▁薛	-4933
公路	-4934
▁审查	-4935
▁订单	-4936
▁乔治	-4937
▁狠	-4938
▁数学	-4939
▁读者	-4940
▁放心	-4941
▁曹操	-4942
▁阿尔	-4943
▁后悔	-4944
▁清朝	-4945
▁大道	-4946
▁国务院	-4947
▁丨	-4948
▁过后	-4949
▁赏	-4950
▁主播	-4951
▁堆	-4952
▁春运	-4953
▁得以	-4954
▁学科	-4955
▁例子	-4956
▁奥运会	-4957
拉克	-4958
▁CP	-4959
▁财经	-4960
▁住宅	-4961
▁履行	-4962
▁那时	-4963
▁奔驰	-4964
▁广播	-4965
▁行情	-4966
▁甜蜜	-4967
▁刑事	-4968
▁惩	-4969
▁各级	-4970
▁大灯	-4971
90	-4972
▁本质	-4973
▁骁龙	-4974
▁一首	-4975
▁商务	-4976
▁爱好	-4977
▁约翰	-4978
▁以此	-4979
▁57	-4980
▁帮忙	-4981
▁道德	-4982
▁茅台	-4983
▁吸收	-4984
▁神经	-4985
▁普通人	-4986
▁猪肉	-4987
▁回报	-4988
▁如同	-4989
▁其余	-4990
▁鲍	-4991
治区	-4992
▁决赛	-4993
▁职场	-4994
▁淮	-4995
▁说出	-4996
▁蔚	-4997
▁爆炸	-4998
落实	-4999
▁金钱	-5000
▁54	-5001
▁传递	-5002
▁处理器	-5003
▁无关	-5004
▁一期	-5005
▁柴	-5006
▁乔丹	-5007
▁旁边	-5008
▁公元	-5009
▁不让	-5010
▁如果说	-5011
▁志愿者	-5012
▁规律	-5013
▁奥迪	-5014
▁伴随	-5015
▁同期	-5016
▁叠	-5017
▁谭	-5018
▁大战	-5019
▁桌	-5020
▁56	-5021
▁闯	-5022
▁纽约	-5023
▁平凡	-5024
▁抹	-5025
▁播放	-5026
▁同年	-5027
▁购房	-5028
▁妖	-5029
▁想必	-5030
条件	-5031
▁百年	-5032
▁有利于	-5033
▁不幸	-5034
观察	-5035
▁品种	-5036
▁倡	-5037
▁渔	-5038
▁么	-5039
▁绝大	-5040
▁真相	-5041
▁58	-5042
▁泰国	-5043
▁看得	-5044
▁线路	-5045
▁裁判	-5046
▁全程	-5047
▁一笔	-5048
▁碧	-5049
▁城区	-5050
▁乾	-5051
▁叛	-5052
▁涌	-5053
人士	-5054
▁有力	-5055
▁提起	-5056
▁债务	-5057
▁已有	-5058
▁后者	-5059
▁增速	-5060
▁灾	-5061
▁予以	-5062
▁登场	-5063
▁券	-5064
▁肌肉	-5065
OS	-5066
▁夏天	-5067
▁哲	-5068
障碍	-5069
▁特效	-5070
▁混合	-5071
▁主教	-5072
▁纳入	-5073
▁64	-5074
▁受欢迎	-5075
▁基础设施	-5076
▁惊艳	-5077
▁坎	-5078
op	-5079
▁北部	-5080
▁手里	-5081
▁反击	-5082
▁红包	-5083
▁生气	-5084
▁选秀	-5085
▁吐槽	-5086
▁一家人	-5087
▁心脏	-5088
▁慰	-5089
▁斩	-5090
▁视为	-5091
▁舆论	-5092
▁众人	-5093
▁当事人	-5094
▁单身	-5095
▁脂肪	-5096
▁撕	-5097
▁袭	-5098
▁拓展	-5099
▁相反	-5100
▁博物馆	-5101
▁查看	-5102
▁总书记	-5103
▁咖啡	-5104
▁鹿	-5105
▁梅西	-5106
▁试验	-5107
▁底线	-5108
18	-5109
▁质感	-5110
▁LED	-5111
▁两大	-5112
▁王一博	-5113
▁忧	-5114
▁2005	-5115
▁凸显	-5116
▁独自	-5117
▁朴	-5118
▁旋	-5119
▁多元	-5120
▁运动员	-5121
▁都市	-5122
▁坑	-5123
▁被告	-5124
▁猎	-5125
▁保存	-5126
单位	-5127
▁包装	-5128
▁and	-5129
▁线下	-5130
▁用心	-5131
▁帝国	-5132
▁书法	-5133
▁抖	-5134
▁大学生	-5135
▁球星	-5136
▁眼里	-5137
▁血管	-5138
▁对话	-5139
▁隐藏	-5140
▁新高	-5141
崛起	-5142
35	-5143
▁心灵	-5144
▁听说	-5145
民族	-5146
▁红军	-5147
▁搜索	-5148
▁转化	-5149
▁之际	-5150
▁章子	-5151
▁注定	-5152
▁抗疫	-5153
ia	-5154
▁赴	-5155
▁记住	-5156
干部	-5157
▁事项	-5158
▁产业链	-5159
▁金属	-5160
▁自觉	-5161
▁待遇	-5162
▁诉讼	-5163
纳德	-5164
▁养殖	-5165
▁欢乐	-5166
▁百万	-5167
▁吓	-5168
▁衬衫	-5169
▁短期	-5170
▁外卖	-5171
▁宽松	-5172
▁奇怪	-5173
▁形容	-5174
▁格外	-5175
▁天空	-5176
▁叙	-5177
▁医药	-5178
▁郡	-5179
▁麒	-5180
▁地理	-5181
▁挤	-5182
▁一台	-5183
▁不难	-5184
▁喝酒	-5185
▁我要	-5186
▁消化	-5187
▁一百	-5188
▁章子怡	-5189
政策	-5190
▁大脑	-5191
▁娃	-5192
▁带给	-5193
▁假期	-5194
ie	-5195
▁长城	-5196
▁二次	-5197
▁当成	-5198
▁乐观	-5199
▁徒	-5200
▁蛋白	-5201
▁焦点	-5202
▁怒	-5203
▁候	-5204
▁步行	-5205
▁劲	-5206
▁创始	-5207
▁循环	-5208
▁烦恼	-5209
▁太过	-5210
▁解除	-5211
▁监控	-5212
▁吵	-5213
▁披露	-5214
▁席	-5215
国家	-5216
▁数字化	-5217
▁商家	-5218
▁拍照	-5219
▁苗	-5220
活动	-5221
▁勇敢	-5222
▁边境	-5223
▁敏感	-5224
时期	-5225
▁骄	-5226
▁堪称	-5227
▁收集	-5228
▁渴望	-5229
▁崛起	-5230
▁预约	-5231
▁回去	-5232
▁可怕	-5233
▁衡	-5234
▁不在	-5235
▁赛场	-5236
标准	-5237
▁城乡	-5238
▁挥	-5239
▁职务	-5240
▁公务	-5241
▁疑似	-5242
▁分配	-5243
▁新区	-5244
克兰	-5245
▁盆	-5246
▁交给	-5247
▁仁	-5248
▁烟花	-5249
▁re	-5250
▁族	-5251
▁一同	-5252
▁打工	-5253
▁罗马	-5254
▁食材	-5255
▁人均	-5256
▁显著	-5257
▁这项	-5258
医院	-5259
电视	-5260
▁躺	-5261
▁酱	-5262
▁麒麟	-5263
▁指导价	-5264
▁报名	-5265
▁悄	-5266
▁代言	-5267
▁思路	-5268
▁偶尔	-5269
▁新生	-5270
▁变速箱	-5271
▁挑选	-5272
▁ETF	-5273
▁学历	-5274
▁老百姓	-5275
▁福利	-5276
▁祖国	-5277
▁命令	-5278
▁种种	-5279
尔特	-5280
▁捧	-5281
▁婚礼	-5282
▁列车	-5283
▁本科	-5284
▁协同	-5285
▁难题	-5286
▁彰	-5287
▁魂	-5288
▁日常生活	-5289
▁诸葛	-5290
▁客观	-5291
▁厨房	-5292
▁悠	-5293
▁恨	-5294
▁肿	-5295
▁两款	-5296
▁通行	-5297
▁模样	-5298
▁职工	-5299
▁其他人	-5300
▁堵	-5301
▁调研	-5302
▁情节	-5303
▁武装	-5304
▁命名	-5305
ve	-5306
▁lo	-5307
▁东风	-5308
▁硕	-5309
▁卓	-5310
ND	-5311
▁家属	-5312
▁弯	-5313
▁百度	-5314
▁雕	-5315
▁男友	-5316
▁名为	-5317
▁关闭	-5318
▁高新	-5319
▁四年	-5320
▁楼市	-5321
▁高层	-5322
▁宝马	-5323
▁咬	-5324
▁桃花	-5325
共产党	-5326
▁兑	-5327
▁婴	-5328
可能	-5329
▁移民	-5330
▁截止	-5331
▁上场	-5332
▁产能	-5333
▁济南	-5334
▁遭受	-5335
16	-5336
▁地说	-5337
▁室内	-5338
▁非洲	-5339
▁伤病	-5340
▁湖人队	-5341
▁愤	-5342
▁耶	-5343
▁第二天	-5344
▁上市公司	-5345
▁唐三	-5346
▁离不开	-5347
▁代孕	-5348
▁好吃	-5349
▁争夺	-5350
▁缺点	-5351
▁战机	-5352
▁乙	-5353
▁全明星	-5354
习惯	-5355
▁手感	-5356
▁黄晓明	-5357
▁长得	-5358
▁盈利	-5359
▁艾伦	-5360
▁柯	-5361
▁体重	-5362
▁拳	-5363
▁★	-5364
▁好几	-5365
氧化	-5366
▁资讯	-5367
▁罚球	-5368
▁两者	-5369
经济	-5370
▁女孩子	-5371
▁2004	-5372
▁丽	-5373
▁th	-5374
▁月底	-5375
▁题材	-5376
▁全身	-5377
▁兔	-5378
▁城镇	-5379
▁塑造	-5380
▁出售	-5381
▁星座	-5382
▁马力	-5383
▁一群	-5384
▁这支	-5385
▁滴	-5386
▁桑	-5387
▁恐怖	-5388
▁出租	-5389
▁之上	-5390
▁暴力	-5391
▁录制	-5392
▁嫁给	-5393
▁85	-5394
▁官宣	-5395
▁萌	-5396
▁正好	-5397
▁身为	-5398
ec	-5399
▁新人	-5400
▁MVP	-5401
▁一带	-5402
▁槽	-5403
▁刷新	-5404
▁辨	-5405
▁冷链	-5406
▁一层	-5407
▁恒大	-5408
75	-5409
▁中国共产党	-5410
▁检验	-5411
▁河北省	-5412
▁实体	-5413
▁卫视	-5414
▁胶	-5415
▁潜力	-5416
▁礼物	-5417
▁效力	-5418
▁网队	-5419
▁投票	-5420
▁董事长	-5421
▁亏损	-5422
▁高速公路	-5423
▁高于	-5424
▁卫星	-5425
▁请求	-5426
▁缺席	-5427
▁某种	-5428
▁刘德华	-5429
▁59	-5430
▁路段	-5431
▁摔	-5432
▁文艺	-5433
▁滚	-5434
▁地图	-5435
▁被迫	-5436
▁耐心	-5437
▁举措	-5438
▁战斗机	-5439
▁初期	-5440
▁审美	-5441
▁出于	-5442
智能	-5443
手机	-5444
▁联动	-5445
▁很强	-5446
▁过得	-5447
▁顾客	-5448
▁并不	-5449
▁擅长	-5450
▁大方	-5451
▁远离	-5452
▁屡	-5453
▁联合国	-5454
▁团结	-5455
▁客场	-5456
▁高峰	-5457
▁拉开	-5458
▁刘备	-5459
▁日报	-5460
▁66	-5461
▁烂	-5462
▁哈哈	-5463
▁佐	-5464
▁比亚	-5465
▁被动	-5466
▁强度	-5467
▁方向盘	-5468
▁替代	-5469
▁抗日	-5470
▁蛇	-5471
▁焦虑	-5472
▁自家	-5473
▁大连	-5474
时刻	-5475
▁拨	-5476
▁次数	-5477
▁遍	-5478
▁国家队	-5479
▁杂志	-5480
▁池	-5481
▁空军	-5482
▁组建	-5483
▁公安机关	-5484
▁回顾	-5485
▁两国	-5486
▁奶奶	-5487
▁激动	-5488
▁哈尔	-5489
▁指挥部	-5490
▁随便	-5491
▁白酒	-5492
▁清理	-5493
▁时髦	-5494
▁涉嫌	-5495
▁几次	-5496
▁做事	-5497
▁举动	-5498
▁对应	-5499
▁危害	-5500
▁热议	-5501
▁摄像	-5502
▁亲戚	-5503
▁上演	-5504
▁谱	-5505
▁机遇	-5506
▁肚	-5507
▁视野	-5508
▁绝不	-5509
▁乌克兰	-5510
保险	-5511
以来	-5512
▁负面	-5513
▁半年	-5514
▁国会	-5515
▁一流	-5516
▁目光	-5517
▁羊毛	-5518
▁廉	-5519
▁华夏	-5520
▁存款	-5521
▁穿越	-5522
▁协助	-5523
▁过多	-5524
▁榜单	-5525
▁微笑	-5526
▁1.8	-5527
媳妇	-5528
以为	-5529
▁签署	-5530
▁花费	-5531
▁综艺节目	-5532
▁梳	-5533
▁石油	-5534
▁斤	-5535
▁人工智能	-5536
不及	-5537
▁称号	-5538
▁里程	-5539
▁学者	-5540
▁马刺	-5541
▁创始人	-5542
▁学术	-5543
▁苏州	-5544
兴趣	-5545
▁淋	-5546
▁皇马	-5547
▁模型	-5548
▁比起	-5549
▁送给	-5550
▁万吨	-5551
▁复苏	-5552
▁这名	-5553
▁看待	-5554
▁Mod	-5555
▁三国	-5556
报道	-5557
▁京东	-5558
▁帽	-5559
▁粤	-5560
▁龙头	-5561
▁同步	-5562
▁支援	-5563
▁观念	-5564
▁元旦	-5565
▁送到	-5566
▁封闭	-5567
13	-5568
▁深深	-5569
▁五个	-5570
▁更换	-5571
19	-5572
▁餐厅	-5573
ag	-5574
▁内地	-5575
▁寻求	-5576
▁星期	-5577
▁糟糕	-5578
▁塑料	-5579
▁传出	-5580
▁怎么办	-5581
▁比尔	-5582
女士	-5583
▁Ch	-5584
▁本书	-5585
▁估值	-5586
▁巴西	-5587
▁癌症	-5588
▁号线	-5589
▁险	-5590
病毒	-5591
▁以色	-5592
▁亮相	-5593
▁首席	-5594
▁南部	-5595
▁一声	-5596
▁一丝	-5597
▁电视台	-5598
▁约定	-5599
▁养成	-5600
▁尘	-5601
▁魔术	-5602
▁两队	-5603
14	-5604
▁第七	-5605
▁几十	-5606
ke	-5607
▁罚款	-5608
不出	-5609
▁出道	-5610
▁利物	-5611
行业	-5612
▁性感	-5613
▁裙子	-5614
大会	-5615
▁利物浦	-5616
▁象征	-5617
▁惹	-5618
▁防御	-5619
▁愉	-5620
▁以色列	-5621
▁连衣	-5622
▁津	-5623
▁总之	-5624
▁皇后	-5625
▁试点	-5626
▁一日	-5627
▁交付	-5628
▁余额	-5629
▁王子	-5630
▁首都	-5631
▁今后	-5632
斯特	-5633
▁治愈	-5634
▁后排	-5635
▁赛后	-5636
▁宗教	-5637
▁药品	-5638
▁抱怨	-5639
▁通信	-5640
▁不怕	-5641
▁开车	-5642
▁波动	-5643
▁理性	-5644
▁化妆	-5645
▁屈	-5646
▁英文	-5647
▁纹	-5648
▁正如	-5649
▁86	-5650
▁夸张	-5651
▁华晨	-5652
▁老家	-5653
▁提交	-5654
▁最美	-5655
▁成分	-5656
▁总冠军	-5657
▁不愿	-5658
▁短短	-5659
▁削	-5660
▁毫米	-5661
▁事物	-5662
▁女友	-5663
▁侧面	-5664
▁展现出	-5665
▁回头	-5666
▁三人	-5667
▁欧元	-5668
▁狮子	-5669
▁两天	-5670
▁损害	-5671
▁荆	-5672
▁培育	-5673
▁跟随	-5674
▁晚会	-5675
▁激励	-5676
▁医学观察	-5677
▁省级	-5678
▁扔	-5679
▁效应	-5680
▁摆脱	-5681
生素	-5682
▁盟	-5683
▁傅	-5684
▁剧本	-5685
▁携带	-5686
▁分差	-5687
▁一双	-5688
行动	-5689
▁权益	-5690
▁招聘	-5691
话说	-5692
▁72	-5693
▁崔	-5694
▁打野	-5695
▁06	-5696
▁这家	-5697
▁临近	-5698
▁巩固	-5699
▁一组	-5700
▁国防	-5701
▁申报	-5702
▁懒	-5703
▁110	-5704
▁作家	-5705
▁泉	-5706
▁撑	-5707
方米	-5708
▁zh	-5709
▁殿	-5710
▁粘	-5711
▁爷爷	-5712
▁2003	-5713
▁190	-5714
▁一幕	-5715
▁有助	-5716
▁赵丽	-5717
▁一会	-5718
▁喂	-5719
▁人心	-5720
▁姐妹	-5721
▁某个	-5722
▁万辆	-5723
▁别忘	-5724
▁身影	-5725
▁抄袭	-5726
▁古装	-5727
▁身体健康	-5728
▁场面	-5729
▁平方米	-5730
▁厘	-5731
▁修改	-5732
▁尸	-5733
▁大年	-5734
▁党组	-5735
▁炫	-5736
▁强制	-5737
▁许可	-5738
▁翻译	-5739
▁变异	-5740
▁影像	-5741
▁奥特曼	-5742
▁反弹	-5743
▁思念	-5744
▁老鹰	-5745
▁壁	-5746
▁轿车	-5747
▁立马	-5748
▁吞	-5749
▁渡	-5750
科技	-5751
▁杨幂	-5752
▁办事	-5753
▁烤	-5754
▁不易	-5755
▁适量	-5756
▁眉	-5757
▁果然	-5758
▁连衣裙	-5759
▁性质	-5760
▁彰显	-5761
▁导师	-5762
▁滨	-5763
▁首个	-5764
▁十一	-5765
▁汗	-5766
▁马克	-5767
▁王牌	-5768
多年	-5769
▁日晚	-5770
快乐	-5771
▁An	-5772
▁中方	-5773
▁走上	-5774
▁双手	-5775
▁电力	-5776
▁美的	-5777
▁原著	-5778
▁疼痛	-5779
▁图书	-5780
▁恋情	-5781
▁制造业	-5782
▁主教练	-5783
▁营收	-5784
▁含量	-5785
▁牧	-5786
▁脆	-5787
▁比亚迪	-5788
人口	-5789
▁主帅	-5790
▁可靠	-5791
▁生态环境	-5792
▁江南	-5793
▁部长	-5794
▁忽略	-5795
重要	-5796
价格	-5797
▁考核	-5798
▁面试	-5799
▁减肥	-5800
▁娘	-5801
▁气场	-5802
▁忍不住	-5803
▁延伸	-5804
▁研究生	-5805
▁王朝	-5806
▁玉米	-5807
效果	-5808
▁四季	-5809
▁瓶	-5810
▁两名	-5811
▁阻止	-5812
运输	-5813
▁认证	-5814
ind	-5815
▁流传	-5816
▁重量	-5817
PPO	-5818
▁蒙古	-5819
▁厦	-5820
▁演绎	-5821
▁单独	-5822
▁OPPO	-5823
事故	-5824
尔斯	-5825
▁司马	-5826
▁进展	-5827
▁62	-5828
▁堂	-5829
▁乡镇	-5830
▁一篇	-5831
▁扛	-5832
▁医保	-5833
▁电梯	-5834
▁传染	-5835
▁眼神	-5836
▁夫妇	-5837
▁幅	-5838
▁从业	-5839
▁精英	-5840
▁弃	-5841
▁年间	-5842
▁猴	-5843
▁涵	-5844
▁识别	-5845
▁潮流	-5846
▁长度	-5847
▁内蒙	-5848
▁储备	-5849
▁1.0	-5850
▁账户	-5851
▁部位	-5852
▁面向	-5853
▁人民政府	-5854
▁村里	-5855
▁货物	-5856
▁灌	-5857
▁一级	-5858
▁嘲	-5859
▁预算	-5860
▁上来	-5861
▁后果	-5862
▁取代	-5863
▁司令	-5864
▁初步	-5865
交易	-5866
▁多家	-5867
▁天地	-5868
▁主导	-5869
▁答应	-5870
▁排除	-5871
▁立体	-5872
▁搭档	-5873
▁反馈	-5874
▁共计	-5875
▁烈	-5876
萝卜	-5877
▁爽	-5878
▁黑暗	-5879
▁引入	-5880
▁调侃	-5881
▁锋	-5882
▁鸭	-5883
▁无比	-5884
▁这套	-5885
▁正月	-5886
▁凭借着	-5887
▁观众们	-5888
▁门诊	-5889
▁com	-5890
如今	-5891
▁空调	-5892
▁管理局	-5893
▁上学	-5894
▁难得	-5895
▁迎接	-5896
▁勇气	-5897
▁郑州	-5898
▁警告	-5899
柏芝	-5900
▁半个	-5901
▁夜间	-5902
发展	-5903
▁消除	-5904
▁定制	-5905
▁绑	-5906
▁光明	-5907
▁辩	-5908
▁交往	-5909
▁露出	-5910
▁一眼	-5911
▁深受	-5912
▁很长	-5913
▁辉煌	-5914
▁哈尔滨	-5915
▁两侧	-5916
▁赠	-5917
▁输给	-5918
▁指定	-5919
▁友好	-5920
▁轰炸	-5921
▁评分	-5922
太多	-5923
▁这段	-5924
▁出轨	-5925
▁纠纷	-5926
▁想想	-5927
▁改为	-5928
▁耕	-5929
▁大胆	-5930
▁昔	-5931
▁配色	-5932
▁小型	-5933
▁决心	-5934
▁张柏芝	-5935
▁琼	-5936
▁对面	-5937
▁受害	-5938
▁专辑	-5939
▁回国	-5940
▁录取	-5941
▁近几	-5942
▁开播	-5943
▁短暂	-5944
th	-5945
▁宅	-5946
▁宾	-5947
▁开工	-5948
▁多人	-5949
▁通风	-5950
▁前进	-5951
导体	-5952
▁会员	-5953
▁病人	-5954
▁赖	-5955
▁棒	-5956
▁谈判	-5957
▁锐	-5958
▁垫	-5959
▁好事	-5960
DG	-5961
▁相遇	-5962
▁筛	-5963
▁Model	-5964
▁主管	-5965
▁雾	-5966
▁郎	-5967
▁讲究	-5968
▁热火	-5969
▁共和	-5970
▁63	-5971
▁总有	-5972
ul	-5973
▁商场	-5974
▁预告	-5975
▁脚步	-5976
▁岩	-5977
▁慰问	-5978
▁标签	-5979
▁钓	-5980
▁转换	-5981
▁明朝	-5982
可见	-5983
▁心思	-5984
▁窗口	-5985
▁人性	-5986
▁童年	-5987
▁报考	-5988
▁延长	-5989
▁IG	-5990
▁歼	-5991
▁全家	-5992
▁隐患	-5993
▁庞大	-5994
▁甄	-5995
em	-5996
▁螺	-5997
细胞	-5998
▁搞笑	-5999
▁庆祝	-6000
▁中文	-6001
▁截图	-6002
▁蔚来	-6003
▁违法行为	-6004
▁带队	-6005
▁活着	-6006
▁字母	-6007
▁高等	-6008
▁{	-6009
▁180	-6010
▁现如今	-6011
▁妇女	-6012
17	-6013
▁点缀	-6014
▁一看	-6015
Hz	-6016
▁空中	-6017
▁谈到	-6018
▁手动	-6019
▁殷	-6020
▁见证	-6021
▁大事	-6022
▁外地	-6023
▁重要性	-6024
▁扎实	-6025
维斯	-6026
▁半导体	-6027
▁均匀	-6028
▁别忘了	-6029
▁郭德	-6030
▁娇	-6031
▁在意	-6032
▁工作室	-6033
▁闺	-6034
▁获悉	-6035
▁谨慎	-6036
▁猛龙	-6037
▁代理	-6038
▁模仿	-6039
▁个股	-6040
▁人民法院	-6041
▁好运	-6042
▁院校	-6043
▁多样	-6044
▁串	-6045
▁本期	-6046
▁黄河	-6047
▁09	-6048
▁天生	-6049
▁增添	-6050
▁针织	-6051
少年	-6052
▁平常	-6053
西亚	-6054
▁局部	-6055
▁制裁	-6056
▁一举	-6057
▁蜀	-6058
▁新兴	-6059
OO	-6060
▁前来	-6061
▁}	-6062
▁秘书	-6063
▁寓	-6064
▁中锋	-6065
▁番	-6066
▁查询	-6067
▁笑容	-6068
▁68	-6069
▁四十	-6070
▁火力	-6071
▁分开	-6072
▁经济社会	-6073
▁柏	-6074
▁借助	-6075
▁供给	-6076
▁计算机	-6077
▁证实	-6078
▁招商	-6079
▁感慨	-6080
▁极端	-6081
▁开学	-6082
▁岂	-6083
▁浇	-6084
注意	-6085
▁专利	-6086
▁以防	-6087
▁开通	-6088
▁携手	-6089
▁屠	-6090
▁激发	-6091
▁浑	-6092
▁亲密	-6093
▁代价	-6094
▁身穿	-6095
▁公民	-6096
▁转向	-6097
各样	-6098
▁泛	-6099
▁葱	-6100
世纪	-6101
▁扩张	-6102
▁益	-6103
▁太大	-6104
▁省委	-6105
▁一处	-6106
▁靠着	-6107
ers	-6108
▁有助于	-6109
ang	-6110
▁汽	-6111
处理	-6112
▁券商	-6113
▁婚后	-6114
▁评级	-6115
▁解放军	-6116
▁整合	-6117
▁终究	-6118
▁审批	-6119
▁补偿	-6120
▁搅	-6121
▁黄色	-6122
▁招生	-6123
▁响应	-6124
▁十九	-6125
▁骄傲	-6126
▁俩	-6127
▁诸葛亮	-6128
▁合并	-6129
▁清华	-6130
▁运气	-6131
▁郭德纲	-6132
▁省份	-6133
▁聚会	-6134
▁赵丽颖	-6135
▁安全感	-6136
▁格栅	-6137
▁进去	-6138
▁难过	-6139
▁毕业生	-6140
▁兽	-6141
▁转运	-6142
意识	-6143
▁难免	-6144
▁边缘	-6145
▁地产	-6146
▁理财	-6147
运动	-6148
▁季报	-6149
all	-6150
▁内蒙古	-6151
▁神奇	-6152
▁抵达	-6153
▁LPL	-6154
▁打扮	-6155
▁1.7	-6156
▁玩法	-6157
ation	-6158
▁手游	-6159
▁入手	-6160
▁一股	-6161
▁前锋	-6162
▁普及	-6163
▁框	-6164
▁种子	-6165
之间	-6166
▁清洗	-6167
▁凯尔特	-6168
▁南北	-6169
▁三是	-6170
▁走过	-6171
▁甩	-6172
▁煎	-6173
▁情人	-6174
▁租赁	-6175
▁心疼	-6176
▁多万	-6177
▁在外	-6178
▁栽	-6179
▁拥抱	-6180
▁一夜	-6181
▁先是	-6182
▁眼泪	-6183
动物	-6184
▁驾驶员	-6185
▁太空	-6186
▁现状	-6187
um	-6188
▁到处	-6189
▁没人	-6190
▁帮扶	-6191
▁儿女	-6192
▁接连	-6193
▁拦	-6194
▁4000	-6195
▁斑	-6196
▁磁	-6197
▁客户端	-6198
▁采样	-6199
▁硬件	-6200
▁颗	-6201
▁就此	-6202
▁斜	-6203
▁排行	-6204
▁体会	-6205
▁清新	-6206
▁晶	-6207
▁中年	-6208
▁斗争	-6209
aby	-6210
▁公务员	-6211
▁前行	-6212
▁过往	-6213
▁罕	-6214
▁第一位	-6215
▁相继	-6216
之为	-6217
▁唱歌	-6218
▁功夫	-6219
▁奥拉	-6220
▁架构	-6221
▁连败	-6222
▁总决赛	-6223
▁关晓彤	-6224
▁出众	-6225
城区	-6226
▁枯	-6227
▁队长	-6228
▁莲	-6229
▁甜美	-6230
▁长久	-6231
▁鸿	-6232
▁园区	-6233
▁小品	-6234
▁创意	-6235
▁x	-6236
▁挖掘	-6237
▁障碍	-6238
执行	-6239
▁厅	-6240
▁倪	-6241
▁指责	-6242
▁亩	-6243
▁巨星	-6244
▁优点	-6245
▁化解	-6246
▁甘肃	-6247
▁羊毛衫	-6248
▁关键时刻	-6249
▁总经理	-6250
▁解读	-6251
▁强劲	-6252
▁拔	-6253
if	-6254
▁机型	-6255
▁分数	-6256
▁凯尔特人	-6257
▁新建	-6258
▁私人	-6259
▁困扰	-6260
▁考察	-6261
▁握	-6262
▁厦门	-6263
▁职责	-6264
▁馆	-6265
▁之内	-6266
▁合肥	-6267
▁伏	-6268
▁前段	-6269
而言	-6270
▁从来不	-6271
▁这点	-6272
▁妆	-6273
amp	-6274
▁十八	-6275
▁仪表	-6276
▁情侣	-6277
▁向前	-6278
▁不变	-6279
饺子	-6280
▁收视	-6281
▁无可	-6282
▁也好	-6283
学校	-6284
▁年夜	-6285
▁轻轻	-6286
▁修饰	-6287
▁三种	-6288
空气	-6289
▁朗	-6290
▁供应链	-6291
▁研究院	-6292
▁染	-6293
▁抵抗	-6294
▁周年	-6295
▁总理	-6296
▁夺得	-6297
▁情报	-6298
▁澳门	-6299
内容	-6300
▁颠	-6301
▁弘	-6302
▁大国	-6303
▁套路	-6304
▁用地	-6305
▁维生素	-6306
▁产量	-6307
▁再见	-6308
95	-6309
▁直言	-6310
▁经纪	-6311
▁热闹	-6312
▁局势	-6313
▁妮	-6314
▁通讯员	-6315
▁初中	-6316
▁宠物	-6317
▁大人	-6318
▁有名	-6319
▁好评	-6320
▁年夜饭	-6321
▁秩序	-6322
斯克	-6323
▁分子	-6324
▁这方面	-6325
▁放假	-6326
▁关联	-6327
▁维修	-6328
▁樱	-6329
▁以至于	-6330
▁浩	-6331
▁机动车	-6332
▁本田	-6333
▁重复	-6334
▁平稳	-6335
▁富有	-6336
▁特定	-6337
▁扭矩	-6338
▁发型	-6339
▁倾向	-6340
▁RNG	-6341
▁像素	-6342
▁掀	-6343
▁设计师	-6344
▁靠近	-6345
▁全队	-6346
为止	-6347
分子	-6348
▁债券	-6349
km	-6350
▁原始	-6351
▁十五	-6352
▁豪门	-6353
▁减轻	-6354
阳市	-6355
▁志愿军	-6356
▁这张	-6357
▁金牛	-6358
▁呆	-6359
▁碰撞	-6360
▁判决	-6361
▁END	-6362
▁年货	-6363
▁一点点	-6364
▁73	-6365
▁进而	-6366
▁沦	-6367
▁火灾	-6368
▁突发	-6369
▁术	-6370
▁曼城	-6371
▁火爆	-6372
▁有过	-6373
▁嘛	-6374
都是	-6375
功能	-6376
▁寒假	-6377
▁对决	-6378
▁不高	-6379
事业	-6380
▁广东省	-6381
▁业内	-6382
▁主张	-6383
▁门口	-6384
▁开拓者	-6385
▁客运	-6386
▁解决方案	-6387
▁江湖	-6388
▁版型	-6389
▁无所	-6390
▁感恩	-6391
▁有意思	-6392
▁轮胎	-6393
▁阶	-6394
▁风雨	-6395
▁炎	-6396
▁王室	-6397
▁页	-6398
▁影视剧	-6399
格兰	-6400
▁出入	-6401
▁其一	-6402
▁着力	-6403
▁浓眉	-6404
▁一手	-6405
▁只好	-6406
▁院士	-6407
▁寂寞	-6408
▁那天	-6409
▁没能	-6410
▁期望	-6411
▁2022	-6412
▁脱离	-6413
▁宁波	-6414
▁WE	-6415
25	-6416
▁诗人	-6417
▁公斤	-6418
▁我军	-6419
▁姿态	-6420
▁张小	-6421
▁社保	-6422
▁反超	-6423
▁雄鹿	-6424
▁人力	-6425
▁除夕	-6426
▁砸	-6427
▁愿望	-6428
▁油耗	-6429
▁割	-6430
▁2.2	-6431
▁愤怒	-6432
▁情形	-6433
▁蛮	-6434
▁辐	-6435
▁般的	-6436
▁安心	-6437
▁邻居	-6438
怎么	-6439
▁名气	-6440
▁高血	-6441
▁因而	-6442
▁CV	-6443
▁处在	-6444
▁吉祥	-6445
接触	-6446
▁个体	-6447
▁称之为	-6448
▁函	-6449
▁简洁	-6450
▁十大	-6451
▁抓好	-6452
▁随之	-6453
▁市区	-6454
▁无需	-6455
▁镀	-6456
犯罪	-6457
保护	-6458
▁前段时间	-6459
▁2.1	-6460
▁远程	-6461
▁出院	-6462
▁野生	-6463
▁一分	-6464
▁华盛	-6465
▁精心	-6466
▁中午	-6467
▁树立	-6468
▁打电话	-6469
▁第八	-6470
▁亲人	-6471
▁一下子	-6472
▁5.0	-6473
▁摩托	-6474
▁投诉	-6475
▁救助	-6476
▁石头	-6477
▁气氛	-6478
▁土耳	-6479
▁向上	-6480
▁之类	-6481
▁土耳其	-6482
▁病情	-6483
▁指示	-6484
▁剥	-6485
▁担忧	-6486
▁语音	-6487
▁鹈	-6488
▁权威	-6489
▁总部	-6490
▁74	-6491
▁透明	-6492
▁走红	-6493
▁放到	-6494
一来	-6495
▁密切接触	-6496
▁真诚	-6497
▁立春	-6498
▁领导人	-6499
▁散发	-6500
▁策划	-6501
▁潇	-6502
▁留给	-6503
▁安慰	-6504
ill	-6505
▁96	-6506
▁霸气	-6507
▁事儿	-6508
▁鹈鹕	-6509
▁ID	-6510
建设	-6511
▁率领	-6512
▁包容	-6513
电影	-6514
▁欲望	-6515
▁遂	-6516
▁爱人	-6517
▁is	-6518
▁他会	-6519
▁口感	-6520
▁农历	-6521
▁二战	-6522
▁条例	-6523
▁研究所	-6524
▁走势	-6525
▁尽可能	-6526
▁碗	-6527
▁Red	-6528
▁青少年	-6529
▁反正	-6530
▁上篮	-6531
▁特意	-6532
▁包裹	-6533
▁冷静	-6534
▁奠	-6535
▁几十年	-6536
▁劣	-6537
▁小朋友	-6538
▁适时	-6539
▁街头	-6540
▁笔记	-6541
▁耳机	-6542
▁中东	-6543
▁环球	-6544
▁女明星	-6545
▁顽	-6546
▁脾气	-6547
▁名义	-6548
▁阿拉	-6549
▁假如	-6550
▁狭	-6551
▁中原	-6552
▁校长	-6553
▁威少	-6554
自然	-6555
▁府	-6556
▁沈腾	-6557
▁不已	-6558
▁当作	-6559
▁停留	-6560
▁当选	-6561
▁捡	-6562
规定	-6563
▁坠	-6564
▁疾控	-6565
▁认同	-6566
▁爱国	-6567
▁华盛顿	-6568
▁仰	-6569
▁CE	-6570
▁土壤	-6571
▁市长	-6572
▁剧组	-6573
▁发力	-6574
▁中债	-6575
▁弥补	-6576
▁任何人	-6577
▁侍	-6578
▁走访	-6579
▁门槛	-6580
▁罢了	-6581
▁感叹	-6582
▁春风	-6583
▁三位	-6584
材料	-6585
▁伍德	-6586
▁欧阳	-6587
▁灰色	-6588
▁奉献	-6589
▁周末	-6590
▁态势	-6591
▁捞	-6592
▁●	-6593
▁成效	-6594
▁摄像头	-6595
▁奈	-6596
▁打进	-6597
▁闽	-6598
▁厌	-6599
▁告别	-6600
▁阿姨	-6601
期间	-6602
▁分离	-6603
▁医疗机构	-6604
三角	-6605
▁名叫	-6606
▁奥斯	-6607
▁发明	-6608
▁衔	-6609
▁大火	-6610
▁委屈	-6611
▁匈	-6612
▁这条	-6613
▁一本	-6614
▁掘	-6615
▁抖音	-6616
▁严肃	-6617
▁锡	-6618
▁卖出	-6619
▁院长	-6620
ub	-6621
▁三次	-6622
▁不仅如此	-6623
情况	-6624
▁途径	-6625
▁2002	-6626
art	-6627
▁流入	-6628
▁困境	-6629
▁流出	-6630
▁小女	-6631
▁一次性	-6632
▁农产品	-6633
▁看点	-6634
▁婴儿	-6635
▁自带	-6636
▁流畅	-6637
▁全都	-6638
▁本周	-6639
信息	-6640
▁67	-6641
▁戴维斯	-6642
▁07	-6643
▁依托	-6644
▁样本	-6645
▁摄入	-6646
▁政协	-6647
▁不佳	-6648
▁写道	-6649
▁太子	-6650
▁奇迹	-6651
▁感兴趣	-6652
发挥	-6653
98	-6654
▁越是	-6655
▁贵人	-6656
▁编剧	-6657
▁冠状	-6658
▁兴奋	-6659
▁有机	-6660
▁相差	-6661
▁加班	-6662
▁老大	-6663
集团	-6664
▁液晶	-6665
▁糖尿	-6666
▁归属	-6667
▁安静	-6668
▁才华	-6669
▁恭	-6670
▁沉默	-6671
▁递	-6672
▁写作	-6673
▁看不到	-6674
▁康熙	-6675
22	-6676
▁偏冷	-6677
▁糖尿病	-6678
▁极致	-6679
▁乾隆	-6680
▁一轮	-6681
▁支出	-6682
▁昆明	-6683
▁团体	-6684
▁等于	-6685
▁天气晴	-6686
▁FP	-6687
▁务工	-6688
▁海报	-6689
▁声称	-6690
▁致力	-6691
▁向往	-6692
▁处处	-6693
▁酒精	-6694
记者	-6695
▁一体化	-6696
▁该剧	-6697
文章	-6698
▁差别	-6699
▁热巴	-6700
▁罗斯	-6701
隧道	-6702
重视	-6703
▁2001	-6704
▁邵	-6705
▁无人机	-6706
▁外线	-6707
▁乃至	-6708
▁民国	-6709
▁西藏	-6710
▁信仰	-6711
▁花园	-6712
▁遵守	-6713
▁跌幅	-6714
▁县城	-6715
▁多名	-6716
▁终端	-6717
▁海上	-6718
▁从不	-6719
▁罕见	-6720
▁宪	-6721
▁地块	-6722
▁万股	-6723
▁当代	-6724
▁刮	-6725
反应	-6726
议院	-6727
▁重建	-6728
电池	-6729
▁采集	-6730
▁几位	-6731
▁肝脏	-6732
女排	-6733
▁缴纳	-6734
▁新加	-6735
▁超高	-6736
▁雷达	-6737
▁代替	-6738
▁一副	-6739
▁世间	-6740
▁科比	-6741
▁威廉	-6742
▁传闻	-6743
▁眼光	-6744
▁爱心	-6745
▁逆转	-6746
▁好多	-6747
▁外表	-6748
▁唐人	-6749
▁逛	-6750
.99	-6751
开放	-6752
▁值班	-6753
▁五十	-6754
AR	-6755
▁感谢您	-6756
▁神话	-6757
一点	-6758
▁对接	-6759
▁饿	-6760
▁安东	-6761
▁修建	-6762
▁逝	-6763
▁一头	-6764
▁上周	-6765
▁通用	-6766
▁进程	-6767
▁水分	-6768
存款	-6769
ant	-6770
▁尤文	-6771
▁监狱	-6772
▁复古	-6773
▁富豪	-6774
▁一事	-6775
▁新加坡	-6776
▁时机	-6777
▁幕	-6778
▁古人	-6779
过来	-6780
▁联邦	-6781
▁Mate	-6782
▁讲话	-6783
▁辅导	-6784
▁热点	-6785
▁源于	-6786
多数	-6787
ure	-6788
▁否认	-6789
▁不容	-6790
▁开花	-6791
▁提及	-6792
▁77	-6793
▁赋予	-6794
▁行程	-6795
▁服饰	-6796
▁一阵	-6797
up	-6798
▁单元	-6799
▁师傅	-6800
▁恐惧	-6801
▁山东省	-6802
▁排放	-6803
▁亮眼	-6804
▁军方	-6805
ap	-6806
▁外部	-6807
▁束	-6808
▁伤心	-6809
▁自杀	-6810
▁身后	-6811
▁总裁	-6812
▁探测	-6813
▁2.3	-6814
▁夫人	-6815
▁身份证	-6816
▁登陆	-6817
▁图案	-6818
▁步骤	-6819
▁终结	-6820
▁共和党	-6821
▁逾	-6822
ver	-6823
▁职位	-6824
▁片区	-6825
▁每月	-6826
▁联接	-6827
▁乘风	-6828
▁住院	-6829
▁医护	-6830
▁冰雪	-6831
▁邢	-6832
▁上海市	-6833
▁密集	-6834
▁位居	-6835
▁节点	-6836
▁额外	-6837
▁燃油	-6838
▁盯	-6839
▁花钱	-6840
状况	-6841
▁吾	-6842
▁湿地	-6843
▁安全性	-6844
▁原料	-6845
▁祥	-6846
ace	-6847
▁惊人	-6848
容易	-6849
▁荷兰	-6850
▁忽视	-6851
价值	-6852
▁前列	-6853
igh	-6854
▁布朗	-6855
▁饺子	-6856
▁拘	-6857
▁盖帽	-6858
▁成名	-6859
▁祈	-6860
业务	-6861
▁测量	-6862
▁集成	-6863
▁智能化	-6864
▁会上	-6865
▁可怜	-6866
▁均衡	-6867
▁邱	-6868
▁呼吁	-6869
▁心动	-6870
▁引擎	-6871
▁肚子	-6872
▁牛肉	-6873
▁知名度	-6874
▁刚好	-6875
GB	-6876
▁天气晴好	-6877
▁门店	-6878
.98	-6879
▁满满的	-6880
▁军人	-6881
▁人为	-6882
▁流通	-6883
▁全民	-6884
▁车头	-6885
▁改进	-6886
成绩	-6887
▁蜂	-6888
▁官网	-6889
基地	-6890
▁3.5	-6891
▁万平	-6892
▁合资	-6893
▁洒	-6894
▁燃放	-6895
▁一遍	-6896
▁受益	-6897
▁线索	-6898
▁放大	-6899
▁损伤	-6900
▁烹	-6901
▁忙碌	-6902
▁严峻	-6903
▁悲伤	-6904
▁球场	-6905
▁盒	-6906
▁首节	-6907
▁增多	-6908
▁混乱	-6909
▁平等	-6910
▁好消息	-6911
▁视觉效果	-6912
▁设有	-6913
▁折叠	-6914
▁湾	-6915
▁水准	-6916
▁全区	-6917
▁98	-6918
▁溪	-6919
▁芝	-6920
▁港股	-6921
提高	-6922
▁论文	-6923
▁天才	-6924
而出	-6925
冰冰	-6926
▁存储	-6927
结合	-6928
▁将近	-6929
▁阔	-6930
▁万物	-6931
▁智能手机	-6932
▁一顿	-6933
▁雍	-6934
制度	-6935
▁大招	-6936
▁素质	-6937
▁随即	-6938
▁领袖	-6939
▁冒险	-6940
▁发声	-6941
▁验证	-6942
▁天蝎	-6943
▁事后	-6944
▁咳	-6945
▁手续	-6946
▁一类	-6947
▁起步	-6948
假期	-6949
▁回合	-6950
▁大地	-6951
▁几分	-6952
▁行走	-6953
▁沧	-6954
▁践	-6955
▁投放	-6956
▁单一	-6957
▁亲爱	-6958
▁渣	-6959
▁不适	-6960
▁途中	-6961
▁景观	-6962
▁国有	-6963
▁凑	-6964
▁善于	-6965
▁大厦	-6966
▁芳	-6967
▁拍戏	-6968
▁节目组	-6969
▁实时	-6970
▁面子	-6971
▁生病	-6972
▁绝大多数	-6973
▁抛弃	-6974
▁从前	-6975
▁全县	-6976
▁更高	-6977
▁两家	-6978
▁五官	-6979
之一	-6980
▁尹	-6981
▁抚养	-6982
▁好不	-6983
▁厘米	-6984
群众	-6985
▁保养	-6986
▁麦克	-6987
状态	-6988
▁参赛	-6989
▁长春	-6990
▁大赛	-6991
▁关羽	-6992
▁女演员	-6993
贝尔	-6994
▁复合	-6995
▁德云	-6996
▁App	-6997
▁大将	-6998
▁鼠	-6999
▁出品	-7000
▁韵	-7001
▁伙伴	-7002
▁划分	-7003
▁第三方	-7004
▁三天	-7005
▁日益	-7006
▁流浪	-7007
▁痴	-7008
▁立法	-7009
ip	-7010
▁浸	-7011
▁虾	-7012
▁村庄	-7013
▁党建	-7014
▁宴	-7015
▁抱团	-7016
▁缩小	-7017
▁频率	-7018
▁一所	-7019
▁缺陷	-7020
▁偷偷	-7021
▁2.4	-7022
▁压制	-7023
▁1999	-7024
▁崩溃	-7025
▁CVT	-7026
ax	-7027
▁叔	-7028
▁占领	-7029
▁新城	-7030
▁赵英	-7031
▁纪律	-7032
▁大片	-7033
IN	-7034
▁康复	-7035
▁那英	-7036
▁例外	-7037
▁优异	-7038
▁说不	-7039
文化	-7040
▁AM	-7041
ook	-7042
▁亚马	-7043
▁一根	-7044
▁发言人	-7045
▁物种	-7046
▁百分点	-7047
▁为例	-7048
▁破产	-7049
▁锁定	-7050
▁隧道	-7051
▁宝妈	-7052
▁邪	-7053
▁肆	-7054
▁离合	-7055
▁政务	-7056
▁犀	-7057
▁映	-7058
▁审判	-7059
▁进化	-7060
▁两场	-7061
▁结语	-7062
▁脖	-7063
▁合计	-7064
▁县委	-7065
▁不合	-7066
▁刹	-7067
▁专用	-7068
▁中小学	-7069
▁原子	-7070
ine	-7071
▁儒	-7072
枢纽	-7073
▁领取	-7074
▁戏剧	-7075
▁塔克	-7076
意义	-7077
▁情商	-7078
▁碰到	-7079
▁交通运输	-7080
▁散户	-7081
▁立足	-7082
mi	-7083
▁种类	-7084
▁还原	-7085
▁同行	-7086
▁挂牌	-7087
▁怨	-7088
▁凤凰	-7089
▁口味	-7090
▁惊讶	-7091
▁加持	-7092
▁公寓	-7093
▁教育部	-7094
▁大门	-7095
▁手上	-7096
▁燃烧	-7097
▁st	-7098
▁限定	-7099
▁苏宁	-7100
▁棋	-7101
▁赵英俊	-7102
▁膝	-7103
ck	-7104
▁一个个	-7105
▁考古	-7106
▁充分发挥	-7107
▁沾	-7108
▁轴距	-7109
▁一出	-7110
▁极具	-7111
▁彩礼	-7112
45	-7113
▁扶持	-7114
▁整车	-7115
▁牛仔裤	-7116
▁客厅	-7117
▁不顾	-7118
▁枝	-7119
▁自治区	-7120
▁入境	-7121
▁救护	-7122
▁硕士	-7123
▁未必	-7124
之下	-7125
▁合伙	-7126
▁漫长	-7127
▁值得注意	-7128
▁几百	-7129
▁情怀	-7130
▁专属	-7131
▁包围	-7132
▁本篇	-7133
▁78	-7134
▁价值观	-7135
证券	-7136
▁中山	-7137
日子	-7138
▁未成	-7139
▁掘金	-7140
▁处女	-7141
▁护理	-7142
▁车企	-7143
▁各种各样	-7144
▁从中	-7145
▁传球	-7146
ivo	-7147
▁快手	-7148
▁清单	-7149
▁中期	-7150
▁在乎	-7151
▁何时	-7152
▁粉色	-7153
▁晚年	-7154
▁肿瘤	-7155
▁立场	-7156
▁这笔	-7157
▁打败	-7158
▁忠诚	-7159
▁amp	-7160
▁谦	-7161
▁起诉	-7162
▁位列	-7163
▁飙	-7164
▁藁	-7165
▁授予	-7166
▁肤	-7167
▁火热	-7168
▁亨	-7169
▁剂	-7170
▁海拔	-7171
▁脉	-7172
▁最快	-7173
▁抗议	-7174
▁共产党	-7175
▁刻意	-7176
▁任命	-7177
▁媒体报道	-7178
▁冠状病毒	-7179
▁过分	-7180
▁诠	-7181
▁遗传	-7182
▁挫	-7183
▁财运	-7184
▁虚假	-7185
▁时常	-7186
▁新款	-7187
▁青睐	-7188
▁装置	-7189
▁老年	-7190
▁袭击	-7191
▁奖项	-7192
▁山海	-7193
▁20.0	-7194
▁上级	-7195
▁早早	-7196
▁真人	-7197
▁郝	-7198
▁严厉	-7199
▁欧冠	-7200
▁蔓	-7201
▁细腻	-7202
▁调解	-7203
▁贯彻落实	-7204
▁粒	-7205
▁鲜明	-7206
▁贝尔	-7207
▁一号	-7208
▁区间	-7209
▁特性	-7210
▁亚马逊	-7211
▁美术	-7212
▁话语	-7213
▁复工	-7214
▁键	-7215
▁没错	-7216
▁航天	-7217
▁大哥	-7218
▁轨迹	-7219
▁大街	-7220
▁不住	-7221
▁趣	-7222
▁紧密	-7223
化市	-7224
▁协商	-7225
▁宁夏	-7226
▁股市	-7227
▁联手	-7228
▁短板	-7229
▁录音	-7230
▁序	-7231
▁多久	-7232
▁党中央	-7233
▁大臣	-7234
▁不堪	-7235
▁现身	-7236
▁独行	-7237
▁中控	-7238
▁贯穿	-7239
▁带走	-7240
▁昏	-7241
▁哈弗	-7242
▁投降	-7243
▁大城市	-7244
▁美味	-7245
▁浦	-7246
▁昭	-7247
▁中场	-7248
▁辞职	-7249
▁复制	-7250
▁鸣	-7251
▁厕	-7252
▁潜在	-7253
▁直至	-7254
▁贵族	-7255
▁安东尼	-7256
▁要素	-7257
▁曲线	-7258
▁1.9	-7259
▁入口	-7260
▁新一代	-7261
▁号召	-7262
▁到期	-7263
▁上衣	-7264
悟空	-7265
▁庭	-7266
而知	-7267
▁外形	-7268
▁得不到	-7269
完成	-7270
▁888	-7271
▁蒂	-7272
▁意愿	-7273
▁防治	-7274
▁大桥	-7275
▁疗	-7276
▁台北	-7277
人物	-7278
▁别说	-7279
77	-7280
▁关爱	-7281
▁便捷	-7282
▁半场	-7283
▁日后	-7284
▁贤	-7285
▁葛	-7286
▁下载	-7287
▁小镇	-7288
▁上年	-7289
▁进出	-7290
▁83	-7291
▁珍贵	-7292
▁其二	-7293
▁未知	-7294
▁豆瓣	-7295
▁卸	-7296
▁人文	-7297
▁阵地	-7298
▁正当	-7299
▁愁	-7300
▁打法	-7301
▁上半场	-7302
▁调控	-7303
▁赶到	-7304
▁入侵	-7305
而来	-7306
▁痕	-7307
▁0.5	-7308
▁步入	-7309
▁榜首	-7310
▁战斗力	-7311
▁诠释	-7312
▁摊	-7313
▁杀死	-7314
▁锂	-7315
▁当场	-7316
▁中介	-7317
▁着急	-7318
▁恶劣	-7319
▁地震	-7320
▁早日	-7321
▁上半年	-7322
▁委托	-7323
▁布鲁	-7324
▁访问	-7325
▁场合	-7326
▁泄	-7327
▁共识	-7328
▁脏	-7329
垄断	-7330
▁不禁	-7331
▁小小的	-7332
力量	-7333
▁电动汽车	-7334
▁模拟	-7335
不下	-7336
▁起点	-7337
▁梅花	-7338
▁附属	-7339
▁政权	-7340
▁幻想	-7341
▁被告人	-7342
▁赢球	-7343
武器	-7344
▁在生活	-7345
▁常年	-7346
▁李白	-7347
▁马斯克	-7348
▁千年	-7349
设备	-7350
▁来临	-7351
科学	-7352
▁寓意	-7353
▁应有	-7354
▁市政府	-7355
▁vivo	-7356
▁均价	-7357
▁抑制	-7358
清楚	-7359
▁骚	-7360
▁清爽	-7361
▁健全	-7362
▁FPX	-7363
▁友谊	-7364
23	-7365
▁唐人街	-7366
▁0.1	-7367
▁1997	-7368
▁执教	-7369
▁辽宁队	-7370
▁虚拟	-7371
▁体制	-7372
▁克服	-7373
▁多项	-7374
▁或者说	-7375
精神	-7376
▁致力于	-7377
▁二级	-7378
▁辐射	-7379
▁赘	-7380
▁缠	-7381
▁来得	-7382
▁传媒	-7383
▁体温	-7384
▁家用	-7385
万元	-7386
▁强行	-7387
▁全员	-7388
▁小伙	-7389
▁发酵	-7390
▁玩具	-7391
▁研制	-7392
玫瑰	-7393
▁妙	-7394
▁一朵	-7395
▁公示	-7396
▁澄	-7397
▁一刻	-7398
▁天文	-7399
▁TV	-7400
▁慕	-7401
▁筑	-7402
▁蛋白质	-7403
▁路口	-7404
▁奢侈	-7405
▁竞技	-7406
▁永久	-7407
▁唐探	-7408
▁活塞	-7409
▁gt	-7410
▁橘	-7411
▁周恩	-7412
▁伦敦	-7413
▁相爱	-7414
▁僵	-7415
▁细菌	-7416
▁禁区	-7417
▁创办	-7418
实话	-7419
▁挪	-7420
物质	-7421
▁鞋子	-7422
▁转让	-7423
▁月亮	-7424
维奇	-7425
▁佛教	-7426
▁大批	-7427
▁原有	-7428
▁无力	-7429
▁解决问题	-7430
▁透过	-7431
▁所得	-7432
▁李小	-7433
场所	-7434
▁饲	-7435
▁内涵	-7436
▁晨	-7437
▁结论	-7438
平台	-7439
▁每一	-7440
▁福特	-7441
▁差点	-7442
破浪	-7443
▁库存	-7444
▁地址	-7445
▁巴基	-7446
▁悲剧	-7447
▁颈	-7448
▁仇	-7449
方位	-7450
▁视角	-7451
▁夜晚	-7452
▁日期	-7453
▁发电	-7454
▁归来	-7455
▁女方	-7456
▁69	-7457
NA	-7458
▁常用	-7459
▁框架	-7460
▁中美	-7461
▁84	-7462
▁做人	-7463
▁秦始	-7464
▁风光	-7465
▁法定	-7466
▁合成	-7467
▁饼	-7468
誉为	-7469
▁讨厌	-7470
▁恶意	-7471
▁布雷	-7472
▁润	-7473
▁秦始皇	-7474
▁督促	-7475
▁布置	-7476
▁必定	-7477
▁饮料	-7478
▁二手房	-7479
比亚	-7480
▁熬夜	-7481
人心	-7482
▁首歌	-7483
ew	-7484
▁生猪	-7485
▁诗歌	-7486
▁豆腐	-7487
▁保守	-7488
▁既有	-7489
▁平静	-7490
▁1998	-7491
▁生死	-7492
▁钢铁	-7493
▁摧	-7494
ep	-7495
▁开发商	-7496
▁驾驭	-7497
▁农民工	-7498
▁圆满	-7499
▁近几年	-7500
▁女王	-7501
▁乘风破浪	-7502
▁很小	-7503
▁央行	-7504
▁张学	-7505
▁加热	-7506
▁上去	-7507
▁利息	-7508
▁我省	-7509
▁联网	-7510
▁扩展	-7511
▁江苏省	-7512
▁毫无疑	-7513
▁清醒	-7514
▁评选	-7515
▁92	-7516
▁滑雪	-7517
自己	-7518
▁打球	-7519
65	-7520
▁总量	-7521
▁形状	-7522
▁藁城	-7523
▁接收	-7524
▁吸引力	-7525
▁商店	-7526
▁恩爱	-7527
▁每股	-7528
▁除非	-7529
▁毅	-7530
▁超出	-7531
▁分局	-7532
▁杀人	-7533
▁裤子	-7534
▁毫无疑问	-7535
▁改名	-7536
▁闺蜜	-7537
▁周恩来	-7538
▁车道	-7539
▁同一个	-7540
▁出自	-7541
▁一战	-7542
▁昔日	-7543
▁惯	-7544
▁紧紧	-7545
▁征程	-7546
▁月初	-7547
▁傲	-7548
▁顶尖	-7549
▁衔接	-7550
▁亲情	-7551
▁安置	-7552
资产	-7553
▁夏季	-7554
▁勉	-7555
▁开设	-7556
▁二代	-7557
▁难怪	-7558
▁造车	-7559
▁一千	-7560
se	-7561
BC	-7562
▁绯	-7563
▁倡导	-7564
▁悄悄	-7565
▁各有	-7566
▁换来	-7567
▁曰	-7568
est	-7569
▁精选	-7570
▁镀铬	-7571
▁王宝	-7572
▁抗战	-7573
▁蒜	-7574
▁创下	-7575
▁续约	-7576
▁鉴定	-7577
▁米兰	-7578
▁首批	-7579
▁塞尔	-7580
▁通告	-7581
增长	-7582
▁盼	-7583
▁幅度	-7584
▁图源	-7585
▁就行	-7586
▁景点	-7587
▁储存	-7588
▁梳理	-7589
▁一两	-7590
变化	-7591
▁性别	-7592
▁译	-7593
▁表态	-7594
▁不及	-7595
▁四驱	-7596
▁殊	-7597
▁流动性	-7598
▁论坛	-7599
ob	-7600
▁人设	-7601
▁平方公里	-7602
▁渗	-7603
▁黄蜂	-7604
▁万余	-7605
▁独行侠	-7606
▁禅	-7607
时代	-7608
让人	-7609
▁震惊	-7610
▁凝聚	-7611
▁深厚	-7612
▁文中	-7613
▁度假	-7614
▁水瓶	-7615
▁搭建	-7616
▁救治	-7617
避免	-7618
▁正义	-7619
OP	-7620
▁六个	-7621
▁福州	-7622
▁那一	-7623
▁就诊	-7624
▁■	-7625
▁刊	-7626
▁面包	-7627
▁规格	-7628
▁开门	-7629
▁四川省	-7630
AS	-7631
▁700	-7632
▁上方	-7633
▁抓获	-7634
ak	-7635
▁美人	-7636
▁巴基斯坦	-7637
▁探讨	-7638
▁孙子	-7639
▁大涨	-7640
▁边界	-7641
▁书写	-7642
小组	-7643
▁支队	-7644
▁全方位	-7645
▁第九	-7646
▁签下	-7647
▁秦国	-7648
回事	-7649
68	-7650
▁副总	-7651
▁帽子	-7652
▁套装	-7653
▁再说	-7654
▁助理	-7655
▁侵犯	-7656
▁定点	-7657
血管	-7658
▁疑问	-7659
▁相亲	-7660
▁奠定	-7661
左右	-7662
▁变更	-7663
▁南昌	-7664
▁爱好者	-7665
▁编制	-7666
▁国人	-7667
▁创立	-7668
▁说实话	-7669
og	-7670
▁正规	-7671
▁伴侣	-7672
▁河南省	-7673
▁厕所	-7674
▁会计	-7675
▁大致	-7676
▁五大	-7677
▁灯光	-7678
▁早晚	-7679
▁盲目	-7680
▁服务中心	-7681
金斯	-7682
▁看重	-7683
▁朝廷	-7684
▁石家庄市	-7685
▁短时间	-7686
▁越野	-7687
▁网格	-7688
24	-7689
▁两条	-7690
▁1990	-7691
▁主义	-7692
▁掏	-7693
▁数百	-7694
▁导向	-7695
不知	-7696
▁61	-7697
▁大都	-7698
▁热刺	-7699
▁箱	-7700
结构	-7701
▁缝	-7702
▁偶然	-7703
▁梯	-7704
▁纯粹	-7705
▁得出	-7706
ry	-7707
▁宝贝	-7708
▁打卡	-7709
▁期限	-7710
▁痕迹	-7711
▁匆	-7712
▁时至	-7713
▁占地	-7714
▁朱元	-7715
▁1500	-7716
▁陆军	-7717
ly	-7718
▁红旗	-7719
▁致命	-7720
▁涡	-7721
▁探案	-7722
AC	-7723
▁议员	-7724
▁梗	-7725
▁干扰	-7726
▁张小斐	-7727
▁慌	-7728
▁降价	-7729
▁媳妇	-7730
▁CEO	-7731
▁蜜	-7732
▁中国人民	-7733
子里	-7734
▁传来	-7735
▁十六	-7736
▁领土	-7737
▁橙	-7738
▁洛阳	-7739
▁哲学	-7740
▁千里	-7741
简单	-7742
工具	-7743
素质	-7744
▁清水	-7745
▁创业板	-7746
▁持股	-7747
▁张艺	-7748
钥匙	-7749
▁重返	-7750
▁峰值	-7751
▁注意力	-7752
▁供应商	-7753
▁朱元璋	-7754
体系	-7755
▁初心	-7756
▁而成	-7757
▁张家	-7758
▁呵	-7759
▁年末	-7760
爆竹	-7761
▁国家级	-7762
▁女朋友	-7763
▁Sp	-7764
▁万亿元	-7765
QOO	-7766
▁航班	-7767
▁手下	-7768
▁意志	-7769
▁援助	-7770
▁频道	-7771
▁银河	-7772
▁PC	-7773
▁泽	-7774
▁耽	-7775
▁惩罚	-7776
▁升高	-7777
▁晓	-7778
▁希腊	-7779
▁激情	-7780
▁还好	-7781
▁下半年	-7782
▁操控	-7783
▁大年初	-7784
▁德云社	-7785
▁化工	-7786
▁推行	-7787
▁唯有	-7788
检察	-7789
▁小雨	-7790
▁失业	-7791
▁执着	-7792
▁昨日	-7793
▁供电	-7794
▁皇家	-7795
▁角落	-7796
▁文旅	-7797
恋爱	-7798
▁挨	-7799
▁廖	-7800
▁侠	-7801
▁历经	-7802
▁稿	-7803
▁惟	-7804
▁不负	-7805
▁荧	-7806
▁跨越	-7807
▁身价	-7808
▁民主党	-7809
▁养生	-7810
▁残酷	-7811
▁逢	-7812
▁不论是	-7813
▁蔓延	-7814
▁交叉	-7815
▁暗示	-7816
▁每周	-7817
▁优越	-7818
▁纪委	-7819
▁联想	-7820
▁大佬	-7821
▁谣	-7822
▁游玩	-7823
▁适宜	-7824
▁图书馆	-7825
多久	-7826
▁烟花爆竹	-7827
▁栖	-7828
▁尸体	-7829
▁仍旧	-7830
▁封面	-7831
▁黑白	-7832
▁终身	-7833
▁爸妈	-7834
▁柜	-7835
▁链接	-7836
▁小事	-7837
▁行李	-7838
▁之战	-7839
▁男朋友	-7840
▁驱逐	-7841
▁过渡	-7842
萨斯	-7843
▁第三节	-7844
▁货车	-7845
▁男方	-7846
▁导航	-7847
▁收盘	-7848
▁勇士队	-7849
▁华人	-7850
▁仍会	-7851
▁双子	-7852
▁白宫	-7853
▁发现自己	-7854
的话	-7855
益于	-7856
▁家门	-7857
▁范冰冰	-7858
▁明年	-7859
▁救护车	-7860
▁82	-7861
▁跃	-7862
▁控屏	-7863
▁下半场	-7864
▁溢	-7865
▁两支	-7866
▁中部	-7867
▁民法	-7868
▁头上	-7869
▁之力	-7870
▁出名	-7871
▁神仙	-7872
▁艺术家	-7873
▁绵	-7874
产权	-7875
▁称赞	-7876
▁遵循	-7877
▁考上	-7878
▁在生活中	-7879
▁r	-7880
▁武魂	-7881
▁频频	-7882
▁弹劾	-7883
▁演讲	-7884
▁往年	-7885
▁林肯	-7886
尔德	-7887
ha	-7888
ard	-7889
AT	-7890
▁第一天	-7891
▁小红	-7892
▁科普	-7893
▁邹	-7894
▁步伐	-7895
▁富贵	-7896
▁不肯	-7897
▁由此可见	-7898
▁抑郁	-7899
▁自行车	-7900
▁氢	-7901
▁扩散	-7902
▁送上	-7903
48	-7904
▁合约	-7905
云鹏	-7906
▁快充	-7907
▁3.0	-7908
▁一般来说	-7909
▁代谢	-7910
▁春节假期	-7911
▁女主角	-7912
▁察	-7913
hy	-7914
▁掌控	-7915
▁奖金	-7916
部队	-7917
殖民	-7918
▁那年	-7919
▁先锋	-7920
▁第一名	-7921
▁残疾	-7922
▁我家	-7923
▁激光	-7924
▁臭	-7925
▁莎	-7926
▁华丽	-7927
▁头脑	-7928
▁称呼	-7929
▁身心	-7930
▁小孩子	-7931
▁消灭	-7932
▁运作	-7933
▁脆弱	-7934
▁排行榜	-7935
▁倒入	-7936
▁澳洲	-7937
▁辣椒	-7938
▁医护人员	-7939
新冠	-7940
▁防线	-7941
▁菲律	-7942
▁师范	-7943
▁这块	-7944
▁高位	-7945
▁菲律宾	-7946
▁着实	-7947
▁高通	-7948
▁户外	-7949
▁j	-7950
▁列入	-7951
▁总共	-7952
▁ES	-7953
▁大于	-7954
▁房贷	-7955
▁条约	-7956
拉斯	-7957
▁敢于	-7958
▁东莞	-7959
▁数十	-7960
▁铭	-7961
▁故障	-7962
▁不成	-7963
▁不爱	-7964
▁阻碍	-7965
▁炒作	-7966
▁手法	-7967
▁回升	-7968
▁大幅度	-7969
▁刘邦	-7970
▁芬	-7971
▁回收	-7972
▁万多	-7973
▁0.2	-7974
▁判处	-7975
76	-7976
▁原谅	-7977
▁慎	-7978
▁儿媳	-7979
▁最小	-7980
▁手指	-7981
▁第四节	-7982
▁店铺	-7983
▁聘	-7984
▁车系	-7985
▁输球	-7986
▁VI	-7987
▁乐趣	-7988
▁敦	-7989
▁不失	-7990
▁缓慢	-7991
▁迹	-7992
▁唐朝	-7993
▁几率	-7994
▁工商	-7995
ES	-7996
▁逗	-7997
▁量产	-7998
▁在场	-7999
▁拯	-8000
▁独家	-8001
▁拉德	-8002
▁灾难	-8003
徒刑	-8004
期徒刑	-8005
隐患	-8006
▁场地	-8007
▁菩	-8008
▁更何	-8009
▁分辨	-8010
▁晒出	-8011
▁体检	-8012
▁转身	-8013
▁稻	-8014
▁就医	-8015
ive	-8016
▁迷人	-8017
统计	-8018
▁南海	-8019
▁实习	-8020
▁蹲	-8021
▁习俗	-8022
▁无缘	-8023
▁早年	-8024
▁不像	-8025
▁牛奶	-8026
▁指南	-8027
▁介入	-8028
▁精品	-8029
▁欧美	-8030
▁学员	-8031
▁乖	-8032
▁以免	-8033
▁末节	-8034
▁腌	-8035
▁没法	-8036
▁大军	-8037
▁成年人	-8038
▁变动	-8039
▁减龄	-8040
▁更何况	-8041
▁160	-8042
▁监委	-8043
▁一行	-8044
▁心目	-8045
▁活泼	-8046
▁舟	-8047
▁be	-8048
78	-8049
▁>	-8050
▁女星	-8051
▁出任	-8052
55	-8053
▁养老金	-8054
▁前脸	-8055
▁霜	-8056
▁个别	-8057
▁狗狗	-8058
▁不该	-8059
▁隋	-8060
▁爱上	-8061
▁路径	-8062
不动	-8063
▁宝贵	-8064
▁专题	-8065
▁拼命	-8066
▁郁	-8067
▁一一	-8068
▁红利	-8069
▁世上	-8070
▁开口	-8071
▁网易	-8072
▁熟知	-8073
▁93	-8074
▁当局	-8075
▁愉快	-8076
▁谎	-8077
▁1996	-8078
▁卵	-8079
▁异性	-8080
▁低迷	-8081
▁广东队	-8082
▁国债	-8083
▁注射	-8084
▁客人	-8085
nm	-8086
▁猪价	-8087
▁煤炭	-8088
▁参观	-8089
▁办案	-8090
ight	-8091
▁赛道	-8092
▁修身	-8093
▁拯救	-8094
▁商人	-8095
▁俗话说	-8096
▁印花	-8097
▁外来	-8098
▁万事	-8099
▁兵力	-8100
▁大局	-8101
▁聚餐	-8102
▁排队	-8103
▁高血压	-8104
▁当今	-8105
▁妮娜	-8106
▁港口	-8107
▁更强	-8108
▁风波	-8109
▁庙	-8110
US	-8111
▁整整	-8112
▁不明	-8113
▁多地	-8114
▁倒数	-8115
▁演唱会	-8116
▁相机	-8117
▁领导小组	-8118
▁艰苦	-8119
▁繁荣	-8120
▁咳嗽	-8121
▁实质	-8122
▁各方	-8123
▁承载	-8124
▁逮	-8125
困难	-8126
监会	-8127
▁栏	-8128
▁殖民	-8129
▁平平	-8130
▁关怀	-8131
▁欺负	-8132
▁宿舍	-8133
▁现实生活	-8134
▁早餐	-8135
▁主打	-8136
▁图为	-8137
▁局长	-8138
▁追踪	-8139
▁篮下	-8140
▁候选	-8141
▁山水	-8142
▁团圆	-8143
▁首钢	-8144
法规	-8145
▁跳舞	-8146
▁青海	-8147
▁极高	-8148
▁征收	-8149
▁微风	-8150
▁仅次	-8151
▁果断	-8152
▁提名	-8153
▁人格	-8154
▁拜年	-8155
▁备案	-8156
▁任职	-8157
▁量子	-8158
▁切尔	-8159
▁定价	-8160
德里	-8161
▁哈里斯	-8162
▁公牛	-8163
▁宠爱	-8164
ug	-8165
▁难受	-8166
工业	-8167
▁中华民族	-8168
▁在职	-8169
▁愚	-8170
▁腿部	-8171
▁蓄	-8172
▁买卖	-8173
▁马来	-8174
▁下一	-8175
▁前线	-8176
▁环比	-8177
品质	-8178
▁档次	-8179
▁奴	-8180
▁高手	-8181
▁源头	-8182
▁印发	-8183
▁採	-8184
▁预售	-8185
▁掀起	-8186
▁一味	-8187
▁下班	-8188
▁负债	-8189
▁姆	-8190
▁驿	-8191
▁进度	-8192
▁慢性	-8193
▁6000	-8194
▁别墅	-8195
▁汽油	-8196
▁谈恋爱	-8197
▁赌博	-8198
ort	-8199
▁极限	-8200
▁深夜	-8201
▁借鉴	-8202
▁此役	-8203
▁富裕	-8204
▁卫健	-8205
▁玫瑰	-8206
导弹	-8207
▁子公司	-8208
▁酿	-8209
对手	-8210
▁营商	-8211
93	-8212
▁将领	-8213
▁种族	-8214
▁巡逻	-8215
▁溥	-8216
▁演戏	-8217
开发	-8218
▁250	-8219
▁寸	-8220
▁冷空气	-8221
▁绯闻	-8222
▁钥匙	-8223
▁古城	-8224
▁那一刻	-8225
▁不俗	-8226
联赛	-8227
▁流水	-8228
▁2.6	-8229
▁信息化	-8230
▁一向	-8231
▁恰恰	-8232
▁灿	-8233
▁交通事故	-8234
▁Redmi	-8235
▁发病	-8236
▁仅次于	-8237
▁羞	-8238
▁召唤	-8239
▁前景	-8240
ss	-8241
▁税务	-8242
▁睿	-8243
德森	-8244
▁募	-8245
▁几千	-8246
▁AG	-8247
▁面料	-8248
▁森林狼	-8249
▁责编	-8250
得上	-8251
罗德	-8252
▁加重	-8253
▁生成	-8254
▁侵略	-8255
▁锤	-8256
▁剩余	-8257
▁法官	-8258
▁王后	-8259
▁II	-8260
▁雇	-8261
▁哀	-8262
▁工作者	-8263
▁蒲	-8264
▁行车	-8265
▁现任	-8266
蝴蝶	-8267
▁卫衣	-8268
▁征服	-8269
▁人选	-8270
▁合影	-8271
▁每当	-8272
▁警惕	-8273
▁功效	-8274
▁企业家	-8275
▁工程师	-8276
▁碎片	-8277
▁iQOO	-8278
▁长达	-8279
▁军团	-8280
▁辨识	-8281
▁幂	-8282
▁琉	-8283
▁纠结	-8284
▁还给	-8285
▁丸	-8286
▁民营	-8287
▁知情	-8288
▁昌	-8289
▁该国	-8290
契奇	-8291
▁缴费	-8292
▁犹太	-8293
▁师生	-8294
▁上课	-8295
基础	-8296
▁火锅	-8297
ff	-8298
▁距	-8299
▁直播间	-8300
▁沿海	-8301
▁虞	-8302
▁做饭	-8303
▁分散	-8304
▁兵团	-8305
▁嫩	-8306
▁巨人	-8307
▁竞争对手	-8308
▁机身	-8309
▁1200	-8310
▁一幅	-8311
▁上汽	-8312
▁忌	-8313
▁足协	-8314
▁区块	-8315
▁时段	-8316
▁书籍	-8317
▁鞭	-8318
▁补助	-8319
▁慈禧	-8320
OL	-8321
▁打成	-8322
▁岳云鹏	-8323
▁友情	-8324
▁月球	-8325
▁新房	-8326
学习	-8327
▁最具	-8328
▁相识	-8329
妈妈	-8330
▁接待	-8331
▁传感	-8332
▁94	-8333
▁三双	-8334
▁鲁迅	-8335
▁背叛	-8336
▁Al	-8337
▁窝	-8338
▁遗址	-8339
▁借口	-8340
▁内外	-8341
▁蹭	-8342
影响	-8343
研究	-8344
▁誓	-8345
▁ST	-8346
故事	-8347
▁风力	-8348
▁春秋	-8349
▁课堂	-8350
▁地步	-8351
▁轰炸机	-8352
▁进来	-8353
▁靴	-8354
▁草原	-8355
▁鞠	-8356
▁治安	-8357
▁至此	-8358
▁参数	-8359
一下	-8360
▁实战	-8361
▁深圳市	-8362
▁车子	-8363
▁佛山	-8364
▁首位	-8365
▁前者	-8366
▁疲劳	-8367
▁浙江省	-8368
▁动员	-8369
▁理智	-8370
▁130	-8371
▁千玺	-8372
▁畅通	-8373
▁浏	-8374
▁山区	-8375
保障	-8376
▁360	-8377
▁疾控中心	-8378
ri	-8379
▁前排	-8380
▁加时	-8381
▁菌	-8382
▁EDG	-8383
▁凹	-8384
▁1995	-8385
▁紧凑	-8386
▁世界杯	-8387
▁银色	-8388
▁税后	-8389
检察院	-8390
▁莱昂	-8391
▁自称	-8392
▁拍卖	-8393
▁卫生间	-8394
▁相结合	-8395
▁名声	-8396
▁官兵	-8397
▁之心	-8398
部长	-8399
▁开发区	-8400
▁寿命	-8401
▁不怎么	-8402
▁钻石	-8403
▁诱惑	-8404
av	-8405
▁俘	-8406
▁执政	-8407
政协	-8408
▁89	-8409
▁而后	-8410
▁育儿	-8411
▁生动	-8412
大战	-8413
开展	-8414
▁万平方米	-8415
▁约束	-8416
▁蛋糕	-8417
▁变革	-8418
▁白羊	-8419
▁模特	-8420
▁家具	-8421
目标	-8422
▁档案	-8423
▁世人	-8424
▁随机	-8425
▁湖南省	-8426
▁一则	-8427
▁蝴蝶	-8428
▁血压	-8429
▁展览	-8430
tt	-8431
▁注明	-8432
▁得益于	-8433
▁教会	-8434
▁约翰逊	-8435
▁谋划	-8436
▁势必	-8437
▁绥	-8438
▁不远	-8439
▁叹	-8440
▁标题	-8441
尼迪	-8442
▁巴士	-8443
▁幽默	-8444
▁迹象	-8445
▁豪宅	-8446
▁大面积	-8447
▁2.7	-8448
▁当做	-8449
▁扁	-8450
▁原理	-8451
▁87	-8452
▁晋级	-8453
▁日电	-8454
▁长远	-8455
▁绘画	-8456
▁双鱼	-8457
▁折磨	-8458
▁复兴	-8459
ore	-8460
ess	-8461
▁丧失	-8462
▁2.8	-8463
▁自律	-8464
▁刹车	-8465
▁缘分	-8466
▁安全隐患	-8467
▁相较	-8468
▁游泳	-8469
▁不出	-8470
me	-8471
▁体力	-8472
▁增值	-8473
▁宪法	-8474
▁支持者	-8475
▁换成	-8476
▁中路	-8477
▁姿势	-8478
▁干燥	-8479
常委会	-8480
▁摩托车	-8481
▁小姐姐	-8482
原因	-8483
▁车上	-8484
▁71	-8485
▁跪	-8486
▁棕	-8487
▁提倡	-8488
▁中国女排	-8489
▁菊	-8490
▁动手	-8491
▁哈哈哈	-8492
▁纤维	-8493
▁哄	-8494
▁传达	-8495
杉矶	-8496
▁做成	-8497
工资	-8498
▁主营	-8499
民国	-8500
▁上门	-8501
▁多位	-8502
时报	-8503
▁谣言	-8504
▁两部	-8505
▁先行	-8506
▁瑜	-8507
▁民事	-8508
▁用人	-8509
▁接口	-8510
36	-8511
▁头像	-8512
▁有种	-8513
▁总的	-8514
▁犹豫	-8515
▁区分	-8516
ist	-8517
▁两岸	-8518
▁耀	-8519
▁不起	-8520
▁王宝强	-8521
▁疑惑	-8522
分析	-8523
▁重回	-8524
▁算法	-8525
▁生理	-8526
▁患有	-8527
之处	-8528
▁VS	-8529
▁公正	-8530
山区	-8531
交所	-8532
▁视线	-8533
▁被誉为	-8534
▁王国	-8535
支部	-8536
交易所	-8537
▁注入	-8538
▁民法典	-8539
▁发送	-8540
▁下场	-8541
▁分泌	-8542
▁福建省	-8543
▁天使	-8544
▁早晨	-8545
▁走路	-8546
资料	-8547
▁不惜	-8548
▁严禁	-8549
▁抗击	-8550
▁泡沫	-8551
纪录	-8552
▁模糊	-8553
▁前任	-8554
▁遏	-8555
▁没事	-8556
▁旨	-8557
▁葬	-8558
▁眼看	-8559
▁不光	-8560
▁细心	-8561
▁落下	-8562
委员会	-8563
▁柱	-8564
▁光伏	-8565
▁公交车	-8566
▁中欧	-8567
▁起义	-8568
▁超大	-8569
公园	-8570
▁家园	-8571
▁犬	-8572
斯基	-8573
▁全网	-8574
28	-8575
克萨斯	-8576
▁年内	-8577
▁起源	-8578
▁血糖	-8579
巴巴	-8580
▁AC	-8581
▁感知	-8582
▁贬	-8583
▁好感	-8584
机制	-8585
▁兜	-8586
▁切换	-8587
▁古老	-8588
▁中性	-8589
▁学名	-8590
▁短信	-8591
▁房企	-8592
▁大胜	-8593
▁公认	-8594
▁受理	-8595
▁证书	-8596
▁拆除	-8597
▁降温	-8598
▁野心	-8599
▁参演	-8600
▁芒	-8601
▁硅	-8602
▁季度	-8603
▁上帝	-8604
▁收拾	-8605
检查	-8606
▁交换	-8607
▁全是	-8608
面上	-8609
▁余生	-8610
▁政法	-8611
▁枕	-8612
一看	-8613
▁樊	-8614
▁花生	-8615
▁深情	-8616
▁块钱	-8617
▁协作	-8618
96	-8619
▁犀利	-8620
▁底部	-8621
▁烫	-8622
▁50.0	-8623
▁倘	-8624
▁集训	-8625
指数	-8626
▁前方	-8627
膨胀	-8628
▁从严	-8629
▁铸	-8630
▁以内	-8631
▁宁静	-8632
▁歪	-8633
▁不动	-8634
▁涵盖	-8635
▁落户	-8636
▁洛杉矶	-8637
▁袖	-8638
▁爆竹	-8639
▁远方	-8640
▁△	-8641
▁资质	-8642
▁马云	-8643
▁裂	-8644
▁知识产权	-8645
▁偿	-8646
▁逃避	-8647
增加	-8648
▁黏	-8649
▁关键词	-8650
▁矮	-8651
▁路面	-8652
▁迪波	-8653
▁偏偏	-8654
▁弟子	-8655
儿子	-8656
▁管理层	-8657
方式	-8658
▁配角	-8659
▁敌方	-8660
▁配送	-8661
主任	-8662
▁查处	-8663
▁baby	-8664
▁疲惫	-8665
▁唿	-8666
▁脖子	-8667
得起	-8668
▁科目	-8669
▁过大	-8670
▁层次感	-8671
▁作风	-8672
▁一员	-8673
啤酒	-8674
▁高水平	-8675
知识	-8676
▁三四	-8677
▁源自	-8678
ETF	-8679
支持	-8680
▁享有	-8681
▁稳定性	-8682
▁届时	-8683
▁故乡	-8684
▁名人	-8685
▁105	-8686
▁CC	-8687
▁强悍	-8688
▁护士	-8689
▁水晶	-8690
▁放出	-8691
▁织	-8692
▁韭	-8693
▁延迟	-8694
ER	-8695
▁听取	-8696
▁商量	-8697
句话	-8698
▁台词	-8699
▁讲解	-8700
▁隐私	-8701
▁矫	-8702
▁践行	-8703
▁溶	-8704
▁目的地	-8705
▁一脸	-8706
▁天上	-8707
▁赐	-8708
回来	-8709
▁一档	-8710
生物	-8711
▁一杯	-8712
▁放置	-8713
▁女排	-8714
▁基督	-8715
▁总监	-8716
▁饱满	-8717
▁欺骗	-8718
▁饥	-8719
一天	-8720
▁这样一来	-8721
▁党组织	-8722
▁前途	-8723
▁周杰	-8724
▁尼克斯	-8725
▁新闻网	-8726
▁重心	-8727
▁梨	-8728
▁咽	-8729
▁一万	-8730
▁图文	-8731
▁发售	-8732
▁条款	-8733
▁伦纳德	-8734
ans	-8735
▁犹如	-8736
▁吵架	-8737
▁嫌弃	-8738
▁比德	-8739
▁三角	-8740
成本	-8741
▁大海	-8742
▁换届	-8743
▁舌	-8744
▁股为	-8745
▁大奖	-8746
▁想念	-8747
▁圈内	-8748
▁无情	-8749
▁阳台	-8750
▁封锁	-8751
家庭	-8752
▁检察院	-8753
▁受损	-8754
▁摆放	-8755
▁报价	-8756
▁出租车	-8757
人意	-8758
▁电信	-8759
本山	-8760
▁抵制	-8761
▁株	-8762
▁太高	-8763
▁第四季度	-8764
▁反抗	-8765
▁有用	-8766
▁西甲	-8767
▁智商	-8768
▁饮酒	-8769
▁辜	-8770
▁收取	-8771
▁户籍	-8772
▁稳重	-8773
▁观赏	-8774
▁中旬	-8775
不足	-8776
▁丛	-8777
▁销售额	-8778
斯科	-8779
▁目前为止	-8780
▁拆迁	-8781
数据	-8782
▁传感器	-8783
▁滤	-8784
▁沉浸	-8785
▁顾问	-8786
▁首选	-8787
警察	-8788
▁吻	-8789
▁卧室	-8790
▁赵本山	-8791
▁指引	-8792
▁莫名	-8793
▁解说	-8794
▁冰箱	-8795
▁古镇	-8796
▁孕妇	-8797
▁有期徒刑	-8798
▁头条	-8799
▁雍正	-8800
▁日产	-8801
▁法庭	-8802
▁商标	-8803
▁终止	-8804
▁耳朵	-8805
▁立案	-8806
▁星星	-8807
▁备用	-8808
▁牙齿	-8809
▁融券	-8810
▁人际	-8811
▁冲动	-8812
办法	-8813
▁言语	-8814
▁打入	-8815
▁太平洋	-8816
▁长辈	-8817
▁上限	-8818
▁聂	-8819
流量	-8820
▁施罗德	-8821
▁协定	-8822
▁97	-8823
▁加以	-8824
▁撤销	-8825
▁封建	-8826
▁精细	-8827
▁到时候	-8828
ov	-8829
▁内在	-8830
▁高低	-8831
▁实用性	-8832
▁衫	-8833
▁写下	-8834
▁成年	-8835
▁鄂	-8836
▁审理	-8837
▁瑞典	-8838
▁Le	-8839
▁用车	-8840
▁是非	-8841
▁轩	-8842
▁家务	-8843
▁竖	-8844
▁尤为	-8845
▁支配	-8846
▁伊拉克	-8847
▁涨价	-8848
▁后人	-8849
污染	-8850
▁小白	-8851
▁针对性	-8852
▁炖	-8853
▁秉	-8854
▁李某	-8855
▁1994	-8856
▁以便	-8857
▁可达	-8858
▁拐	-8859
▁县级	-8860
▁唤	-8861
▁高新区	-8862
特勒	-8863
▁耿	-8864
▁一众	-8865
▁出国	-8866
▁步行者	-8867
▁得手	-8868
▁燃料	-8869
规划	-8870
▁一如	-8871
▁执勤	-8872
▁后备	-8873
▁中华民国	-8874
▁列为	-8875
▁彭德	-8876
▁息	-8877
▁年终	-8878
▁震撼	-8879
▁悬架	-8880
ue	-8881
▁老将	-8882
▁其后	-8883
▁建筑面积	-8884
▁土豆	-8885
▁慈善	-8886
▁赣	-8887
▁衍	-8888
▁少许	-8889
▁早安	-8890
▁0.3	-8891
▁宣称	-8892
▁取决	-8893
▁汇报	-8894
▁跟踪	-8895
▁砖	-8896
▁第一部	-8897
▁王俊	-8898
▁一心	-8899
▁民政	-8900
▁灵感	-8901
▁丘	-8902
▁1949	-8903
▁79	-8904
▁前不	-8905
份额	-8906
▁市场份额	-8907
▁翁	-8908
十年代	-8909
▁铝	-8910
▁吕布	-8911
▁不当	-8912
▁籍	-8913
证券交易所	-8914
▁僧	-8915
▁试试	-8916
▁提问	-8917
▁码头	-8918
▁彭德怀	-8919
▁喜庆	-8920
.25	-8921
▁攻防	-8922
▁沙漠	-8923
▁法规	-8924
▁岸	-8925
▁裸	-8926
意思	-8927
▁开出	-8928
▁李嘉	-8929
▁果实	-8930
▁拭	-8931
▁吸烟	-8932
▁主办	-8933
▁琴	-8934
光灯	-8935
▁小舞	-8936
▁海关	-8937
▁盟友	-8938
▁职能	-8939
▁切尔西	-8940
合同	-8941
▁一时间	-8942
▁佈	-8943
▁咋	-8944
岗位	-8945
▁浓厚	-8946
▁杀害	-8947
▁打压	-8948
▁波兰	-8949
▁开场	-8950
▁近些	-8951
▁溥仪	-8952
▁梦幻	-8953
▁翠	-8954
▁四处	-8955
▁首轮	-8956
▁密码	-8957
▁太原	-8958
▁假设	-8959
▁亲切	-8960
▁强国	-8961
▁叠加	-8962
▁跨年	-8963
▁黑龙江省	-8964
▁眼球	-8965
▁跨境	-8966
▁影子	-8967
▁活期	-8968
▁阴阳	-8969
▁海域	-8970
▁取胜	-8971
▁艳	-8972
▁带回	-8973
▁铠	-8974
▁获胜	-8975
▁龚	-8976
▁林彪	-8977
▁马丁	-8978
▁溜	-8979
▁支付宝	-8980
▁一律	-8981
▁CS	-8982
▁1980	-8983
▁史上	-8984
▁绽	-8985
相同	-8986
▁反倒	-8987
▁否定	-8988
▁虫	-8989
▁姓名	-8990
▁此类	-8991
▁新秀	-8992
毕业	-8993
▁绝望	-8994
▁一枚	-8995
▁元宵	-8996
▁天秤	-8997
▁前不久	-8998
▁交代	-8999
▁谢娜	-9000
不去	-9001
▁更名	-9002
▁啤酒	-9003
▁年薪	-9004
▁岭	-9005
▁俯	-9006
▁往事	-9007
▁取决于	-9008
▁从业人员	-9009
▁仅为	-9010
▁推特	-9011
规则	-9012
▁金色	-9013
▁单打	-9014
▁对不起	-9015
▁万家	-9016
▁回落	-9017
▁稳步	-9018
▁氧	-9019
▁柔软	-9020
▁色调	-9021
▁停车场	-9022
▁电源	-9023
▁搬迁	-9024
▁糊	-9025
▁狄	-9026
.12	-9027
▁带到	-9028
▁混动	-9029
路军	-9030
▁万里	-9031
▁遏制	-9032
▁况	-9033
▁前辈	-9034
▁不吃	-9035
▁反观	-9036
▁北大	-9037
▁夕	-9038
▁沙发	-9039
▁近代	-9040
▁信念	-9041
▁至关	-9042
▁下令	-9043
▁火车站	-9044
▁开创	-9045
▁若干	-9046
▁热量	-9047
▁区委	-9048
▁笼	-9049
▁繁华	-9050
位置	-9051
▁防火	-9052
▁第二节	-9053
▁糯	-9054
▁另一半	-9055
▁保安	-9056
▁老虎	-9057
▁饭店	-9058
▁不服	-9059
不如	-9060
▁一世	-9061
▁片段	-9062
▁怼	-9063
▁当晚	-9064
▁交手	-9065
▁削弱	-9066
▁己	-9067
26	-9068
▁我爱	-9069
ct	-9070
▁高温	-9071
▁不至于	-9072
▁大爷	-9073
▁反思	-9074
▁张学良	-9075
▁猫咪	-9076
▁至关重要	-9077
▁奶茶	-9078
▁光芒	-9079
▁热播	-9080
▁不曾	-9081
ud	-9082
▁细分	-9083
▁阿森	-9084
▁遇上	-9085
▁教训	-9086
▁140	-9087
▁最有	-9088
▁高度重视	-9089
▁中共中央	-9090
▁牛年	-9091
▁最长	-9092
▁爆出	-9093
▁自古	-9094
▁卑	-9095
▁复活	-9096
▁起初	-9097
▁东契奇	-9098
▁口中	-9099
▁多达	-9100
33	-9101
▁服用	-9102
▁局限	-9103
▁荣获	-9104
▁加剧	-9105
▁伤亡	-9106
▁成人	-9107
▁大部	-9108
▁摆在	-9109
夫人	-9110
▁恋人	-9111
▁被害	-9112
▁时隔	-9113
▁督导	-9114
之中	-9115
▁坚实	-9116
▁万户	-9117
▁道路交通	-9118
▁纲	-9119
▁枚	-9120
▁矩	-9121
▁周一	-9122
大衣	-9123
▁消杀	-9124
▁合力	-9125
▁求助	-9126
▁叶子	-9127
▁期盼	-9128
▁沸	-9129
ps	-9130
▁首款	-9131
▁上台	-9132
出去	-9133
▁评为	-9134
▁AD	-9135
▁祸	-9136
▁捉	-9137
▁水面	-9138
▁为止	-9139
▁篇文章	-9140
▁审计	-9141
▁境界	-9142
▁小龙	-9143
一致	-9144
▁原型	-9145
▁道具	-9146
▁节省	-9147
▁分裂	-9148
TV	-9149
▁枢纽	-9150
▁陈思	-9151
▁触控	-9152
▁直升	-9153
局长	-9154
▁薪资	-9155
▁浪姐	-9156
▁路边	-9157
▁紧接	-9158
▁结算	-9159
▁装扮	-9160
▁入门	-9161
▁押	-9162
▁励	-9163
88	-9164
▁总能	-9165
▁地形	-9166
▁漏洞	-9167
权益	-9168
▁抢救	-9169
▁白云	-9170
▁布克	-9171
▁显瘦	-9172
▁紧身	-9173
▁标的	-9174
▁平淡	-9175
▁出货	-9176
克尔	-9177
▁臀	-9178
▁天蝎座	-9179
▁滞	-9180
▁一封	-9181
▁税收	-9182
▁争吵	-9183
成功	-9184
▁自驾	-9185
▁碾	-9186
▁第二季	-9187
▁搅拌	-9188
▁暨	-9189
▁永不	-9190
▁这类	-9191
▁忽然	-9192
▁黑马	-9193
▁密度	-9194
▁借款	-9195
▁欧尚	-9196
▁亭	-9197
ust	-9198
▁保卫	-9199
▁默契	-9200
▁考研	-9201
▁纳税	-9202
▁鹤	-9203
▁北美	-9204
▁对华	-9205
▁勉强	-9206
▁防空	-9207
努力	-9208
▁水瓶座	-9209
必要	-9210
▁迟迟	-9211
▁问候	-9212
格尔	-9213
▁法律法规	-9214
▁点点	-9215
▁GT	-9216
▁第三个	-9217
▁图像	-9218
销量	-9219
▁表彰	-9220
▁带上	-9221
▁法师	-9222
姑娘	-9223
▁推送	-9224
▁扒	-9225
▁挫折	-9226
▁PS	-9227
▁颇为	-9228
▁鹏	-9229
太后	-9230
▁91	-9231
▁挣扎	-9232
▁澎	-9233
▁无意	-9234
▁牢牢	-9235
▁说不定	-9236
▁界面	-9237
▁获奖	-9238
▁积分榜	-9239
▁干脆	-9240
▁一小	-9241
▁1993	-9242
ik	-9243
▁光线	-9244
▁翟	-9245
▁买车	-9246
▁考辛	-9247
▁怀念	-9248
▁影视作品	-9249
▁父子	-9250
▁新一轮	-9251
▁零食	-9252
▁外星	-9253
▁香味	-9254
▁一会儿	-9255
▁俞	-9256
▁肤色	-9257
▁胎儿	-9258
学位	-9259
▁金牌	-9260
27	-9261
典礼	-9262
▁AR	-9263
▁两驱	-9264
▁古典	-9265
▁揉	-9266
▁行人	-9267
▁浴	-9268
▁绩	-9269
▁侦查	-9270
cm	-9271
▁洁	-9272
▁演艺圈	-9273
▁me	-9274
▁哔	-9275
▁电机	-9276
司令	-9277
▁考辛斯	-9278
▁炼	-9279
▁特有	-9280
▁打动	-9281
▁压缩	-9282
▁老太	-9283
▁涉案	-9284
▁金融机构	-9285
▁国安	-9286
▁屯	-9287
▁逮捕	-9288
▁车内	-9289
▁不说	-9290
▁贩	-9291
▁祝愿	-9292
▁追究	-9293
▁后方	-9294
▁4.5	-9295
▁下属	-9296
▁灿烂	-9297
▁门前	-9298
▁杠	-9299
▁多功能	-9300
▁热血	-9301
▁党支部	-9302
▁校区	-9303
▁省内	-9304
▁捏	-9305
▁孙悟空	-9306
▁翡	-9307
▁分成	-9308
▁巨蟹	-9309
▁迪丽	-9310
▁装甲	-9311
▁所在地	-9312
▁未成年人	-9313
▁受害者	-9314
▁不利于	-9315
▁强硬	-9316
▁不同于	-9317
▁好转	-9318
▁堡	-9319
▁气势	-9320
▁襄	-9321
利率	-9322
ong	-9323
▁凄	-9324
▁在此之	-9325
▁大使	-9326
▁三级	-9327
▁倘若	-9328
▁日内	-9329
▁郊	-9330
▁无非	-9331
▁产业园	-9332
end	-9333
▁震荡	-9334
▁第一步	-9335
▁通车	-9336
▁用途	-9337
之地	-9338
▁户口	-9339
▁聊聊	-9340
▁国内外	-9341
▁坊	-9342
▁廊	-9343
▁素材	-9344
▁杀手	-9345
▁缩短	-9346
▁上路	-9347
▁大楼	-9348
▁砂	-9349
▁亲子	-9350
▁河流	-9351
▁上个	-9352
▁活期存款	-9353
▁浅浅	-9354
▁123	-9355
▁说服	-9356
▁警示	-9357
▁美感	-9358
▁器官	-9359
▁那边	-9360
▁长寿	-9361
▁阿斯	-9362
▁大盘	-9363
维亚	-9364
▁王俊凯	-9365
▁进军	-9366
▁冷冻	-9367
▁地域	-9368
▁批发	-9369
▁烊	-9370
青年	-9371
▁养护	-9372
▁网民	-9373
▁离世	-9374
▁磕	-9375
▁起床	-9376
▁春联	-9377
▁韭菜	-9378
▁收视率	-9379
▁不去	-9380
▁人品	-9381
▁祁	-9382
▁卤	-9383
▁两三	-9384
▁朝阳	-9385
▁恒生	-9386
▁115	-9387
▁牢记	-9388
▁对付	-9389
▁高性	-9390
▁星球	-9391
▁纤细	-9392
▁床上	-9393
▁私下	-9394
▁偏向	-9395
▁挽回	-9396
▁共建	-9397
▁家电	-9398
▁辜负	-9399
▁多余	-9400
▁钢琴	-9401
▁部落	-9402
改革	-9403
不清	-9404
▁平民	-9405
▁调味	-9406
▁处女座	-9407
▁广州市	-9408
▁子弹	-9409
▁US	-9410
▁完毕	-9411
▁意甲	-9412
▁时许	-9413
▁颁奖	-9414
▁后代	-9415
▁美容	-9416
▁秘书长	-9417
▁内存	-9418
▁转为	-9419
三十	-9420
空间	-9421
▁著作	-9422
▁新闻记者	-9423
▁悬念	-9424
▁战友	-9425
▁加密	-9426
▁金牛座	-9427
▁风情	-9428
▁平日	-9429
▁涡轮	-9430
▁不乏	-9431
▁熏	-9432
▁干预	-9433
▁倚	-9434
▁剧集	-9435
▁尾灯	-9436
▁周杰伦	-9437
▁潇洒	-9438
▁制片	-9439
▁贷	-9440
▁弦	-9441
▁语文	-9442
▁打通	-9443
▁排名第	-9444
▁下车	-9445
▁阮	-9446
▁烹饪	-9447
▁减持	-9448
▁标识	-9449
▁卫健委	-9450
▁高压	-9451
▁快船队	-9452
▁顺序	-9453
▁热水	-9454
▁81	-9455
▁紧接着	-9456
▁鼎	-9457
▁击杀	-9458
▁极度	-9459
▁噪	-9460
▁钙	-9461
▁1992	-9462
▁飞行员	-9463
▁妥协	-9464
▁狐	-9465
▁批次	-9466
▁执导	-9467
▁更具	-9468
▁带头	-9469
▁it	-9470
▁运转	-9471
▁约会	-9472
▁热烈	-9473
▁晚间	-9474
▁腊月	-9475
▁衡量	-9476
程序	-9477
▁时任	-9478
▁劫	-9479
意见	-9480
▁地去	-9481
▁文案	-9482
▁垄断	-9483
出现	-9484
▁双向	-9485
▁上任	-9486
▁时不	-9487
▁可用	-9488
▁名额	-9489
▁叮	-9490
▁刺杀	-9491
▁样式	-9492
▁间接	-9493
▁租金	-9494
▁衰老	-9495
▁生前	-9496
▁后台	-9497
▁哪吒	-9498
▁肥胖	-9499
实力	-9500
▁桥梁	-9501
▁多一	-9502
▁傍	-9503
▁双眼	-9504
▁建国	-9505
机会	-9506
▁南宁	-9507
▁西游	-9508
▁新机	-9509
瞩目	-9510
▁主营业务	-9511
▁公元前	-9512
▁温和	-9513
报告	-9514
▁势头	-9515
▁挣钱	-9516
▁高地	-9517
▁英格兰	-9518
▁汪峰	-9519
▁这片	-9520
▁又称	-9521
▁这样的话	-9522
▁终点	-9523
▁规矩	-9524
▁推迟	-9525
▁留学生	-9526
▁二年	-9527
▁人民检察院	-9528
▁追逐	-9529
▁找回	-9530
▁净流	-9531
▁处境	-9532
优势	-9533
▁必备	-9534
港元	-9535
▁天涯	-9536
▁团长	-9537
▁不宜	-9538
ell	-9539
▁二胎	-9540
▁净流入	-9541
▁强队	-9542
▁省市	-9543
▁少不了	-9544
94	-9545
▁一旁	-9546
▁0.7	-9547
▁期货	-9548
▁小女孩	-9549
▁总的来说	-9550
▁阻挡	-9551
SI	-9552
▁遥远	-9553
▁张国	-9554
▁瓷	-9555
实实	-9556
▁常务	-9557
▁128	-9558
尼斯	-9559
▁污水	-9560
▁台上	-9561
▁相伴	-9562
▁大风	-9563
▁肌肤	-9564
▁报销	-9565
▁耍	-9566
▁歌唱	-9567
▁增大	-9568
▁穿过	-9569
▁沃尔沃	-9570
▁安娜	-9571
▁叙利亚	-9572
▁我爱你	-9573
▁鼻子	-9574
▁合作伙伴	-9575
▁多元化	-9576
▁肩膀	-9577
▁喜悦	-9578
峡谷	-9579
▁阿森纳	-9580
▁省会	-9581
▁子宫	-9582
▁3.2	-9583
▁摩羯	-9584
▁仲	-9585
Pro	-9586
到底	-9587
▁约合	-9588
▁学业	-9589
▁起飞	-9590
日起	-9591
监管	-9592
▁只见	-9593
▁TOP	-9594
▁经纪人	-9595
▁点个	-9596
▁区内	-9597
▁服务业	-9598
▁年来	-9599
▁魔法	-9600
▁鹿晗	-9601
▁行列	-9602
▁宛	-9603
▁保健	-9604
▁法案	-9605
▁诉求	-9606
▁流行病	-9607
PS	-9608
.88	-9609
▁贫穷	-9610
▁曝出	-9611
▁心底	-9612
▁粟	-9613
▁增幅	-9614
ith	-9615
▁事发	-9616
▁德军	-9617
▁1950	-9618
▁担保	-9619
▁绳	-9620
居民	-9621
▁工地	-9622
▁更能	-9623
▁不为	-9624
▁任意	-9625
▁单节	-9626
▁启用	-9627
▁枣	-9628
▁国土	-9629
▁倡议	-9630
▁换手	-9631
▁医务	-9632
▁朝着	-9633
颜值	-9634
ity	-9635
▁这首	-9636
▁原生	-9637
▁沉重	-9638
▁就职	-9639
▁占用	-9640
▁更多	-9641
▁避开	-9642
▁团聚	-9643
▁生下	-9644
▁六十	-9645
▁双重	-9646
▁诚意	-9647
▁拼搏	-9648
▁旨在	-9649
▁开玩	-9650
▁合法权益	-9651
▁第三次	-9652
确定	-9653
▁促使	-9654
▁较强	-9655
▁匆匆	-9656
▁无聊	-9657
▁过节	-9658
▁张碧	-9659
▁奇葩	-9660
▁捐赠	-9661
▁开玩笑	-9662
品牌	-9663
rom	-9664
▁冥	-9665
▁模块	-9666
▁端的	-9667
▁人民日报	-9668
▁江山	-9669
速度	-9670
▁非必要	-9671
▁En	-9672
▁威力	-9673
▁趁着	-9674
▁手臂	-9675
ear	-9676
▁兴起	-9677
▁全线	-9678
▁所属	-9679
▁嬛	-9680
ld	-9681
▁艘	-9682
▁面部	-9683
▁原油	-9684
小说	-9685
▁兹	-9686
尼尔	-9687
▁奔跑	-9688
▁泰山	-9689
▁敷	-9690
▁腰线	-9691
▁克制	-9692
▁俊	-9693
▁普京	-9694
▁磷	-9695
▁0.6	-9696
▁虐	-9697
▁皱	-9698
▁心愿	-9699
▁示范区	-9700
▁天王	-9701
.00	-9702
▁增压	-9703
▁哔哩	-9704
▁涉疫	-9705
▁企图	-9706
▁两地	-9707
▁You	-9708
▁有害	-9709
▁8000	-9710
用品	-9711
▁绽放	-9712
▁团战	-9713
▁鹅	-9714
▁3.3	-9715
▁坎坷	-9716
▁1988	-9717
▁明月	-9718
▁CR	-9719
▁浏览	-9720
创新	-9721
▁调度	-9722
▁瑞士	-9723
▁为首	-9724
▁布莱	-9725
▁翻炒	-9726
▁关节	-9727
▁戳	-9728
▁舒适性	-9729
▁收益率	-9730
▁洗手	-9731
蛋白	-9732
▁蓝天	-9733
▁审议	-9734
▁比重	-9735
▁张碧晨	-9736
▁阴影	-9737
▁之初	-9738
▁讽	-9739
▁异地	-9740
▁体型	-9741
▁醒来	-9742
▁筹码	-9743
▁摧毁	-9744
▁驶	-9745
lay	-9746
▁阐	-9747
▁华北	-9748
▁自愿	-9749
▁报复	-9750
自治区	-9751
▁晕	-9752
▁爆款	-9753
▁成交量	-9754
▁美联	-9755
▁名将	-9756
▁闪电	-9757
▁带货	-9758
计划	-9759
▁歧	-9760
▁老旧	-9761
▁择	-9762
▁2025	-9763
▁勿	-9764
▁自卑	-9765
▁珠海	-9766
▁引来	-9767
▁向来	-9768
▁上天	-9769
▁经销	-9770
▁妆容	-9771
▁wh	-9772
▁专科	-9773
▁缺阵	-9774
▁徒弟	-9775
▁物体	-9776
▁就读	-9777
▁日记	-9778
▁收纳	-9779
▁蓝牙	-9780
▁实地	-9781
尼奥	-9782
▁追溯	-9783
▁美方	-9784
▁亚历	-9785
▁开头	-9786
▁扰	-9787
▁冤	-9788
▁货运	-9789
▁颇具	-9790
▁悉	-9791
▁拜仁	-9792
▁大厅	-9793
▁瞄	-9794
▁董事会	-9795
▁留守	-9796
▁十七	-9797
▁党委书记	-9798
▁水利	-9799
▁延安	-9800
▁从容	-9801
▁Mar	-9802
▁摩羯座	-9803
要求	-9804
▁彩票	-9805
▁占有	-9806
▁发稿	-9807
▁人情	-9808
▁一步步	-9809
▁华尔	-9810
▁锋线	-9811
▁灭亡	-9812
▁男主角	-9813
▁入驻	-9814
▁晋升	-9815
▁联络	-9816
▁韧	-9817
▁格拉	-9818
▁辟	-9819
▁筛查	-9820
制品	-9821
▁页面	-9822
▁竞赛	-9823
▁不在乎	-9824
▁娜娜	-9825
▁攻势	-9826
▁新手	-9827
▁茶叶	-9828
▁本月	-9829
证明	-9830
▁标准化	-9831
▁兰州	-9832
▁全系	-9833
▁再生	-9834
▁冬奥	-9835
ge	-9836
▁三月	-9837
▁0.4	-9838
▁卫冕	-9839
部件	-9840
▁直升机	-9841
▁型号	-9842
▁此刻	-9843
▁狮子座	-9844
▁无敌	-9845
▁分析师	-9846
▁高高	-9847
▁数千	-9848
▁六年	-9849
▁重组	-9850
事件	-9851
▁楼盘	-9852
▁输掉	-9853
▁租房	-9854
▁几种	-9855
▁胜率	-9856
▁李菲	-9857
▁沦为	-9858
▁变为	-9859
▁阵营	-9860
▁仙女	-9861
▁一次次	-9862
▁这辆	-9863
▁沉稳	-9864
▁扳	-9865
▁盗窃	-9866
▁每人	-9867
▁赛区	-9868
▁细致	-9869
▁债权	-9870
▁新品	-9871
▁油腻	-9872
▁108	-9873
▁监制	-9874
▁孔子	-9875
▁娃娃	-9876
▁高贵	-9877
▁观测	-9878
▁小康	-9879
AM	-9880
▁广发	-9881
个子	-9882
▁免责	-9883
▁绿化	-9884
▁中药	-9885
▁裴	-9886
73	-9887
▁此举	-9888
▁地质	-9889
▁一切都是	-9890
▁冲锋	-9891
▁恰好	-9892
▁乏	-9893
▁肇	-9894
▁韩信	-9895
▁美国政府	-9896
▁重生	-9897
▁承包	-9898
▁一口气	-9899
▁一门	-9900
▁三季度	-9901
▁演变	-9902
▁传染病	-9903
▁威尔	-9904
▁1991	-9905
▁超强	-9906
▁烈士	-9907
▁勺	-9908
▁188	-9909
▁自此	-9910
▁放开	-9911
▁脑海	-9912
▁万年	-9913
▁葡萄牙	-9914
▁指控	-9915
严重	-9916
▁银行卡	-9917
老师	-9918
▁跑步	-9919
▁李菲儿	-9920
▁动感	-9921
▁广阔	-9922
▁载体	-9923
▁兮	-9924
ike	-9925
▁哟	-9926
▁军官	-9927
▁交出	-9928
▁迎战	-9929
▁纪录片	-9930
▁铲	-9931
▁集合	-9932
▁阿里巴巴	-9933
▁3.1	-9934
▁离职	-9935
▁违背	-9936
▁一月	-9937
▁大选	-9938
资金	-9939
▁发光	-9940
不觉	-9941
▁延期	-9942
▁误会	-9943
▁呗	-9944
▁戏份	-9945
▁好人	-9946
▁家居	-9947
春节	-9948
▁宏观	-9949
▁崭	-9950
▁恶化	-9951
▁95.0	-9952
▁马来西亚	-9953
皇帝	-9954
▁十字	-9955
▁蕴	-9956
▁特雷	-9957
▁体质	-9958
▁NO	-9959
▁俏	-9960
▁旋转	-9961
▁喜好	-9962
▁抗体	-9963
▁颗粒	-9964
使用	-9965
▁状元	-9966
▁利好	-9967
▁大有	-9968
▁底层	-9969
▁无锡	-9970
▁中队	-9971
▁极强	-9972
▁钱财	-9973
▁交通工具	-9974
▁讽刺	-9975
▁借钱	-9976
▁科幻	-9977
▁仪表盘	-9978
▁同情	-9979
▁服役	-9980
▁违法犯罪	-9981
▁合伙人	-9982
▁杏	-9983
▁宣告	-9984
▁少量	-9985
▁突击	-9986
▁购房者	-9987
▁周星	-9988
▁流失	-9989
▁莉	-9990
▁老实	-9991
▁车尾	-9992
▁澄清	-9993
▁上将	-9994
▁东海	-9995
▁用力	-9996
▁上海证券交易所	-9997
▁西蒙	-9998
▁埃及	-9999
▁CT	-10000
▁水中	-10001
▁懵	-10002
▁换手率	-10003
▁做过	-10004
过于	-10005
▁之地	-10006
▁刘海	-10007
▁总数	-10008
▁容量	-10009
▁衬托	-10010
▁可不是	-10011
▁红线	-10012
▁合作社	-10013
▁低头	-10014
▁淋漓	-10015
▁草莓	-10016
▁金星	-10017
▁交易日	-10018
▁排出	-10019
▁长三角	-10020
▁清晨	-10021
▁饶	-10022
适合	-10023
▁非常适合	-10024
▁隶	-10025
▁Re	-10026
▁中型	-10027
▁泸	-10028
▁免疫力	-10029
▁发掘	-10030
▁大声	-10031
▁步兵	-10032
协会	-10033
▁勘	-10034
▁主线	-10035
▁贫困户	-10036
▁射击	-10037
▁小宝	-10038
▁一秒	-10039
公告	-10040
▁保姆	-10041
▁反派	-10042
▁十万	-10043
▁事宜	-10044
▁必不可	-10045
▁力争	-10046
▁学位	-10047
▁依照	-10048
74	-10049
▁泰王	-10050
淀粉	-10051
▁出镜	-10052
▁翡翠	-10053
▁充实	-10054
▁Sh	-10055
▁为啥	-10056
▁追捧	-10057
▁畏	-10058
▁可想	-10059
▁选用	-10060
▁渗透	-10061
▁谈话	-10062
▁幸福感	-10063
▁雌	-10064
▁中医药	-10065
▁天堂	-10066
▁按时	-10067
▁离去	-10068
▁穴	-10069
▁管辖	-10070
▁花朵	-10071
▁人身	-10072
▁礼服	-10073
▁巧妙	-10074
▁气体	-10075
.58	-10076
▁驾车	-10077
▁优良	-10078
▁资助	-10079
▁一角	-10080
▁今晚	-10081
▁三千	-10082
所未	-10083
▁号称	-10084
▁毁灭	-10085
小平	-10086
▁底气	-10087
▁栽培	-10088
▁洗澡	-10089
损失	-10090
▁景象	-10091
▁武则	-10092
▁易车	-10093
▁永恒	-10094
▁乐队	-10095
跟鞋	-10096
▁不输	-10097
▁滋味	-10098
▁补强	-10099
▁佩服	-10100
▁联防	-10101
▁无形	-10102
▁高跟鞋	-10103
▁0.8	-10104
▁臣	-10105
▁一碗	-10106
▁沉淀	-10107
▁三家	-10108
▁汉字	-10109
▁刘亦	-10110
▁印尼	-10111
▁脊	-10112
▁丢失	-10113
▁触发	-10114
▁真情	-10115
▁武则天	-10116
▁匈奴	-10117
▁◆	-10118
ect	-10119
▁稳健	-10120
▁检察机关	-10121
▁投资人	-10122
▁七十	-10123
▁离队	-10124
▁用电	-10125
▁外观设计	-10126
▁派遣	-10127
山市	-10128
▁巡查	-10129
▁卓越	-10130
▁洗衣	-10131
▁华尔街	-10132
▁后勤	-10133
▁小哥	-10134
▁安徽省	-10135
▁赛期	-10136
▁周星驰	-10137
▁大自然	-10138
▁成交额	-10139
▁同级	-10140
▁清华大学	-10141
▁办学	-10142
雷尔	-10143
▁八卦	-10144
▁人大常委会	-10145
ord	-10146
▁低温	-10147
▁七年	-10148
▁元年	-10149
▁毋	-10150
▁蚂	-10151
文明	-10152
利用	-10153
▁小人	-10154
▁正月初	-10155
66	-10156
▁CO	-10157
▁沿着	-10158
▁不由	-10159
菲尼迪	-10160
模式	-10161
成员	-10162
▁八路军	-10163
▁高龄	-10164
ID	-10165
▁似的	-10166
▁限度	-10167
▁心想	-10168
▁3.6	-10169
▁奋力	-10170
▁电气	-10171
▁杰克	-10172
▁玩游戏	-10173
▁晚安	-10174
▁二十四	-10175
▁博主	-10176
▁改革开放	-10177
▁榜样	-10178
▁传言	-10179
▁上游	-10180
▁合照	-10181
▁长发	-10182
布朗	-10183
▁十几年	-10184
表示	-10185
▁打得	-10186
西哥	-10187
▁解散	-10188
▁鉴于	-10189
新闻	-10190
▁哪儿	-10191
▁复仇	-10192
▁光环	-10193
▁IPO	-10194
▁遗忘	-10195
▁下次	-10196
qu	-10197
▁郭敬	-10198
▁看得出来	-10199
▁行星	-10200
▁悦	-10201
▁跨界	-10202
▁轮换	-10203
▁两边	-10204
▁二者	-10205
▁寡	-10206
烟花	-10207
▁提议	-10208
▁门票	-10209
▁戈登	-10210
▁世卫	-10211
▁刘亦菲	-10212
▁余人	-10213
▁燃放烟花	-10214
▁量化	-10215
▁谷歌	-10216
▁明亮	-10217
▁候选人	-10218
▁耽误	-10219
▁并于	-10220
▁分歧	-10221
▁改装	-10222
蒙德	-10223
▁时空	-10224
▁350	-10225
▁含义	-10226
▁车间	-10227
▁菩萨	-10228
▁强力	-10229
▁励志	-10230
▁珍珠	-10231
不着	-10232
▁可想而知	-10233
▁原地	-10234
▁多大	-10235
▁兑换	-10236
▁微微	-10237
▁踏实	-10238
▁直线	-10239
▁接地	-10240
▁Wind	-10241
▁顽强	-10242
▁代表性	-10243
▁上榜	-10244
▁有何	-10245
▁失利	-10246
▁厚重	-10247
▁陈思诚	-10248
▁PL	-10249
▁放手	-10250
▁郭敬明	-10251
▁打赢	-10252
▁牵挂	-10253
▁东南亚	-10254
ne	-10255
▁中等	-10256
▁参谋	-10257
▁焕	-10258
▁客服	-10259
代表大会	-10260
▁信用卡	-10261
▁市面上	-10262
▁闫	-10263
▁茂	-10264
▁村镇	-10265
▁返校	-10266
▁英菲尼迪	-10267
▁巨额	-10268
▁解锁	-10269
▁核武器	-10270
▁外人	-10271
▁翻车	-10272
▁争冠	-10273
▁哎	-10274
▁<	-10275
▁路透	-10276
▁邦	-10277
▁on	-10278
▁桩	-10279
▁10.0	-10280
▁白银	-10281
▁多方	-10282
▁陵	-10283
▁大妈	-10284
▁打下	-10285
▁劳动力	-10286
▁迷茫	-10287
▁克里斯	-10288
▁分解	-10289
▁皮卡	-10290
等奖	-10291
▁玩耍	-10292
▁奏	-10293
▁李世	-10294
▁风云	-10295
▁一站	-10296
▁车号	-10297
▁貌	-10298
▁不大	-10299
▁代言人	-10300
▁1945	-10301
▁地处	-10302
▁芙	-10303
▁半身	-10304
▁大年初一	-10305
▁高大	-10306
▁第二十	-10307
▁得罪	-10308
▁第一批	-10309
▁浓浓	-10310
▁白羊座	-10311
▁筹备	-10312
▁磨合	-10313
竞争	-10314
▁口腔	-10315
▁抗日战争	-10316
调查	-10317
利益	-10318
▁飙升	-10319
▁万人次	-10320
▁魅族	-10321
io	-10322
▁正值	-10323
▁食品安全	-10324
▁水泥	-10325
▁描绘	-10326
▁时不时	-10327
▁大腿	-10328
▁垂直	-10329
▁顺义	-10330
▁鹰	-10331
▁美景	-10332
▁阎	-10333
▁宁愿	-10334
▁必不可少	-10335
▁牡	-10336
▁较量	-10337
▁层层	-10338
▁制造商	-10339
▁身处	-10340
▁全会	-10341
▁宰	-10342
▁罗伯	-10343
如何	-10344
▁兼顾	-10345
▁窗户	-10346
▁斯特	-10347
▁逃离	-10348
PV	-10349
▁办事处	-10350
有余	-10351
▁9000	-10352
▁风暴	-10353
▁便会	-10354
▁3.8	-10355
▁颠覆	-10356
▁修订	-10357
▁切成	-10358
拘留	-10359
▁前置	-10360
▁更显	-10361
▁解析	-10362
▁诸侯	-10363
▁难忘	-10364
▁港元	-10365
▁天花	-10366
▁衍生	-10367
▁爸爸妈妈	-10368
▁莫过于	-10369
▁库兹	-10370
▁终极	-10371
▁屁	-10372
▁抓紧	-10373
▁不尽	-10374
▁『	-10375
▁高原	-10376
▁核查	-10377
▁午后	-10378
▁产权	-10379
▁不必要	-10380
▁滴滴	-10381
▁美貌	-10382
▁乞	-10383
34	-10384
▁浓郁	-10385
▁馅	-10386
▁广汽	-10387
▁』	-10388
▁钉	-10389
▁激活	-10390
▁Th	-10391
▁南非	-10392
▁打响	-10393
▁监察	-10394
▁欢喜	-10395
▁运营商	-10396
▁干涉	-10397
▁全长	-10398
▁尾部	-10399
▁淘宝	-10400
佩奥	-10401
▁嘲讽	-10402
▁小鹏	-10403
▁妄	-10404
▁扯	-10405
记录	-10406
▁101	-10407
▁提案	-10408
▁面粉	-10409
▁自然资源	-10410
▁往后	-10411
▁袋	-10412
▁青山	-10413
▁复产	-10414
▁手工	-10415
▁饰物	-10416
▁酥	-10417
▁何必	-10418
▁陕西省	-10419
▁体积	-10420
▁破门	-10421
安排	-10422
▁大跌	-10423
▁直观	-10424
▁按摩	-10425
▁口号	-10426
▁暮	-10427
▁相比之下	-10428
▁贴心	-10429
▁鲜花	-10430
过程	-10431
tern	-10432
▁负压	-10433
▁112	-10434
▁肠胃	-10435
▁旺盛	-10436
▁传输	-10437
▁鲨	-10438
▁核实	-10439
程度	-10440
▁舰队	-10441
▁看中	-10442
▁分化	-10443
▁愈发	-10444
山大	-10445
▁患上	-10446
案件	-10447
小时	-10448
▁公共服务	-10449
▁漆	-10450
▁说完	-10451
▁夜里	-10452
▁舍不得	-10453
▁通化市	-10454
▁佟	-10455
▁htt	-10456
▁纪检	-10457
▁伊斯	-10458
▁一架	-10459
▁顶流	-10460
▁不知不觉	-10461
▁悬挂	-10462
▁一圈	-10463
▁讨好	-10464
.48	-10465
▁缘故	-10466
▁关注度	-10467
▁三观	-10468
▁光辉	-10469
▁诚信	-10470
▁出资	-10471
▁自私	-10472
▁巡视	-10473
▁帐	-10474
▁园林	-10475
▁竞选	-10476
▁裹	-10477
▁伪装	-10478
▁一汽	-10479
▁报纸	-10480
▁翅	-10481
▁头疼	-10482
▁开国	-10483
▁长裙	-10484
▁入学	-10485
▁尽力	-10486
▁履职	-10487
▁底盘	-10488
▁重症	-10489
▁点燃	-10490
▁年少	-10491
▁赛程	-10492
▁海鲜	-10493
▁眼镜	-10494
▁笑话	-10495
一起	-10496
▁急性	-10497
▁增持	-10498
▁感激	-10499
▁中南	-10500
▁加之	-10501
▁校对	-10502
以待	-10503
▁剧照	-10504
▁二月	-10505
▁行政区	-10506
天下	-10507
▁劣势	-10508
▁相思	-10509
▁花卉	-10510
▁打拼	-10511
oc	-10512
成果	-10513
▁大叔	-10514
▁更要	-10515
装备	-10516
▁这台	-10517
38	-10518
▁弘扬	-10519
▁琼斯	-10520
▁这天	-10521
▁蓬佩奥	-10522
▁推测	-10523
▁笔记本	-10524
▁只想	-10525
.28	-10526
▁君子	-10527
▁佔	-10528
oun	-10529
▁车载	-10530
▁亡	-10531
▁死后	-10532
▁变形	-10533
▁赋能	-10534
▁巫	-10535
▁孤单	-10536
▁伤口	-10537
▁绣	-10538
▁生效	-10539
▁170	-10540
▁乒	-10541
▁测温	-10542
▁前所未	-10543
▁用到	-10544
▁出彩	-10545
▁玛丽	-10546
▁上网	-10547
▁个性化	-10548
▁餐桌	-10549
ere	-10550
▁清除	-10551
▁多岁	-10552
▁名校	-10553
思想	-10554
▁之情	-10555
▁面板	-10556
▁收费站	-10557
▁品类	-10558
▁初恋	-10559
▁耕地	-10560
馒头	-10561
ain	-10562
晚报	-10563
▁扫码	-10564
▁哺	-10565
▁南下	-10566
▁天然气	-10567
▁新剧	-10568
▁小于	-10569
▁必将	-10570
▁拉拉	-10571
介绍	-10572
▁圈子	-10573
▁武功	-10574
▁靓	-10575
▁嘲笑	-10576
▁资深	-10577
▁刷新率	-10578
总理	-10579
▁不太好	-10580
▁君主	-10581
▁议会	-10582
▁莫斯科	-10583
▁首秀	-10584
▁海底	-10585
考试	-10586
▁失踪	-10587
合作	-10588
▁表白	-10589
武帝	-10590
▁首富	-10591
▁黑人	-10592
金属	-10593
▁美观	-10594
▁数码	-10595
▁诗词	-10596
▁涨停	-10597
▁看清	-10598
▁往来	-10599
一亮	-10600
确定性	-10601
▁不确定性	-10602
▁人次	-10603
▁萝卜	-10604
▁国泰	-10605
▁撩	-10606
▁杜淳	-10607
▁化石	-10608
▁人事	-10609
▁灭火	-10610
▁纷纷表示	-10611
而不	-10612
▁桌子	-10613
在一起	-10614
▁人能	-10615
▁人大代表	-10616
▁三亚	-10617
▁束缚	-10618
▁美国国	-10619
▁常委	-10620
▁忍受	-10621
▁依次	-10622
▁处分	-10623
▁修正	-10624
ber	-10625
▁引人	-10626
▁掩盖	-10627
▁科尔	-10628
▁零部件	-10629
相关	-10630
▁自治	-10631
▁棉服	-10632
▁进气	-10633
▁摩擦	-10634
▁今年春节	-10635
▁点亮	-10636
▁藤	-10637
▁二期	-10638
▁江铠	-10639
.95	-10640
▁维权	-10641
▁波特	-10642
.97	-10643
▁发布公告	-10644
▁营运	-10645
▁墨西哥	-10646
▁歌词	-10647
▁降水	-10648
▁缺失	-10649
▁科创	-10650
▁厄	-10651
▁当家	-10652
▁指令	-10653
ian	-10654
▁北上	-10655
▁HK	-10656
▁自豪	-10657
▁肠道	-10658
▁高管	-10659
▁知晓	-10660
▁一说	-10661
▁光是	-10662
▁题目	-10663
▁中信	-10664
▁农户	-10665
▁交易所	-10666
▁越发	-10667
▁钦	-10668
现场	-10669
▁热带	-10670
▁心理学	-10671
▁踏上	-10672
▁警卫	-10673
▁Air	-10674
▁爱尔	-10675
▁阵风	-10676
▁驿站	-10677
ood	-10678
▁幕后	-10679
▁电竞	-10680
▁生抽	-10681
▁博格	-10682
▁套房	-10683
▁风口	-10684
▁芭	-10685
▁隐瞒	-10686
▁干练	-10687
▁静静	-10688
▁凡是	-10689
▁豁	-10690
一人	-10691
▁眼前一亮	-10692
中全	-10693
否认	-10694
▁渲	-10695
▁大半	-10696
▁散热	-10697
编辑	-10698
▁集结	-10699
▁自有	-10700
▁矩阵	-10701
▁薄弱	-10702
▁拌	-10703
▁实际行动	-10704
▁回暖	-10705
▁描写	-10706
▁民进	-10707
▁喧	-10708
▁抗美	-10709
▁阁	-10710
▁双鱼座	-10711
▁太太	-10712
▁学霸	-10713
▁好不容易	-10714
▁饰条	-10715
▁三节	-10716
▁1.1	-10717
▁出处	-10718
▁直呼	-10719
▁被害人	-10720
▁出炉	-10721
▁之旅	-10722
▁恶性	-10723
▁湖北省	-10724
▁酱油	-10725
▁当红	-10726
▁克拉	-10727
▁回购	-10728
▁高分	-10729
▁舍得	-10730
▁二线	-10731
中全会	-10732
▁玲	-10733
▁高出	-10734
▁配音	-10735
▁地理位置	-10736
▁小麦	-10737
▁憋	-10738
▁大神	-10739
军人	-10740
▁地带	-10741
▁侄	-10742
▁赢家	-10743
oin	-10744
▁纵观	-10745
▁起码	-10746
▁务工人员	-10747
▁显现	-10748
▁中级	-10749
而易	-10750
▁一贯	-10751
▁另有	-10752
▁历程	-10753
▁收缩	-10754
图姆	-10755
▁绝大部分	-10756
用车	-10757
▁唯独	-10758
▁拱	-10759
▁军工	-10760
▁净化	-10761
▁闻名	-10762
▁情人节	-10763
▁豫	-10764
汹涌	-10765
▁强迫	-10766
▁叔叔	-10767
▁评审	-10768
▁附加	-10769
▁勤奋	-10770
▁战后	-10771
▁中西	-10772
▁做起	-10773
▁取名	-10774
▁研判	-10775
▁村子	-10776
▁户型	-10777
▁万一	-10778
▁明日	-10779
▁冷漠	-10780
▁国企	-10781
▁一笑	-10782
▁违约	-10783
▁年限	-10784
▁暴涨	-10785
.68	-10786
▁压抑	-10787
92	-10788
▁被困	-10789
▁两罚	-10790
▁唱片	-10791
▁演练	-10792
▁气囊	-10793
▁谜	-10794
职工	-10795
▁很久	-10796
▁民俗	-10797
▁TVB	-10798
▁矣	-10799
▁逝世	-10800
▁防冻	-10801
▁拿来	-10802
kW	-10803
▁迄	-10804
▁嘴里	-10805
▁渲染	-10806
▁陌生人	-10807
▁平原	-10808
▁6.5	-10809
▁管道	-10810
▁贵妃	-10811
97	-10812
▁意图	-10813
▁对称	-10814
▁开衫	-10815
▁没多久	-10816
▁天后	-10817
▁在此之前	-10818
▁妹子	-10819
▁方言	-10820
▁遗产	-10821
▁化妆品	-10822
▁小花	-10823
▁一到	-10824
不能	-10825
▁1987	-10826
▁上调	-10827
▁蚂蚁	-10828
▁滥	-10829
▁经费	-10830
▁省政府	-10831
▁广电	-10832
▁史诗	-10833
▁死刑	-10834
▁SN	-10835
▁上身	-10836
▁领克	-10837
▁相对来说	-10838
▁天内	-10839
蜘蛛	-10840
HE	-10841
▁国籍	-10842
▁恭喜	-10843
▁右侧	-10844
▁符号	-10845
▁心意	-10846
▁栋	-10847
▁红米	-10848
▁125	-10849
▁泼	-10850
▁想过	-10851
▁事务所	-10852
▁本轮	-10853
▁短款	-10854
▁5.5	-10855
▁打着	-10856
▁莱昂纳德	-10857
▁选项	-10858
▁吸睛	-10859
▁教育局	-10860
▁厚度	-10861
▁前身	-10862
▁奥斯卡	-10863
▁翘	-10864
▁亲近	-10865
ast	-10866
▁效益	-10867
▁浓度	-10868
▁4.0	-10869
▁邓小平	-10870
▁召回	-10871
▁王源	-10872
▁长征	-10873
▁安卓	-10874
▁攀升	-10875
▁学区	-10876
▁与众	-10877
▁与众不同	-10878
▁仅供	-10879
▁绝杀	-10880
▁大红	-10881
▁情景	-10882
TC	-10883
▁无处	-10884
尽致	-10885
▁预言	-10886
▁淋漓尽致	-10887
▁抗美援	-10888
▁整容	-10889
▁征战	-10890
▁那段	-10891
▁过敏	-10892
▁Car	-10893
▁一见	-10894
▁原材料	-10895
▁备战	-10896
▁绮	-10897
▁登录	-10898
▁中控台	-10899
▁翻身	-10900
▁坦言	-10901
▁野生动物	-10902
▁年仅	-10903
▁金晨	-10904
▁往前	-10905
▁绩效	-10906
▁怎么回事	-10907
▁选拔	-10908
▁射手座	-10909
▁光荣	-10910
▁1989	-10911
▁帝王	-10912
▁公子	-10913
▁外资	-10914
▁山河	-10915
形象	-10916
▁相连	-10917
64	-10918
▁夺取	-10919
▁路过	-10920
▁江铠同	-10921
生意	-10922
▁比利	-10923
▁首要	-10924
▁节约	-10925
▁喀	-10926
▁症	-10927
全力	-10928
▁钓鱼	-10929
▁大姐	-10930
▁瞎	-10931
▁不愧	-10932
▁国米	-10933
▁抵押	-10934
▁抗美援朝	-10935
▁一无	-10936
▁104	-10937
▁吉林省	-10938
▁供水	-10939
▁化身	-10940
▁大理	-10941
▁De	-10942
过去	-10943
▁不准	-10944
▁脚下	-10945
▁出动	-10946
▁邢台	-10947
▁舅	-10948
▁口岸	-10949
▁煽	-10950
▁前所未有	-10951
▁帖	-10952
▁腰部	-10953
▁绍	-10954
▁下架	-10955
▁阿根	-10956
▁助推	-10957
▁RA	-10958
▁据统计	-10959
▁两端	-10960
▁海贼	-10961
▁ha	-10962
▁收官	-10963
男篮	-10964
▁取出	-10965
▁EV	-10966
▁1985	-10967
▁年味	-10968
▁苦难	-10969
▁本报	-10970
▁主管部门	-10971
▁原先	-10972
▁工会	-10973
▁教导	-10974
▁尊敬	-10975
▁毛病	-10976
▁80.0	-10977
合物	-10978
▁畜	-10979
▁上车	-10980
▁目标价	-10981
▁堆积	-10982
▁萎	-10983
▁迭	-10984
▁he	-10985
▁何处	-10986
▁呼应	-10987
▁失控	-10988
▁QQ	-10989
▁IC	-10990
▁精美	-10991
▁炉	-10992
▁租借	-10993
▁农场	-10994
德尔	-10995
▁手套	-10996
▁生活习惯	-10997
▁抬头	-10998
▁复习	-10999
▁劳动者	-11000
▁单调	-11001
ini	-11002
▁扣除	-11003
▁一大批	-11004
控制	-11005
▁手表	-11006
▁燃气	-11007
▁班子	-11008
▁那位	-11009
▁不安	-11010
▁越大	-11011
而言之	-11012
▁相见	-11013
▁北控	-11014
▁严谨	-11015
▁一间	-11016
▁良心	-11017
▁不多	-11018
▁馒头	-11019
▁查验	-11020
▁现阶段	-11021
▁家家	-11022
既往	-11023
▁笨	-11024
▁一如既往	-11025
32	-11026
▁教堂	-11027
▁澎湃	-11028
▁彼时	-11029
▁3.7	-11030
▁完工	-11031
▁海岸	-11032
ice	-11033
▁专家组	-11034
▁棚	-11035
▁歌声	-11036
▁中说	-11037
▁老牌	-11038
▁早点	-11039
▁降雨	-11040
▁900	-11041
▁放过	-11042
▁SE	-11043
▁谴	-11044
▁看望	-11045
如意	-11046
▁家境	-11047
▁氏	-11048
▁脑袋	-11049
▁驰	-11050
▁汇聚	-11051
▁平米	-11052
▁拨打	-11053
▁女婿	-11054
▁转折	-11055
▁民进党	-11056
▁妨	-11057
▁开业	-11058
▁两会	-11059
▁宽容	-11060
▁花花	-11061
▁逍	-11062
▁瑶	-11063
▁尊严	-11064
▁蜘蛛	-11065
▁嫉	-11066
▁波尔	-11067
ack	-11068
如其	-11069
▁九龙	-11070
▁之称	-11071
人民法院	-11072
▁灰熊	-11073
▁高潮	-11074
▁金刚	-11075
▁诸如	-11076
▁下旬	-11077
▁这会	-11078
▁改成	-11079
▁经销商	-11080
▁风采	-11081
31	-11082
▁保险公司	-11083
▁弹性	-11084
▁提取	-11085
▁受访	-11086
▁CD	-11087
▁西汉	-11088
▁信托	-11089
▁无效	-11090
▁无论如何	-11091
▁阿根廷	-11092
▁集聚	-11093
▁恐龙	-11094
▁转账	-11095
遗产	-11096
▁入住	-11097
▁地板	-11098
▁生子	-11099
▁契机	-11100
▁市盈	-11101
▁百分之	-11102
▁荆州	-11103
▁沐	-11104
▁激素	-11105
▁确立	-11106
▁如期	-11107
out	-11108
▁腹部	-11109
▁市盈率	-11110
▁驾驶证	-11111
春晚	-11112
▁央视春晚	-11113
▁恶心	-11114
阵容	-11115
意外	-11116
▁要点	-11117
▁峡谷	-11118
▁勾勒	-11119
▁监护	-11120
▁争论	-11121
雷斯	-11122
▁全域	-11123
▁穆里	-11124
▁为准	-11125
▁逆袭	-11126
St	-11127
▁许可证	-11128
▁月光	-11129
▁艰辛	-11130
▁打造出	-11131
侮辱	-11132
▁淀粉	-11133
▁短发	-11134
▁勋	-11135
our	-11136
里克	-11137
▁中毒	-11138
▁守住	-11139
▁故宫	-11140
▁文献	-11141
▁浑身	-11142
▁封杀	-11143
▁流行病学	-11144
▁北风	-11145
▁开除	-11146
▁迄今	-11147
▁中是	-11148
iz	-11149
▁云南省	-11150
▁天秤座	-11151
▁来往	-11152
▁主权	-11153
▁not	-11154
▁服务器	-11155
▁高价	-11156
▁座谈	-11157
▁整洁	-11158
▁1984	-11159
▁人有	-11160
▁韩德	-11161
▁想不到	-11162
▁奶枣	-11163
▁碾压	-11164
▁务必	-11165
▁抽烟	-11166
▁暴扣	-11167
▁106	-11168
▁模范	-11169
▁门将	-11170
▁包包	-11171
▁失眠	-11172
▁外媒	-11173
▁称得上	-11174
▁两只	-11175
▁橡	-11176
▁零下	-11177
▁结尾	-11178
▁1986	-11179
▁姓氏	-11180
▁选中	-11181
▁黄奕	-11182
讲话	-11183
各地	-11184
▁扭转	-11185
▁毒品	-11186
▁换上	-11187
▁优美	-11188
不然	-11189
▁已然	-11190
▁先天	-11191
▁妃	-11192
▁前沿	-11193
▁视力	-11194
▁穆里尼奥	-11195
▁Ar	-11196
▁万达	-11197
▁弧	-11198
▁着手	-11199
▁囊	-11200
▁女团	-11201
▁外国人	-11202
▁交互	-11203
▁敞	-11204
▁业态	-11205
▁万千	-11206
▁紫色	-11207
▁没关系	-11208
▁7000	-11209
▁沙特	-11210
▁赛前	-11211
.38	-11212
▁亚历山大	-11213
▁句子	-11214
▁学费	-11215
置疑	-11216
▁展望	-11217
▁画家	-11218
出色	-11219
▁秋天	-11220
▁主观	-11221
▁迷你	-11222
▁LC	-11223
▁短缺	-11224
▁剖	-11225
▁一堆	-11226
▁华东	-11227
▁排气	-11228
▁卡尔	-11229
▁售卖	-11230
▁裙装	-11231
▁公共卫生	-11232
▁山上	-11233
红色	-11234
▁全景	-11235
▁收回	-11236
▁顿时	-11237
▁共和国	-11238
▁后世	-11239
进去	-11240
▁百亿	-11241
ON	-11242
▁哈雷尔	-11243
▁库兹马	-11244
西兰	-11245
▁动能	-11246
▁征求	-11247
▁原则上	-11248
▁双子座	-11249
▁残忍	-11250
▁兑现	-11251
▁逃跑	-11252
▁跳投	-11253
▁犯错	-11254
▁小红花	-11255
▁大湾	-11256
▁苏提	-11257
▁急需	-11258
▁西亚	-11259
▁修行	-11260
▁报该	-11261
▁项羽	-11262
▁周五	-11263
艺术	-11264
▁刘晓	-11265
▁左侧	-11266
▁敌军	-11267
▁最少	-11268
ost	-11269
▁冬日	-11270
▁阴谋	-11271
▁改动	-11272
▁打印	-11273
看来	-11274
▁徐州	-11275
▁标志性	-11276
▁重重	-11277
▁仗	-11278
▁刘诗	-11279
▁侮辱	-11280
▁四方	-11281
▁焚	-11282
▁条纹	-11283
生产	-11284
▁成龙	-11285
▁油价	-11286
▁留意	-11287
兰克	-11288
▁稀土	-11289
▁联控	-11290
▁本事	-11291
▁食堂	-11292
▁任性	-11293
▁人力资源	-11294
▁马路	-11295
▁乘车	-11296
▁维度	-11297
▁二次元	-11298
▁本国	-11299
▁没用	-11300
▁自动化	-11301
▁祎	-11302
▁堕	-11303
▁见识	-11304
▁le	-11305
▁高山	-11306
▁册	-11307
▁额度	-11308
▁985	-11309
▁赘婿	-11310
▁付费	-11311
▁再有	-11312
▁解答	-11313
包装	-11314
▁美股	-11315
▁隆冬	-11316
▁海口	-11317
▁犹太人	-11318
▁脱颖	-11319
▁八一	-11320
▁夫妻俩	-11321
▁气象台	-11322
▁徘	-11323
▁战国	-11324
▁扇	-11325
▁推翻	-11326
▁祖先	-11327
▁财报	-11328
▁骆	-11329
▁还款	-11330
▁武术	-11331
▁领涨	-11332
▁大江	-11333
▁头灯	-11334
IC	-11335
▁纺	-11336
▁连连	-11337
▁洗净	-11338
思议	-11339
▁收割	-11340
▁不可思议	-11341
▁中将	-11342
▁开辟	-11343
▁马尔	-11344
▁价位	-11345
▁al	-11346
▁胡萝卜	-11347
▁将要	-11348
▁珠宝	-11349
▁杰出	-11350
▁忍者	-11351
ink	-11352
▁接纳	-11353
▁烟台	-11354
▁寨	-11355
农业	-11356
▁业内人士	-11357
▁开幕	-11358
▁上架	-11359
▁高调	-11360
▁徘徊	-11361
▁沿线	-11362
▁攒	-11363
▁累积	-11364
▁倾斜	-11365
▁脱颖而出	-11366
▁媒	-11367
▁军衔	-11368
▁口袋	-11369
▁诊疗	-11370
▁清纯	-11371
▁胰	-11372
▁107	-11373
▁可行	-11374
▁王某	-11375
▁腐败	-11376
▁茫	-11377
满意	-11378
▁芦	-11379
山县	-11380
▁狙	-11381
▁产物	-11382
▁督查	-11383
▁四是	-11384
▁新娘	-11385
▁微软	-11386
▁施行	-11387
▁大兴	-11388
▁GL	-11389
▁张馨	-11390
▁积极性	-11391
▁灶	-11392
▁瞧	-11393
▁姥	-11394
▁谴责	-11395
olo	-11396
少数	-11397
▁无所谓	-11398
▁繁殖	-11399
▁And	-11400
▁60.0	-11401
AN	-11402
▁锡安	-11403
▁瞄准	-11404
▁膨胀	-11405
▁苏提达	-11406
▁现役	-11407
ont	-11408
▁不可否认	-11409
▁一季	-11410
▁撤退	-11411
▁理工	-11412
▁致使	-11413
▁张大	-11414
▁同龄	-11415
▁人来	-11416
地利	-11417
▁无辜	-11418
▁不用说	-11419
▁元帅	-11420
▁契合	-11421
▁亿港元	-11422
铁路	-11423
▁纠缠	-11424
▁一经	-11425
▁攻打	-11426
▁from	-11427
▁发作	-11428
▁谈论	-11429
▁饮用	-11430
▁低价	-11431
▁仓库	-11432
▁陈伟	-11433
▁饱和	-11434
▁责令	-11435
▁上传	-11436
▁平行	-11437
▁损坏	-11438
▁预案	-11439
▁更改	-11440
▁〔	-11441
▁况且	-11442
▁死去	-11443
▁不合理	-11444
氧化碳	-11445
复杂	-11446
▁常住	-11447
▁娘家	-11448
▁起伏	-11449
▁第一季	-11450
▁心头	-11451
▁雨水	-11452
.45	-11453
▁建筑物	-11454
通道	-11455
▁第一节	-11456
▁妥善	-11457
▁生机	-11458
▁赠送	-11459
蓝色	-11460
运会	-11461
▁冷却	-11462
网络	-11463
▁连锁	-11464
正常	-11465
▁〕	-11466
▁祥和	-11467
▁宋朝	-11468
▁粥	-11469
▁创作者	-11470
▁盘点	-11471
▁烘	-11472
▁小王	-11473
▁顺畅	-11474
▁北京大学	-11475
▁后半	-11476
▁难免会	-11477
▁一瞬间	-11478
▁安德	-11479
▁草案	-11480
▁特种	-11481
▁筷	-11482
▁下游	-11483
▁114	-11484
▁古装剧	-11485
▁椅	-11486
▁玩笑	-11487
▁动人	-11488
▁黄埔	-11489
▁觉醒	-11490
▁市级	-11491
▁美团	-11492
▁增量	-11493
▁集群	-11494
▁破裂	-11495
▁城里	-11496
▁来不及	-11497
之不	-11498
.09	-11499
▁李世民	-11500
▁寒潮	-11501
▁巨蟹座	-11502
▁第二年	-11503
▁意料	-11504
▁赶上	-11505
▁Gal	-11506
▁制成	-11507
因素	-11508
范围	-11509
▁TES	-11510
▁黔	-11511
▁天主	-11512
▁陪同	-11513
▁智力	-11514
▁夹克	-11515
▁秋冬	-11516
▁基建	-11517
▁假装	-11518
▁电器	-11519
▁经济学	-11520
▁坡	-11521
ame	-11522
▁太好	-11523
▁蜡	-11524
▁巡航	-11525
▁妥妥	-11526
▁氧化	-11527
▁炸弹	-11528
▁事业单位	-11529
▁属实	-11530
▁剧场	-11531
▁汹涌	-11532
▁标杆	-11533
▁约基	-11534
▁算得	-11535
▁射门	-11536
▁憨	-11537
▁今生	-11538
▁牵引	-11539
▁精确	-11540
▁颂	-11541
▁纳什	-11542
▁直辖	-11543
▁老鼠	-11544
▁唇	-11545
.96	-11546
▁平面	-11547
▁房东	-11548
▁四五	-11549
▁酒吧	-11550
▁重磅	-11551
are	-11552
▁尊贵	-11553
▁纠正	-11554
▁应付	-11555
▁高科技	-11556
监察	-11557
▁羽毛	-11558
▁对立	-11559
▁粟裕	-11560
▁念头	-11561
.93	-11562
▁修炼	-11563
sh	-11564
▁出土	-11565
▁身旁	-11566
▁主人公	-11567
▁用药	-11568
▁天真	-11569
▁战力	-11570
▁嘴巴	-11571
▁高品质	-11572
▁过高	-11573
▁上报	-11574
▁反转	-11575
▁mm	-11576
▁这三	-11577
规中	-11578
▁腰带	-11579
▁山西省	-11580
▁儇	-11581
▁第二名	-11582
▁1979	-11583
▁漳	-11584
▁影院	-11585
容量	-11586
▁趣味	-11587
▁龟	-11588
▁极了	-11589
▁时会	-11590
DR	-11591
▁彩色	-11592
▁持球	-11593
▁贵阳	-11594
▁座位	-11595
▁整天	-11596
▁出血	-11597
▁存放	-11598
▁尽头	-11599
▁菱	-11600
▁引援	-11601
▁拦截	-11602
▁打仗	-11603
▁基金会	-11604
▁前妻	-11605
▁弃养	-11606
▁越来越少	-11607
▁半岛	-11608
▁厂家	-11609
▁小火	-11610
▁齐鲁	-11611
▁寺庙	-11612
▁选出	-11613
▁吴孟	-11614
.11	-11615
▁买家	-11616
▁万万	-11617
▁嗨	-11618
▁吃亏	-11619
▁阿拉伯	-11620
▁队内	-11621
▁LG	-11622
▁亲生	-11623
▁牡丹	-11624
▁IT	-11625
▁西湖	-11626
▁185	-11627
▁奢华	-11628
▁箭	-11629
▁泪水	-11630
▁恐慌	-11631
▁同名	-11632
▁刁	-11633
▁婉	-11634
▁猝	-11635
方达	-11636
▁网约	-11637
▁看不见	-11638
▁重庆市	-11639
▁CN	-11640
▁全文	-11641
同学	-11642
▁单场	-11643
▁珊	-11644
▁打扰	-11645
▁加厚	-11646
以赴	-11647
溯源	-11648
▁取暖	-11649
总值	-11650
▁崇拜	-11651
▁全力以赴	-11652
▁生产总值	-11653
▁梵	-11654
▁品味	-11655
▁膝盖	-11656
▁炫耀	-11657
▁纪检监察	-11658
▁计较	-11659
▁喇	-11660
▁日间	-11661
▁腌制	-11662
▁併	-11663
▁误解	-11664
▁固然	-11665
▁投机	-11666
▁易方达	-11667
▁人民警察	-11668
▁不足以	-11669
▁大牌	-11670
▁吴孟达	-11671
▁党组书记	-11672
▁武侠	-11673
▁一刀	-11674
▁彩虹	-11675
▁Intern	-11676
▁瀑	-11677
▁呵护	-11678
▁亲朋	-11679
侥幸	-11680
林斯	-11681
▁为期	-11682
脾气	-11683
▁压迫	-11684
▁华南	-11685
▁拼接	-11686
▁高标准	-11687
▁小说家	-11688
父母	-11689
▁豹	-11690
色系	-11691
old	-11692
▁羊肉	-11693
▁致富	-11694
▁呕	-11695
一日	-11696
处罚	-11697
▁分工	-11698
▁天津市	-11699
▁无能	-11700
▁标本	-11701
▁内战	-11702
▁深处	-11703
▁my	-11704
▁汉族	-11705
危机	-11706
91	-11707
▁这话	-11708
▁宁德	-11709
▁决议	-11710
▁杜锋	-11711
▁骑兵	-11712
▁书面	-11713
▁爆红	-11714
▁勒布朗	-11715
▁祭祀	-11716
▁间隔	-11717
▁路易	-11718
▁隐身	-11719
▁号码	-11720
▁分割	-11721
▁内置	-11722
▁哑	-11723
▁4.2	-11724
▁张子	-11725
▁功劳	-11726
▁俘虏	-11727
▁公孙	-11728
▁破解	-11729
▁素养	-11730
▁意想	-11731
▁肉类	-11732
▁1970	-11733
▁隶属	-11734
▁211	-11735
▁第二位	-11736
漂亮	-11737
▁代表作	-11738
男孩	-11739
▁穷人	-11740
▁浸泡	-11741
▁温泉	-11742
▁少数民族	-11743
▁军长	-11744
▁功臣	-11745
▁反感	-11746
规中矩	-11747
▁103	-11748
▁中规中矩	-11749
飞机	-11750
▁持久	-11751
队伍	-11752
▁高性能	-11753
▁攻坚战	-11754
稳定	-11755
▁批判	-11756
▁两点	-11757
▁打底	-11758
67	-11759
▁懂事	-11760
▁找个	-11761
▁徐坤	-11762
阳县	-11763
.18	-11764
▁280	-11765
▁周传	-11766
▁陨	-11767
▁星光	-11768
减少	-11769
感染	-11770
▁皮大衣	-11771
世界大战	-11772
▁院子	-11773
▁苏轼	-11774
▁监管部门	-11775
打击	-11776
▁对战	-11777
▁皮质	-11778
▁鞠婧	-11779
.92	-11780
▁一审	-11781
胞胎	-11782
▁精湛	-11783
TA	-11784
▁窦	-11785
▁获利	-11786
▁并不多	-11787
▁小鱼	-11788
▁韵味	-11789
▁排列	-11790
▁验收	-11791
▁哈里	-11792
▁时节	-11793
▁柏林	-11794
▁小学生	-11795
▁北极	-11796
▁数额	-11797
▁借此	-11798
▁孝顺	-11799
▁留下来	-11800
▁三款	-11801
▁年份	-11802
▁重伤	-11803
▁精灵	-11804
.49	-11805
▁伸出	-11806
▁对照	-11807
▁剧烈	-11808
▁民宿	-11809
▁尽显	-11810
▁阜	-11811
▁经济体	-11812
▁Un	-11813
▁站点	-11814
▁白菜	-11815
▁色系	-11816
▁属地	-11817
▁寄托	-11818
▁标注	-11819
▁端庄	-11820
▁四周	-11821
▁周传雄	-11822
▁老伴	-11823
▁歌舞	-11824
▁罐	-11825
▁死者	-11826
▁弓	-11827
▁实力派	-11828
▁筋	-11829
▁丙	-11830
▁大鹏	-11831
▁沉迷	-11832
▁如意	-11833
▁挑衅	-11834
▁赞美	-11835
▁至上	-11836
▁压岁	-11837
▁近视	-11838
▁宅基地	-11839
▁de	-11840
▁半身裙	-11841
▁1982	-11842
▁兴建	-11843
▁同框	-11844
▁朴素	-11845
▁可观	-11846
▁猴子	-11847
▁轰下	-11848
▁克莱	-11849
▁中投	-11850
▁牵头	-11851
▁循	-11852
▁为民	-11853
▁预报	-11854
▁单曲	-11855
▁一来	-11856
▁入围	-11857
▁泄露	-11858
▁意想不到	-11859
▁此人	-11860
▁原告	-11861
▁生产线	-11862
▁三点	-11863
▁原名	-11864
▁太极	-11865
▁理所	-11866
▁夕阳	-11867
▁无视	-11868
▁一记	-11869
▁潜艇	-11870
▁一言	-11871
▁愉悦	-11872
▁独有	-11873
▁域	-11874
▁投射	-11875
▁攻略	-11876
▁通话	-11877
奶奶	-11878
▁下半身	-11879
▁研究员	-11880
▁光学	-11881
▁小将	-11882
▁编号	-11883
▁发了	-11884
▁堵塞	-11885
▁引用	-11886
.01	-11887
▁全能	-11888
▁榆	-11889
▁前去	-11890
▁这波	-11891
ME	-11892
▁分公司	-11893
▁造谣	-11894
生子	-11895
▁群里	-11896
▁噩	-11897
▁琉璃	-11898
▁跑车	-11899
▁月经	-11900
▁美好生活	-11901
▁高强	-11902
▁突如其	-11903
▁常说	-11904
▁壮大	-11905
▁乍	-11906
▁降临	-11907
▁作案	-11908
▁突如其来	-11909
▁爱豆	-11910
▁公积	-11911
▁好几个	-11912
▁102	-11913
▁首付	-11914
▁筷子	-11915
▁主编	-11916
▁导语	-11917
▁旅游业	-11918
▁樱花	-11919
▁航线	-11920
▁周岁	-11921
▁交汇	-11922
▁减速	-11923
▁耀眼	-11924
▁前十	-11925
▁–	-11926
▁体能	-11927
▁立下	-11928
▁马克思	-11929
▁监管局	-11930
▁凡事	-11931
.94	-11932
▁元气	-11933
▁an	-11934
▁外貌	-11935
▁实事	-11936
.08	-11937
效率	-11938
▁巷	-11939
▁前场	-11940
▁韩德君	-11941
▁直径	-11942
▁水库	-11943
.78	-11944
▁跻	-11945
▁辉瑞	-11946
▁就行了	-11947
ict	-11948
▁悬浮	-11949
▁业界	-11950
▁那场	-11951
▁颁发	-11952
▁去过	-11953
▁渝	-11954
▁韶	-11955
▁文人	-11956
▁学到	-11957
▁趴	-11958
帝国	-11959
ows	-11960
▁毋庸	-11961
▁车队	-11962
▁本案	-11963
▁公共场所	-11964
▁昂贵	-11965
阶级	-11966
▁共鸣	-11967
▁廉价	-11968
▁家门口	-11969
半岛	-11970
▁翼	-11971
▁高尔	-11972
MA	-11973
▁贵州省	-11974
▁信贷	-11975
▁上诉	-11976
切尔	-11977
▁杀伤	-11978
▁受限	-11979
▁服从	-11980
▁诱发	-11981
▁副局长	-11982
建筑	-11983
普森	-11984
▁万亩	-11985
▁多点	-11986
▁北海	-11987
▁台积	-11988
▁无私	-11989
▁侦察	-11990
▁女人味	-11991
不胜	-11992
▁灵动	-11993
▁商户	-11994
▁陈某	-11995
▁敬业	-11996
▁键盘	-11997
▁车厢	-11998
▁早前	-11999
▁240	-12000
▁辽宁省	-12001
▁sh	-12002
▁大关	-12003
▁示威	-12004
▁班级	-12005
▁地狱	-12006
▁星系	-12007
▁溃	-12008
▁好玩	-12009
▁考量	-12010
▁昂山	-12011
▁在我	-12012
OG	-12013
▁鲍尔	-12014
▁一斤	-12015
.07	-12016
oy	-12017
▁空白	-12018
▁造就	-12019
▁沈阳市	-12020
卫视	-12021
▁交谈	-12022
▁五星	-12023
▁─	-12024
▁一个多	-12025
▁药店	-12026
▁富国	-12027
▁亿人	-12028
▁定居	-12029
▁双腿	-12030
▁任正	-12031
▁四位	-12032
▁必究	-12033
▁利落	-12034
▁捂	-12035
▁纱	-12036
美岐	-12037
▁中途	-12038
▁店里	-12039
▁买单	-12040
▁走到	-12041
.75	-12042
▁扬州	-12043
▁最先	-12044
▁PD	-12045
▁打扫	-12046
▁顺便	-12047
无愧	-12048
▁cn	-12049
▁柴油	-12050
▁室外	-12051
▁坟	-12052
▁粪	-12053
▁心酸	-12054
▁军区	-12055
▁截然	-12056
华德	-12057
▁金山	-12058
▁积蓄	-12059
保持	-12060
▁周琦	-12061
IS	-12062
▁压岁钱	-12063
▁索尼	-12064
▁蕾	-12065
▁1983	-12066
▁无尽	-12067
不断	-12068
▁下达	-12069
▁化名	-12070
▁一再	-12071
▁温州	-12072
▁高光	-12073
▁函数	-12074
▁料酒	-12075
▁膳	-12076
▁节后	-12077
▁电影院	-12078
▁叶片	-12079
▁are	-12080
▁小盘	-12081
▁按规定	-12082
▁汕	-12083
▁安宁	-12084
▁最深	-12085
▁铅	-12086
▁大米	-12087
▁国军	-12088
▁嬴	-12089
▁7.5	-12090
▁醋	-12091
▁柔和	-12092
▁赵云	-12093
▁经营者	-12094
▁轨道交通	-12095
▁骨干	-12096
▁入户	-12097
▁打架	-12098
事实	-12099
▁投身	-12100
▁侵害	-12101
▁泊	-12102
▁决战	-12103
▁塞尔维亚	-12104
▁斯大	-12105
▁任正非	-12106
▁加州	-12107
▁4.3	-12108
▁芒果	-12109
▁琐	-12110
▁出面	-12111
▁师父	-12112
▁亚冠	-12113
▁不信	-12114
▁小吃	-12115
▁非凡	-12116
▁显示屏	-12117
▁嫉妒	-12118
▁氨	-12119
▁车灯	-12120
▁失落	-12121
▁后宫	-12122
▁亚军	-12123
▁一艘	-12124
▁斯大林	-12125
▁环球网	-12126
▁钱包	-12127
▁导读	-12128
.15	-12129
▁参照	-12130
▁格里	-12131
▁童话	-12132
▁参保	-12133
▁棉衣	-12134
▁布拉	-12135
▁探测器	-12136
▁盾	-12137
▁就餐	-12138
▁张馨予	-12139
BO	-12140
▁刚才	-12141
▁109	-12142
▁消防安全	-12143
▁目录	-12144
▁行政处罚	-12145
▁卖掉	-12146
▁不甘	-12147
▁调动	-12148
▁风水	-12149
▁饱受	-12150
▁骗子	-12151
认为	-12152
▁两件	-12153
▁长子	-12154
▁剪辑	-12155
▁千亿	-12156
▁抢眼	-12157
▁八个	-12158
▁翅膀	-12159
▁送往	-12160
▁眷	-12161
▁会长	-12162
▁此处	-12163
▁福克斯	-12164
▁嘉实	-12165
ick	-12166
▁填写	-12167
▁保住	-12168
▁显卡	-12169
▁八年	-12170
▁人际关系	-12171
▁中断	-12172
▁数值	-12173
▁指向	-12174
▁当地人	-12175
▁组成部分	-12176
▁隐形	-12177
▁理事	-12178
▁和解	-12179
▁头衔	-12180
▁吟	-12181
▁宽度	-12182
▁财物	-12183
联系	-12184
▁擅自	-12185
一样	-12186
▁世界各地	-12187
▁轮廓	-12188
▁减弱	-12189
▁真皮	-12190
▁俗称	-12191
▁皇室	-12192
植物	-12193
▁大蒜	-12194
▁cp	-12195
▁毋庸置疑	-12196
▁光绪	-12197
▁背部	-12198
▁按键	-12199
▁公积金	-12200
▁小姑娘	-12201
▁新西兰	-12202
37	-12203
.67	-12204
投资	-12205
议员	-12206
▁新生儿	-12207
▁全中	-12208
▁男孩子	-12209
▁拾	-12210
▁力气	-12211
▁天府	-12212
▁日出	-12213
▁水电	-12214
▁捕捉	-12215
▁未曾	-12216
▁大好	-12217
▁班主任	-12218
▁熟练	-12219
▁议论	-12220
▁嵌	-12221
▁特质	-12222
▁甲状	-12223
▁判定	-12224
▁二十年	-12225
▁人权	-12226
▁考入	-12227
▁外贸	-12228
医生	-12229
▁谎言	-12230
▁无穷	-12231
▁梦里	-12232
▁环绕	-12233
▁孵	-12234
▁后场	-12235
▁杆	-12236
▁宜居	-12237
▁动荡	-12238
▁领衔	-12239
假日	-12240
▁淡淡	-12241
▁真理	-12242
▁两连	-12243
▁火花	-12244
▁十月	-12245
▁1955	-12246
开始	-12247
▁中长	-12248
▁四人	-12249
▁深知	-12250
▁几分钟	-12251
▁小伙子	-12252
▁绿地	-12253
▁王菲	-12254
▁降到	-12255
▁奶粉	-12256
▁时装	-12257
▁闭环	-12258
▁少林	-12259
▁鲁能	-12260
▁哺乳	-12261
▁如愿	-12262
▁左手	-12263
▁从头	-12264
▁出让	-12265
▁退市	-12266
解放	-12267
▁产后	-12268
▁住宿	-12269
▁刺客	-12270
▁参考资料	-12271
▁五花	-12272
▁Cl	-12273
▁旗袍	-12274
▁盛世	-12275
▁越过	-12276
▁下图	-12277
▁分辨率	-12278
▁来回	-12279
艺人	-12280
▁激进	-12281
▁顺风	-12282
▁寻常	-12283
橄榄	-12284
▁宽敞	-12285
▁亲手	-12286
▁悔	-12287
▁旅途	-12288
▁栖息	-12289
▁法则	-12290
▁江西省	-12291
▁睁	-12292
▁五行	-12293
▁霍华德	-12294
▁鳄	-12295
▁风味	-12296
▁孟美岐	-12297
▁未婚	-12298
▁好坏	-12299
特尔	-12300
▁蚝	-12301
▁风吹	-12302
▁写字	-12303
感谢	-12304
iss	-12305
▁南风	-12306
▁充当	-12307
▁圣诞	-12308
▁徽	-12309
▁百公里	-12310
▁闷	-12311
▁该片	-12312
▁选购	-12313
▁戴着	-12314
▁在校	-12315
▁按钮	-12316
▁淮南	-12317
▁诡	-12318
▁华安	-12319
▁不予	-12320
▁警务	-12321
▁原子弹	-12322
62	-12323
▁碑	-12324
▁有色	-12325
▁许世	-12326
病例	-12327
▁俄国	-12328
▁疑似病例	-12329
▁涌现	-12330
▁人潮	-12331
▁上前	-12332
▁栏目	-12333
▁好比	-12334
▁摄影师	-12335
▁近两	-12336
▁报备	-12337
▁运送	-12338
▁咏	-12339
▁融化	-12340
▁老爷	-12341
▁肢	-12342
佳节	-12343
▁成品	-12344
▁刘某	-12345
▁列表	-12346
▁患病	-12347
▁若有	-12348
▁斩获	-12349
▁泉州	-12350
▁西蒙斯	-12351
▁折腾	-12352
▁迷惑	-12353
▁135	-12354
▁性命	-12355
▁跟进	-12356
▁苛	-12357
▁长款	-12358
▁陈伟霆	-12359
▁弱点	-12360
▁这番	-12361
▁MA	-12362
▁UP	-12363
▁快要	-12364
▁类别	-12365
科学院	-12366
▁歇	-12367
▁高居	-12368
▁存活	-12369
▁鱼类	-12370
▁2500	-12371
▁甲状腺	-12372
▁轮回	-12373
▁市政	-12374
▁红楼	-12375
▁奢侈品	-12376
▁车位	-12377
▁护肤	-12378
▁七个	-12379
▁发达国家	-12380
▁瑕	-12381
▁落到	-12382
▁时间段	-12383
▁张某	-12384
认识	-12385
选择	-12386
▁万亿美元	-12387
▁脚踏	-12388
▁总督	-12389
▁发扬	-12390
▁260	-12391
▁十个	-12392
ib	-12393
▁囚	-12394
▁濒	-12395
政治	-12396
▁爱意	-12397
▁上行	-12398
▁小家	-12399
▁橄榄	-12400
▁周深	-12401
洗手	-12402
▁合体	-12403
▁增收	-12404
识别	-12405
ex	-12406
.02	-12407
▁很多年	-12408
▁万个	-12409
▁广厦	-12410
▁两千	-12411
▁优选	-12412
▁余年	-12413
▁总面积	-12414
▁用人单位	-12415
▁最让人	-12416
▁升至	-12417
▁学期	-12418
▁这部分	-12419
▁几何	-12420
▁奥尼尔	-12421
▁交锋	-12422
▁高额	-12423
▁陷阱	-12424
教师	-12425
▁略显	-12426
▁这下	-12427
▁尘埃	-12428
▁养育	-12429
师范	-12430
▁胚	-12431
▁囤	-12432
▁在位	-12433
▁田园	-12434
▁不经	-12435
▁look	-12436
▁五中全会	-12437
▁低谷	-12438
▁移交	-12439
▁通往	-12440
▁庐	-12441
▁人到	-12442
▁日系	-12443
▁迷失	-12444
▁老太太	-12445
▁羁	-12446
▁收录	-12447
之路	-12448
辐式	-12449
▁轻微	-12450
商务	-12451
▁豪车	-12452
有力	-12453
▁想来	-12454
需求	-12455
.65	-12456
▁塞克斯	-12457
▁走来	-12458
▁爱德华	-12459
▁演化	-12460
▁寒冬	-12461
▁Mac	-12462
▁劝说	-12463
▁忠实	-12464
▁繁忙	-12465
▁灭绝	-12466
▁胜负	-12467
中山	-12468
▁重启	-12469
▁百花	-12470
▁之路	-12471
▁责任编辑	-12472
▁二字	-12473
▁下沉	-12474
▁围观	-12475
不说	-12476
▁年终奖	-12477
▁升温	-12478
▁家常	-12479
ee	-12480
▁搁	-12481
▁吃瓜	-12482
▁伽	-12483
▁熔	-12484
▁收紧	-12485
▁重用	-12486
▁水花	-12487
▁参与者	-12488
▁便于	-12489
▁司令员	-12490
▁残疾人	-12491
▁清代	-12492
▁李嘉诚	-12493
▁恶魔	-12494
▁滕	-12495
▁姬	-12496
▁严格执行	-12497
▁偿还	-12498
明显	-12499
▁强者	-12500
▁非常明显	-12501
▁挪威	-12502
44	-12503
▁时报	-12504
▁姆巴	-12505
▁搬运	-12506
战役	-12507
▁溯源	-12508
▁1960	-12509
▁作文	-12510
▁造假	-12511
▁不久前	-12512
▁新规	-12513
▁扫描	-12514
ix	-12515
▁中小企业	-12516
▁打磨	-12517
▁人世	-12518
▁节假日	-12519
▁肾脏	-12520
▁浇水	-12521
▁万台	-12522
.44	-12523
lus	-12524
▁专心	-12525
无二	-12526
结果	-12527
用户	-12528
霆锋	-12529
▁Go	-12530
▁四分	-12531
▁张雨	-12532
▁领跑	-12533
▁奈何	-12534
▁达标	-12535
▁第二阶段	-12536
▁串联	-12537
▁越高	-12538
▁台阶	-12539
▁上次	-12540
▁硫	-12541
▁指望	-12542
▁过硬	-12543
▁谢霆锋	-12544
▁加成	-12545
▁唐代	-12546
有名	-12547
▁留住	-12548
▁综上	-12549
▁筛选	-12550
▁配饰	-12551
▁夯	-12552
▁波音	-12553
▁加深	-12554
▁圆形	-12555
▁科学技术	-12556
▁多半	-12557
▁直辖市	-12558
安县	-12559
▁建党	-12560
▁王妃	-12561
▁溺	-12562
▁北宋	-12563
▁足足	-12564
▁被捕	-12565
▁听见	-12566
▁参议院	-12567
▁1981	-12568
▁同盟	-12569
▁齐全	-12570
▁以南	-12571
▁教室	-12572
▁多部	-12573
▁好不好	-12574
▁1978	-12575
▁站位	-12576
▁三代	-12577
▁急救	-12578
▁排水	-12579
▁沃克	-12580
.47	-12581
之以	-12582
经验	-12583
▁品尝	-12584
▁壳	-12585
63	-12586
▁马甲	-12587
▁三百	-12588
▁丢掉	-12589
▁见过	-12590
暧昧	-12591
▁鸟类	-12592
▁受害人	-12593
▁热衷	-12594
PI	-12595
▁感悟	-12596
其实	-12597
音乐	-12598
▁出局	-12599
▁跻身	-12600
▁大唐	-12601
▁这档	-12602
▁刑法	-12603
▁安康	-12604
mA	-12605
▁防寒	-12606
▁追随	-12607
▁就近	-12608
▁袁世	-12609
▁了不起	-12610
▁太久	-12611
▁值守	-12612
▁花椒	-12613
▁些许	-12614
▁下列	-12615
▁用品	-12616
丰富	-12617
▁一分钟	-12618
▁滇	-12619
姐妹	-12620
▁远景	-12621
▁医师	-12622
▁啃	-12623
▁拭目	-12624
▁邮政	-12625
▁潍	-12626
▁这辈子	-12627
而上	-12628
▁名下	-12629
▁子孙	-12630
▁波斯	-12631
▁躲避	-12632
▁冬奥会	-12633
▁真爱	-12634
▁丫	-12635
▁南极	-12636
▁眼下	-12637
▁40.0	-12638
.29	-12639
▁哇	-12640
▁町	-12641
▁步步	-12642
▁景色	-12643
▁签字	-12644
▁喝水	-12645
▁后天	-12646
▁昨晚	-12647
▁220	-12648
莱坞	-12649
.91	-12650
▁宾馆	-12651
▁几场	-12652
▁根源	-12653
功率	-12654
alme	-12655
▁第一场	-12656
▁中卫	-12657
▁勤洗手	-12658
▁脱口	-12659
▁树木	-12660
▁掩护	-12661
▁宝藏	-12662
▁洲	-12663
▁盃	-12664
趋势	-12665
▁实则	-12666
索尔	-12667
看出	-12668
▁不难看出	-12669
▁后置	-12670
▁火山	-12671
▁下周	-12672
▁套餐	-12673
▁客车	-12674
▁渤	-12675
▁DY	-12676
▁隔壁	-12677
▁小觑	-12678
▁事先	-12679
▁船舶	-12680
▁金黄	-12681
▁养老保险	-12682
▁坚信	-12683
▁墙面	-12684
▁开盘	-12685
▁星空	-12686
▁瑜伽	-12687
元素	-12688
▁任期	-12689
▁歧视	-12690
▁中新	-12691
多次	-12692
▁合规	-12693
▁画风	-12694
▁2023	-12695
▁不好意思	-12696
▁出具	-12697
▁不解	-12698
贸市场	-12699
▁that	-12700
▁惜	-12701
▁下路	-12702
▁竣	-12703
▁该校	-12704
▁用料	-12705
▁综合性	-12706
▁悟	-12707
▁横向	-12708
▁汗水	-12709
▁察觉	-12710
▁袁世凯	-12711
▁指纹	-12712
▁千米	-12713
▁事迹	-12714
班人	-12715
层次	-12716
▁尽早	-12717
▁下一代	-12718
蘑菇	-12719
▁神圣	-12720
▁PLUS	-12721
▁咒	-12722
▁四次	-12723
▁哭泣	-12724
▁旗帜	-12725
▁杜绝	-12726
▁加索尔	-12727
▁武器装备	-12728
▁街上	-12729
RE	-12730
▁赛车	-12731
▁游击	-12732
▁容貌	-12733
一体	-12734
▁政客	-12735
▁拭目以待	-12736
▁第一款	-12737
▁骑士队	-12738
▁上阳	-12739
▁美学	-12740
▁半小时	-12741
▁邓超	-12742
▁详情	-12743
▁靖	-12744
▁彬	-12745
▁辗	-12746
▁针织衫	-12747
.62	-12748
▁几句	-12749
▁干什么	-12750
▁晚期	-12751
▁热心	-12752
▁大名	-12753
▁孙权	-12754
▁中美关系	-12755
▁通勤	-12756
▁别看	-12757
▁奇妙	-12758
▁偏见	-12759
ml	-12760
上下	-12761
▁照明	-12762
师范大学	-12763
▁责任感	-12764
▁环境保护	-12765
ime	-12766
▁117	-12767
▁迫使	-12768
▁冻结	-12769
作物	-12770
▁远超	-12771
▁全局	-12772
▁之意	-12773
胜利	-12774
▁外交部	-12775
▁一键	-12776
▁写出	-12777
▁找出	-12778
▁多重	-12779
▁怪物	-12780
▁轻薄	-12781
▁楚国	-12782
▁颓	-12783
▁不可避免	-12784
▁近光灯	-12785
▁一节	-12786
▁人民代表大会	-12787
▁男演员	-12788
▁河道	-12789
▁岛屿	-12790
▁有权	-12791
▁说白	-12792
▁管制	-12793
▁重要讲话	-12794
▁不差	-12795
▁自助	-12796
▁署	-12797
▁捐款	-12798
.14	-12799
▁初衷	-12800
▁雪花	-12801
文学	-12802
▁英勇	-12803
▁下辖	-12804
身材	-12805
▁病逝	-12806
▁电台	-12807
▁浓浓的	-12808
ome	-12809
▁FM	-12810
▁尿酸	-12811
.43	-12812
▁孙中山	-12813
▁做生意	-12814
▁荧幕	-12815
▁医务人员	-12816
▁伺	-12817
▁冉	-12818
▁检察官	-12819
显示	-12820
▁暗恋	-12821
▁做个	-12822
▁神器	-12823
▁多方面	-12824
▁网约车	-12825
▁赢下	-12826
▁保值	-12827
▁现今	-12828
▁陈小	-12829
.46	-12830
▁次日	-12831
▁置业	-12832
▁甜甜	-12833
▁改正	-12834
▁野外	-12835
▁北约	-12836
▁西瓜	-12837
▁嗓	-12838
▁和尚	-12839
oh	-12840
▁见解	-12841
▁臃	-12842
操作	-12843
▁说白了	-12844
▁膳食	-12845
▁航空公司	-12846
德斯	-12847
▁环卫	-12848
▁总计	-12849
图斯	-12850
▁长途	-12851
▁三五	-12852
▁下行	-12853
▁安稳	-12854
▁二维	-12855
▁商业银行	-12856
▁揽	-12857
布斯	-12858
▁亚太	-12859
▁移植	-12860
▁换句	-12861
▁偏爱	-12862
▁臃肿	-12863
▁锦标	-12864
环节	-12865
▁柠	-12866
▁天玑	-12867
▁错峰	-12868
▁固态	-12869
捍卫	-12870
▁梁山	-12871
▁链条	-12872
▁干活	-12873
▁出示	-12874
▁ch	-12875
▁湖南卫视	-12876
▁张作	-12877
▁追赶	-12878
遵守	-12879
▁冷战	-12880
▁归属于	-12881
不来	-12882
马斯	-12883
▁哈尔滨市	-12884
▁流泪	-12885
以后	-12886
▁转入	-12887
▁骨骼	-12888
▁一二	-12889
▁惨败	-12890
▁离家	-12891
▁面貌	-12892
▁席位	-12893
▁诏	-12894
▁最受	-12895
▁高清	-12896
▁虹	-12897
▁黄昏	-12898
▁分区	-12899
▁听从	-12900
▁抓捕	-12901
自治	-12902
▁配件	-12903
▁金银	-12904
▁白糖	-12905
▁大大的	-12906
▁中国男篮	-12907
▁个人信息	-12908
▁有多	-12909
▁嫂	-12910
.39	-12911
▁马拉	-12912
▁可不	-12913
▁揭开	-12914
▁昼	-12915
▁殿堂	-12916
塞尔	-12917
▁病变	-12918
▁身亡	-12919
▁名列	-12920
▁can	-12921
▁淹	-12922
▁米切尔	-12923
▁弱势	-12924
▁皇上	-12925
▁购车	-12926
▁我能	-12927
▁回事	-12928
▁惧	-12929
▁下发	-12930
▁半决赛	-12931
▁盘中	-12932
▁换句话说	-12933
▁火影	-12934
党员	-12935
▁肺部	-12936
▁你家	-12937
▁私家	-12938
▁大王	-12939
▁城中	-12940
.34	-12941
▁高新技术	-12942
▁尤文图斯	-12943
▁弊	-12944
▁现已	-12945
▁看病	-12946
▁对线	-12947
▁无一	-12948
▁竣工	-12949
.69	-12950
▁柬	-12951
▁房源	-12952
▁镶	-12953
▁薇	-12954
▁阻击	-12955
▁驳	-12956
axy	-12957
▁侵删	-12958
▁年龄段	-12959
上涨	-12960
解决	-12961
▁亲友	-12962
▁汉语	-12963
▁朱婷	-12964
参与	-12965
同志	-12966
▁废弃	-12967
.19	-12968
▁深远	-12969
▁BL	-12970
▁122	-12971
▁霸道	-12972
▁噪音	-12973
▁总台	-12974
▁国立	-12975
▁秋季	-12976
▁流转	-12977
.79	-12978
▁氧气	-12979
▁捆	-12980
▁心爱	-12981
▁入场	-12982
▁牠	-12983
▁日夜	-12984
▁五六	-12985
72	-12986
▁这般	-12987
▁格纹	-12988
▁有所不同	-12989
兰达	-12990
▁二首	-12991
▁怪兽	-12992
▁六七	-12993
▁内阁	-12994
▁精华	-12995
mAh	-12996
ank	-12997
▁之王	-12998
▁微博上	-12999
▁比比	-13000
▁王思	-13001
▁细化	-13002
▁分支	-13003
▁词汇	-13004
▁戚	-13005
▁西班牙人	-13006
▁集装	-13007
▁一季度	-13008
▁狙击	-13009
▁冲击力	-13010
▁不便	-13011
▁高颜值	-13012
▁桂林	-13013
▁该股	-13014
▁全天	-13015
▁替换	-13016
▁天主教	-13017
▁劈	-13018
手段	-13019
▁惠民	-13020
▁国道	-13021
▁亲属	-13022
▁蘑菇	-13023
▁走廊	-13024
▁制止	-13025
▁剥夺	-13026
▁工信	-13027
▁下手	-13028
▁没过	-13029
▁耐看	-13030
▁年时	-13031
▁谈及	-13032
▁音频	-13033
▁富含	-13034
▁愧	-13035
▁第三代	-13036
▁荡	-13037
▁丰厚	-13038
▁交通安全	-13039
▁追平	-13040
▁港澳	-13041
▁安保	-13042
▁遮挡	-13043
▁甘心	-13044
▁稳固	-13045
▁作息	-13046
▁废除	-13047
▁国际化	-13048
▁Am	-13049
▁姚明	-13050
▁黎明	-13051
▁119	-13052
▁许世友	-13053
▁公关	-13054
▁原文	-13055
▁生命安全	-13056
▁周总理	-13057
▁俏皮	-13058
▁工作日	-13059
▁启发	-13060
▁什	-13061
▁颁布	-13062
EC	-13063
▁美媒	-13064
▁壹	-13065
▁晾	-13066
▁宋运	-13067
▁用水	-13068
▁谁知	-13069
▁天花板	-13070
▁全职	-13071
▁迎合	-13072
▁新年快乐	-13073
▁Face	-13074
▁自来	-13075
▁用作	-13076
科院	-13077
▁暧昧	-13078
▁自制	-13079
▁跟上	-13080
▁重整	-13081
▁热潮	-13082
▁迭代	-13083
▁有益	-13084
▁近年	-13085
▁奔赴	-13086
▁得意	-13087
▁枫	-13088
.35	-13089
▁接手	-13090
▁开支	-13091
▁占地面积	-13092
86	-13093
▁自拍	-13094
▁本市	-13095
▁武力	-13096
▁等候	-13097
▁杠杆	-13098
▁市场监管	-13099
▁绚	-13100
▁预定	-13101
▁疼爱	-13102
▁集装箱	-13103
▁可圈	-13104
▁执法人员	-13105
人才	-13106
▁文化遗产	-13107
▁诛	-13108
▁迪士	-13109
▁苏格兰	-13110
.06	-13111
▁露面	-13112
▁汽车行业	-13113
▁党内	-13114
▁步枪	-13115
名单	-13116
▁外星人	-13117
▁大肆	-13118
▁近些年	-13119
可点	-13120
▁伞	-13121
.89	-13122
▁两周	-13123
▁楼梯	-13124
▁幸好	-13125
▁心血管	-13126
▁一无所	-13127
▁双胞胎	-13128
▁迪士尼	-13129
▁〉	-13130
▁人缘	-13131
ond	-13132
▁长裤	-13133
▁一字	-13134
▁西风	-13135
方法	-13136
冲突	-13137
▁重型	-13138
▁西游记	-13139
71	-13140
▁可圈可点	-13141
▁霸主	-13142
▁右手	-13143
▁独一	-13144
▁乳腺	-13145
▁农家	-13146
▁辗转	-13147
▁五百	-13148
▁该机	-13149
▁即便如此	-13150
▁赞助	-13151
▁决胜	-13152
▁节能	-13153
▁印军	-13154
▁士气	-13155
▁好莱坞	-13156
▁雷克萨斯	-13157
▁Galaxy	-13158
特兰	-13159
▁红星	-13160
▁礼仪	-13161
▁富人	-13162
▁干嘛	-13163
▁辟谣	-13164
▁多一些	-13165
财产	-13166
▁便秘	-13167
▁监督管理	-13168
▁所作	-13169
▁骤	-13170
▁违纪	-13171
▁之子	-13172
▁京报	-13173
▁代工	-13174
▁言行	-13175
▁每位	-13176
DA	-13177
▁基督教	-13178
▁代步	-13179
▁光照	-13180
▁水质	-13181
▁自尊	-13182
▁风衣	-13183
▁满分	-13184
▁不减	-13185
▁观音	-13186
▁113	-13187
.24	-13188
▁五千	-13189
▁分红	-13190
▁太难	-13191
▁礼貌	-13192
▁三连	-13193
绿色	-13194
▁贡	-13195
▁名副	-13196
▁荔	-13197
▁名副其实	-13198
▁排位	-13199
▁阿联	-13200
▁新春佳节	-13201
▁过滤	-13202
▁殊不知	-13203
▁毒素	-13204
大队	-13205
试验	-13206
▁深色	-13207
▁兼职	-13208
▁恍	-13209
▁通胀	-13210
▁去除	-13211
PU	-13212
▁脚踝	-13213
▁黑洞	-13214
▁修长	-13215
▁绑架	-13216
▁课题	-13217
▁之作	-13218
▁充电器	-13219
▁长宽	-13220
▁北伐	-13221
▁如实	-13222
▁振幅	-13223
而然	-13224
▁党员干部	-13225
▁陈情	-13226
BS	-13227
▁人脸	-13228
▁惩戒	-13229
▁前卫	-13230
▁只得	-13231
▁薪水	-13232
▁回首	-13233
▁匪	-13234
克力	-13235
▁除去	-13236
▁光刻	-13237
▁唤醒	-13238
▁一整	-13239
▁勇于	-13240
▁自然而然	-13241
▁with	-13242
▁安抚	-13243
▁触摸	-13244
▁边防	-13245
▁根据地	-13246
▁序列	-13247
▁消极	-13248
▁进场	-13249
▁圆润	-13250
▁汤普森	-13251
▁周迅	-13252
▁陈晓	-13253
▁真实性	-13254
▁简介	-13255
▁务实	-13256
▁对峙	-13257
空军	-13258
.85	-13259
▁KPL	-13260
▁恒星	-13261
▁雁	-13262
▁皇子	-13263
▁掠	-13264
▁出版社	-13265
▁太后	-13266
▁学子	-13267
▁万分	-13268
▁压实	-13269
▁愣	-13270
.16	-13271
▁小天	-13272
▁法律责任	-13273
▁聊天记录	-13274
▁招募	-13275
▁军阀	-13276
▁录像	-13277
▁骨头	-13278
▁侨	-13279
准备	-13280
▁输送	-13281
▁转眼	-13282
公安	-13283
▁军舰	-13284
▁不经意	-13285
▁主题曲	-13286
▁脸型	-13287
▁比不上	-13288
▁三名	-13289
▁百搭	-13290
▁浪潮	-13291
存在	-13292
▁菠	-13293
▁大山	-13294
▁结冰	-13295
▁宁毅	-13296
▁感人	-13297
▁迫切	-13298
▁事实证明	-13299
▁多月	-13300
▁崭新	-13301
好友	-13302
▁野战	-13303
▁刻画	-13304
▁签证	-13305
▁太阳系	-13306
▁公立	-13307
▁卖家	-13308
▁维奇	-13309
▁威廉姆斯	-13310
▁鲸	-13311
▁前夫	-13312
▁不敌	-13313
▁晴天	-13314
▁拥挤	-13315
▁叛逆	-13316
▁奇才队	-13317
▁格力	-13318
▁捍卫	-13319
▁饲料	-13320
▁上半身	-13321
▁小幅	-13322
▁全球化	-13323
▁琳	-13324
▁大卫	-13325
▁刚出	-13326
▁点球	-13327
▁总而言之	-13328
▁滨海	-13329
▁门外	-13330
▁极力	-13331
▁格式	-13332
▁一不	-13333
▁证件	-13334
▁三世	-13335
▁同等	-13336
▁大河	-13337
▁弹药	-13338
▁货币政策	-13339
更新	-13340
▁工作岗位	-13341
▁副总裁	-13342
▁奋战	-13343
▁那句	-13344
▁亚当	-13345
▁登顶	-13346
▁主机	-13347
▁酒后	-13348
黛玉	-13349
▁哈德森	-13350
ero	-13351
▁次年	-13352
▁南通	-13353
▁合唱	-13354
EL	-13355
.13	-13356
▁商城	-13357
▁禁令	-13358
▁段子	-13359
▁受众	-13360
▁喊话	-13361
▁夸赞	-13362
▁嗅	-13363
▁分明	-13364
▁德罗	-13365
▁无忧	-13366
▁阿兰	-13367
▁靓丽	-13368
▁商品房	-13369
继伟	-13370
▁包袱	-13371
▁三轮	-13372
▁卑微	-13373
▁技艺	-13374
▁垫底	-13375
工人	-13376
▁老化	-13377
▁不时	-13378
▁尽情	-13379
▁鼓舞	-13380
▁简化	-13381
▁闪耀	-13382
▁林业	-13383
▁制约	-13384
▁大屏	-13385
▁Ad	-13386
LED	-13387
ment	-13388
▁击中	-13389
▁开关	-13390
▁棕色	-13391
▁悄然	-13392
▁一模	-13393
▁范畴	-13394
▁汉武帝	-13395
▁一脚	-13396
▁存量	-13397
▁毅然	-13398
▁高等教育	-13399
▁政党	-13400
激素	-13401
▁綦	-13402
▁供图	-13403
▁继承人	-13404
▁肃	-13405
▁敬请	-13406
▁晚报	-13407
▁牢固	-13408
▁张飞	-13409
▁整齐	-13410
▁熊猫	-13411
▁久而	-13412
▁南宋	-13413
▁下雨	-13414
▁翻盘	-13415
▁地标	-13416
▁毅力	-13417
▁自贸	-13418
▁高领	-13419
小青	-13420
▁骨子里	-13421
▁发生变化	-13422
▁头顶	-13423
▁物价	-13424
▁低下	-13425
▁处以	-13426
▁村委会	-13427
▁水域	-13428
▁中老	-13429
锁锁	-13430
.42	-13431
行星	-13432
▁or	-13433
▁侦探	-13434
▁马自	-13435
▁孵化	-13436
▁芝麻	-13437
▁奥地利	-13438
▁一词	-13439
▁渺	-13440
久之	-13441
▁久而久之	-13442
▁双边	-13443
▁採用	-13444
▁陆地	-13445
▁昊	-13446
▁DNA	-13447
▁隆重	-13448
ife	-13449
▁奔波	-13450
▁绰	-13451
▁脸部	-13452
任务	-13453
▁奎	-13454
向上	-13455
▁实名	-13456
▁邯	-13457
固醇	-13458
▁全债	-13459
▁半夜	-13460
▁1937	-13461
▁回老	-13462
▁朱荣	-13463
▁高超	-13464
▁暴发	-13465
▁严防	-13466
▁发财	-13467
▁各省	-13468
▁活性	-13469
▁车祸	-13470
▁乏力	-13471
建联	-13472
▁张扬	-13473
▁借贷	-13474
▁小巧	-13475
▁据介绍	-13476
纪委	-13477
▁但凡	-13478
▁逾期	-13479
▁118	-13480
▁竭	-13481
▁爹	-13482
▁下调	-13483
▁普拉	-13484
▁微生物	-13485
▁单单	-13486
▁散步	-13487
▁回老家	-13488
.03	-13489
▁伊斯兰	-13490
▁马自达	-13491
▁撞击	-13492
▁脸色	-13493
▁轰动	-13494
▁124	-13495
▁凯文	-13496
▁滤镜	-13497
▁清风	-13498
▁1600	-13499
▁二世	-13500
▁宋江	-13501
▁盒子	-13502
▁可靠性	-13503
▁电网	-13504
▁缺口	-13505
▁花样	-13506
▁两分	-13507
▁日渐	-13508
▁CPU	-13509
▁RT	-13510
▁三部	-13511
▁四季度	-13512
▁尺度	-13513
▁汉朝	-13514
▁宋运辉	-13515
▁底下	-13516
▁客流	-13517
▁青铜	-13518
▁书画	-13519
▁拥堵	-13520
解放军	-13521
▁背着	-13522
▁襄阳	-13523
▁大学毕业	-13524
▁而来	-13525
▁填补	-13526
▁按理	-13527
▁不言	-13528
▁大礼	-13529
▁烟火	-13530
▁重任	-13531
完善	-13532
▁机体	-13533
▁特地	-13534
▁送来	-13535
▁希特勒	-13536
▁帧	-13537
领域	-13538
▁买下	-13539
▁30.0	-13540
▁独一无二	-13541
.86	-13542
▁克拉克	-13543
事项	-13544
▁有限责任	-13545
▁娄	-13546
英镑	-13547
▁光彩	-13548
▁张作霖	-13549
当然	-13550
▁才行	-13551
▁俨	-13552
▁同款	-13553
man	-13554
联邦	-13555
▁流星	-13556
或缺	-13557
▁不可或缺	-13558
▁抛开	-13559
▁受不了	-13560
▁墙上	-13561
晶晶	-13562
▁防水	-13563
▁少见	-13564
▁中兴	-13565
▁表扬	-13566
▁进出口	-13567
▁开办	-13568
▁桶	-13569
▁太阳队	-13570
▁风流	-13571
▁张艺谋	-13572
▁革	-13573
▁惬	-13574
▁出货量	-13575
▁家里人	-13576
▁孙俪	-13577
离子	-13578
▁迁移	-13579
▁丁真	-13580
.17	-13581
▁鲤	-13582
▁克里	-13583
▁演奏	-13584
.66	-13585
▁世代	-13586
▁溢价	-13587
▁倪妮	-13588
▁非要	-13589
▁单日	-13590
.26	-13591
▁唏	-13592
▁雕塑	-13593
▁交替	-13594
▁略有	-13595
▁国民政府	-13596
.77	-13597
▁最大化	-13598
道理	-13599
▁深爱	-13600
▁打死	-13601
▁四月	-13602
▁建设项目	-13603
▁书中	-13604
.72	-13605
▁有钱人	-13606
▁无不	-13607
▁排在	-13608
▁没收	-13609
▁葡萄酒	-13610
▁出乎	-13611
▁冀	-13612
▁MI	-13613
▁世俗	-13614
▁无名	-13615
▁苦苦	-13616
▁杨鸣	-13617
▁上阵	-13618
.22	-13619
▁当即	-13620
▁旭	-13621
▁电磁	-13622
▁承办	-13623
▁腹泻	-13624
▁淳	-13625
▁沮	-13626
▁淑	-13627
▁罗宾	-13628
▁貂	-13629
▁流域	-13630
▁孕育	-13631
▁原神	-13632
.05	-13633
▁牵手	-13634
▁奖杯	-13635
▁屎	-13636
▁铃	-13637
人知	-13638
▁何况	-13639
情愿	-13640
一度	-13641
▁风俗	-13642
▁投进	-13643
▁朦	-13644
▁瓶颈	-13645
▁指挥官	-13646
▁助手	-13647
▁潞	-13648
▁机车	-13649
▁之美	-13650
基金	-13651
▁顶部	-13652
▁实业	-13653
▁已于	-13654
▁老子	-13655
▁美联储	-13656
▁Windows	-13657
▁少有	-13658
▁白皙	-13659
▁恒生指数	-13660
▁SS	-13661
▁新颖	-13662
代谢	-13663
▁脑子	-13664
▁印刷	-13665
▁火焰	-13666
.23	-13667
▁观光	-13668
▁点名	-13669
▁曾多次	-13670
▁半天	-13671
▁每到	-13672
▁锅中	-13673
▁触及	-13674
▁饭菜	-13675
▁豪华版	-13676
▁牛市	-13677
▁多样化	-13678
▁教材	-13679
不穷	-13680
▁有目	-13681
▁困惑	-13682
▁倾听	-13683
领导	-13684
▁史料	-13685
▁逛街	-13686
▁佛罗	-13687
▁林志	-13688
▁低估	-13689
历史	-13690
▁悬疑	-13691
▁怀抱	-13692
▁素季	-13693
▁日照	-13694
▁过日子	-13695
▁孕期	-13696
▁高空	-13697
▁财神	-13698
▁搏	-13699
▁兔子	-13700
▁诟	-13701
▁所致	-13702
▁求职	-13703
▁用手	-13704
▁藩	-13705
▁反驳	-13706
▁薪酬	-13707
▁探险	-13708
▁层出	-13709
▁未有	-13710
▁小男孩	-13711
▁信息技术	-13712
▁动摇	-13713
▁东亚	-13714
▁抵御	-13715
▁悍	-13716
▁容纳	-13717
▁预料	-13718
▁丞	-13719
▁侥幸	-13720
▁有目共	-13721
▁业余	-13722
▁有目共睹	-13723
▁头痛	-13724
▁基调	-13725
▁连线	-13726
▁赞同	-13727
▁适度	-13728
▁党政	-13729
▁执行官	-13730
▁亲朋好友	-13731
▁来袭	-13732
▁柠檬	-13733
▁遗体	-13734
▁京剧	-13735
▁结识	-13736
▁your	-13737
▁某种程度	-13738
▁up	-13739
▁儿媳妇	-13740
▁注意事项	-13741
▁几点	-13742
▁换取	-13743
▁传到	-13744
▁活得	-13745
▁领跌	-13746
常委	-13747
葫芦	-13748
▁密接	-13749
▁弹道	-13750
▁十多	-13751
▁招股	-13752
▁有线	-13753
▁里程碑	-13754
▁高尔夫	-13755
▁良性	-13756
▁一席	-13757
▁杨颖	-13758
▁中国政府	-13759
▁哨	-13760
▁纺织	-13761
▁饲养	-13762
▁稳住	-13763
▁狠狠	-13764
▁语气	-13765
▁免税	-13766
▁望奎	-13767
▁宛如	-13768
▁搓	-13769
▁实惠	-13770
教授	-13771
▁主板	-13772
▁煤矿	-13773
▁开着	-13774
姗姗	-13775
.41	-13776
▁赵继伟	-13777
福德	-13778
▁嫡	-13779
▁安定	-13780
▁已知	-13781
▁纳税人	-13782
▁构造	-13783
▁上阳赋	-13784
▁车门	-13785
▁私募	-13786
▁年均	-13787
▁送走	-13788
▁Wi	-13789
▁奥巴	-13790
▁其三	-13791
.73	-13792
▁傍晚	-13793
▁只用	-13794
▁成都市	-13795
▁紧凑型	-13796
▁悲痛	-13797
上加	-13798
▁募集	-13799
.04	-13800
▁招标	-13801
决心	-13802
▁背负	-13803
▁高昂	-13804
▁绍兴	-13805
▁肢体	-13806
▁褪	-13807
▁稀缺	-13808
▁普惠	-13809
▁USB	-13810
▁庚	-13811
▁惋	-13812
▁戒指	-13813
▁配图	-13814
.27	-13815
▁爱美	-13816
▁德甲	-13817
▁冷水	-13818
pe	-13819
▁核心技术	-13820
▁奴隶	-13821
▁抑郁症	-13822
▁拉长	-13823
▁洒脱	-13824
▁行事	-13825
▁三分之一	-13826
▁层出不穷	-13827
▁开采	-13828
▁补给	-13829
bo	-13830
▁可控	-13831
▁阿富	-13832
驾驶	-13833
▁看一看	-13834
▁千万别	-13835
▁芈	-13836
▁降雪	-13837
▁诟病	-13838
▁逼迫	-13839
▁查获	-13840
▁小卡	-13841
▁老一	-13842
态度	-13843
▁细细	-13844
▁这本	-13845
▁吃苦	-13846
▁一加	-13847
▁东北风	-13848
▁巡回	-13849
▁白发	-13850
▁SP	-13851
▁下水	-13852
▁裕	-13853
▁并发	-13854
▁限量	-13855
▁栅	-13856
.81	-13857
▁一模一样	-13858
▁温情	-13859
▁BBC	-13860
▁桐	-13861
▁明代	-13862
▁险胜	-13863
▁唏嘘	-13864
▁拘留	-13865
▁坚韧	-13866
act	-13867
▁夯实	-13868
▁猛烈	-13869
▁这颗	-13870
▁基本面	-13871
▁华语	-13872
安市	-13873
▁博弈	-13874
▁售后	-13875
▁推理	-13876
▁世家	-13877
▁富士	-13878
▁少将	-13879
▁醉酒	-13880
▁市场化	-13881
▁打理	-13882
▁产出	-13883
.74	-13884
▁转生	-13885
▁旅程	-13886
▁奋进	-13887
▁宣传部	-13888
无忌	-13889
▁胡歌	-13890
▁不离	-13891
69	-13892
▁五代	-13893
▁蓬勃	-13894
▁曾国	-13895
▁皮夹	-13896
▁黯	-13897
▁三场	-13898
▁团团	-13899
▁之道	-13900
乓球	-13901
▁拓宽	-13902
▁阿富汗	-13903
▁在我看来	-13904
▁再者	-13905
▁不忍	-13906
▁民航	-13907
一年	-13908
▁鸦	-13909
▁降落	-13910
▁个个	-13911
▁制药	-13912
▁善意	-13913
▁有心	-13914
▁单价	-13915
▁知性	-13916
▁轮毂	-13917
▁驼	-13918
▁有句	-13919
▁充分利用	-13920
资本	-13921
▁网点	-13922
▁慎重	-13923
▁着重	-13924
▁比利时	-13925
▁诺贝尔	-13926
▁接管	-13927
.33	-13928
▁暴风	-13929
▁大同	-13930
▁双双	-13931
▁男神	-13932
▁惋惜	-13933
▁洪水	-13934
不见	-13935
▁球权	-13936
▁丹麦	-13937
▁路况	-13938
▁食欲	-13939
▁常人	-13940
▁贼	-13941
▁操作系统	-13942
▁周二	-13943
▁朱锁锁	-13944
▁分行	-13945
▁答复	-13946
▁牟	-13947
▁排斥	-13948
▁停产	-13949
▁身体素质	-13950
▁概括	-13951
▁说到底	-13952
▁他俩	-13953
▁却说	-13954
▁同心	-13955
▁北京队	-13956
▁它会	-13957
压力	-13958
▁窄	-13959
▁期内	-13960
▁做工	-13961
▁10000	-13962
功夫	-13963
▁授课	-13964
▁赵国	-13965
▁趁机	-13966
▁多一点	-13967
▁头号	-13968
▁拉动	-13969
▁歼灭	-13970
▁鲜艳	-13971
一笑	-13972
▁糯米	-13973
▁平板	-13974
▁硬朗	-13975
▁纯电	-13976
▁离谱	-13977
交流	-13978
▁陈妍	-13979
▁进食	-13980
.83	-13981
▁投入使用	-13982
▁李子	-13983
MI	-13984
▁往日	-13985
▁不胜	-13986
▁平和	-13987
▁反差	-13988
ai	-13989
▁完结	-13990
▁液体	-13991
ake	-13992
▁Tr	-13993
▁随性	-13994
▁向下	-13995
▁开年	-13996
▁对外开放	-13997
ies	-13998
▁车速	-13999
▁呕吐	-14000
▁We	-14001
▁憧	-14002
▁嫦	-14003
▁凶手	-14004
▁提拔	-14005
▁皮夹克	-14006
61	-14007
多彩	-14008
进步	-14009
▁服务员	-14010
▁借着	-14011
▁曾任	-14012
▁国服	-14013
▁希尔	-14014
▁窥	-14015
▁JDG	-14016
奋斗	-14017
▁瘫	-14018
▁雕刻	-14019
▁LP	-14020
▁这儿	-14021
▁名誉	-14022
▁禽	-14023
▁医用	-14024
▁遣	-14025
▁卡鲁	-14026
▁暖心	-14027
▁香蕉	-14028
▁五菱	-14029
.87	-14030
▁凯迪	-14031
之无愧	-14032
▁氪	-14033
▁纳米	-14034
▁亮度	-14035
▁嗯	-14036
.37	-14037
▁联名	-14038
▁渭	-14039
培养	-14040
▁开机	-14041
▁广播电视	-14042
▁卢卡	-14043
▁照亮	-14044
▁结构性	-14045
▁买菜	-14046
▁千古	-14047
加强	-14048
▁众生	-14049
.64	-14050
▁用工	-14051
▁前一天	-14052
▁顺义区	-14053
▁过错	-14054
▁开封	-14055
▁素颜	-14056
▁观影	-14057
▁蜕	-14058
▁定时	-14059
▁十余	-14060
▁有太多	-14061
▁汝	-14062
▁放进	-14063
▁苏军	-14064
▁涉事	-14065
▁一回	-14066
▁发给	-14067
然大	-14068
▁Internet	-14069
▁三口	-14070
▁成型	-14071
▁座谈会	-14072
▁臂	-14073
▁供需	-14074
▁日月	-14075
▁庇	-14076
江市	-14077
▁武磊	-14078
▁〈	-14079
▁哥伦	-14080
▁专班	-14081
进一步	-14082
▁撤离	-14083
▁窗外	-14084
▁辽篮	-14085
▁1948	-14086
▁数据库	-14087
▁Be	-14088
▁上证	-14089
▁蝉	-14090
▁怡	-14091
▁家庭教育	-14092
专业	-14093
▁武汉市	-14094
▁操纵	-14095
ase	-14096
▁史密	-14097
▁访谈	-14098
▁1300	-14099
.84	-14100
▁鳞	-14101
▁申请人	-14102
▁Ex	-14103
▁地级	-14104
▁人造	-14105
▁当之无愧	-14106
▁逃脱	-14107
▁作曲	-14108
参考	-14109
▁饮水	-14110
▁New	-14111
▁此地	-14112
▁精密	-14113
▁王家	-14114
学历	-14115
▁逍遥	-14116
▁锂电池	-14117
▁不败	-14118
▁罪名	-14119
▁二号	-14120
▁预备	-14121
▁仪器	-14122
牙利	-14123
▁热线	-14124
▁不下	-14125
▁穿梭	-14126
▁匈牙利	-14127
▁霓	-14128
▁压根	-14129
▁阻力	-14130
▁we	-14131
▁坏事	-14132
▁易建联	-14133
▁扩建	-14134
▁莲花	-14135
▁街区	-14136
▁巧克力	-14137
▁阶层	-14138
▁养猪	-14139
▁岛上	-14140
▁背面	-14141
▁七八	-14142
▁深渊	-14143
▁嫦娥	-14144
▁或多	-14145
▁新浪	-14146
▁230	-14147
.61	-14148
▁坐落	-14149
▁电子商务	-14150
▁美洲	-14151
▁同类	-14152
▁淄	-14153
▁与否	-14154
▁公式	-14155
▁杰夫	-14156
▁之日起	-14157
▁出头	-14158
眼镜	-14159
▁停滞	-14160
▁退役军人	-14161
▁面团	-14162
▁互通	-14163
▁动脉	-14164
▁Sc	-14165
▁知己	-14166
▁白头	-14167
▁首日	-14168
▁杨洋	-14169
▁众议院	-14170
▁维尔	-14171
▁开会	-14172
▁五月	-14173
▁领悟	-14174
▁波普	-14175
▁下期	-14176
.71	-14177
.76	-14178
两天	-14179
▁付款	-14180
▁再用	-14181
▁时有	-14182
▁停放	-14183
▁恢复正常	-14184
▁招牌	-14185
▁东北地区	-14186
INI	-14187
▁袜	-14188
▁住户	-14189
▁好久	-14190
▁制动	-14191
▁1800	-14192
▁开赛	-14193
▁推移	-14194
▁FF	-14195
▁片中	-14196
▁妇联	-14197
▁朱荣振	-14198
ah	-14199
▁高楼	-14200
▁陇	-14201
▁周六	-14202
▁以北	-14203
▁本能	-14204
▁他家	-14205
▁判罚	-14206
▁所用	-14207
▁时要	-14208
▁海水	-14209
▁长长	-14210
▁四种	-14211
▁勃	-14212
▁修养	-14213
▁帅哥	-14214
▁惬意	-14215
▁检疫	-14216
▁左小青	-14217
▁惨遭	-14218
▁连夜	-14219
▁容忍	-14220
▁外围	-14221
▁共同体	-14222
▁锦标赛	-14223
▁美国国会	-14224
▁书院	-14225
▁☆	-14226
▁始于	-14227
.59	-14228
▁政委	-14229
▁外加	-14230
▁万左右	-14231
▁畅销	-14232
▁九月	-14233
▁炎症	-14234
▁董洁	-14235
▁出错	-14236
▁王女士	-14237
▁有的是	-14238
▁棺	-14239
▁手握	-14240
▁陡	-14241
▁英特尔	-14242
▁更长	-14243
▁TT	-14244
丹丹	-14245
▁胯	-14246
▁朵	-14247
▁高挑	-14248
▁喉	-14249
79	-14250
▁零星	-14251
▁面具	-14252
▁喘	-14253
▁小虎	-14254
▁动力系统	-14255
▁拉丁	-14256
▁灯笼	-14257
▁台下	-14258
▁便民	-14259
▁Apple	-14260
▁配有	-14261
或少	-14262
▁冬春	-14263
▁名利	-14264
▁县域	-14265
▁或多或少	-14266
▁凯恩	-14267
▁1946	-14268
▁发烧	-14269
▁网球	-14270
▁重创	-14271
▁窃	-14272
▁圈里	-14273
▁支柱	-14274
▁看书	-14275
▁场馆	-14276
▁殖民地	-14277
▁解放战争	-14278
半年	-14279
▁促销	-14280
▁马尾	-14281
.36	-14282
城县	-14283
▁多边	-14284
▁生活费	-14285
▁解体	-14286
▁伪造	-14287
▁突变	-14288
▁长袖	-14289
▁伊能	-14290
▁加时赛	-14291
逊色	-14292
▁格拉姆	-14293
供应	-14294
▁保密	-14295
▁番茄	-14296
▁得名	-14297
▁完后	-14298
▁向着	-14299
▁早些	-14300
▁前夕	-14301
▁卡鲁索	-14302
▁一连	-14303
成长	-14304
▁保时	-14305
▁切断	-14306
▁均线	-14307
▁享年	-14308
▁送出	-14309
▁宝座	-14310
▁辛巴	-14311
▁胆固醇	-14312
▁典范	-14313
▁会同	-14314
▁喽	-14315
▁譬	-14316
得好	-14317
▁憧憬	-14318
▁短裙	-14319
▁DYG	-14320
▁遍布	-14321
▁共同努力	-14322
不绝	-14323
▁山东队	-14324
▁挂钩	-14325
关节	-14326
▁特鲁	-14327
▁先前	-14328
▁常识	-14329
▁配方	-14330
▁党的	-14331
▁山地	-14332
▁面条	-14333
▁诊所	-14334
▁近距离	-14335
▁春运期间	-14336
▁吴京	-14337
▁分级	-14338
▁奇瑞	-14339
▁乐园	-14340
▁缓缓	-14341
▁凯迪拉克	-14342
▁母乳	-14343
▁高强度	-14344
▁好听	-14345
▁效能	-14346
▁这篇	-14347
▁塘	-14348
▁新星	-14349
▁现行	-14350
▁出兵	-14351
▁时速	-14352
▁换个	-14353
.32	-14354
▁筒	-14355
▁肆意	-14356
▁喵	-14357
▁数年	-14358
▁重点项目	-14359
起义	-14360
▁偏高	-14361
▁名片	-14362
▁组件	-14363
▁话剧	-14364
▁纯色	-14365
▁拂	-14366
▁历代	-14367
气象	-14368
▁爱因	-14369
▁伊能静	-14370
希望	-14371
龄化	-14372
▁电量	-14373
▁措	-14374
▁实实	-14375
▁嘱	-14376
▁全美	-14377
▁文书	-14378
uc	-14379
▁1958	-14380
.21	-14381
▁争执	-14382
▁斥	-14383
现在	-14384
▁第二轮	-14385
▁穆雷	-14386
▁迎新	-14387
▁混凝	-14388
und	-14389
主体	-14390
▁植入	-14391
▁空气质量	-14392
▁爱因斯坦	-14393
▁通透	-14394
▁亚特兰	-14395
▁怜	-14396
42	-14397
族自治	-14398
威尔	-14399
▁相逢	-14400
▁母女	-14401
▁白人	-14402
▁呼吸道	-14403
▁书店	-14404
▁血液循环	-14405
▁爵士队	-14406
▁弗雷	-14407
▁千元	-14408
▁保时捷	-14409
▁膜	-14410
▁家住	-14411
▁帆	-14412
▁朦胧	-14413
▁很棒	-14414
▁去掉	-14415
▁规避	-14416
▁元宵节	-14417
▁活在	-14418
▁相聚	-14419
▁之名	-14420
▁鲜肉	-14421
▁停电	-14422
▁预示	-14423
▁2024	-14424
犹豫	-14425
▁回避	-14426
▁面上	-14427
▁截然不同	-14428
▁一棵	-14429
▁宜人	-14430
▁一书	-14431
▁出路	-14432
▁宇航	-14433
▁乐坛	-14434
▁复试	-14435
▁挽救	-14436
▁pro	-14437
▁香烟	-14438
预报	-14439
▁认清	-14440
▁超标	-14441
▁天体	-14442
▁https	-14443
▁屋顶	-14444
▁市中心	-14445
book	-14446
▁哪有	-14447
▁海边	-14448
▁聆	-14449
Fi	-14450
▁尚书	-14451
▁MPV	-14452
▁市委书记	-14453
▁卡车	-14454
▁赎	-14455
声明	-14456
▁PP	-14457
▁865	-14458
▁舅舅	-14459
▁叛乱	-14460
.82	-14461
▁喇叭	-14462
▁倔	-14463
▁廊坊	-14464
▁相恋	-14465
▁衷	-14466
▁假面	-14467
▁远处	-14468
▁王小	-14469
▁诉说	-14470
▁除外	-14471
▁三条	-14472
▁十里	-14473
▁农贸市场	-14474
▁管理工作	-14475
▁耗费	-14476
▁反响	-14477
▁几款	-14478
▁屡屡	-14479
▁镜子	-14480
▁同台	-14481
▁樱桃	-14482
▁兼容	-14483
▁生姜	-14484
▁体量	-14485
▁坐镇	-14486
▁海航	-14487
▁突围	-14488
▁法拉	-14489
▁屏障	-14490
▁出差	-14491
▁我方	-14492
▁对联	-14493
▁宝骏	-14494
▁五次	-14495
▁医学院	-14496
▁交界	-14497
▁储蓄	-14498
▁混凝土	-14499
▁皱纹	-14500
▁泰达	-14501
▁有翡	-14502
▁抹黑	-14503
▁阶段性	-14504
▁东汉	-14505
▁乘用车	-14506
▁Com	-14507
▁市场主体	-14508
▁联发	-14509
▁寥	-14510
▁三线	-14511
▁吴宣	-14512
▁法人	-14513
▁全过程	-14514
▁诋	-14515
▁母子	-14516
技能	-14517
▁动用	-14518
▁传动	-14519
▁追分	-14520
女友	-14521
▁为数	-14522
▁巧合	-14523
▁警力	-14524
▁追梦	-14525
在在	-14526
▁摇滚	-14527
▁采摘	-14528
▁丝绸	-14529
▁彼得	-14530
▁临床试验	-14531
▁欣慰	-14532
▁着想	-14533
▁睡着	-14534
▁八十	-14535
▁国旗	-14536
▁辅警	-14537
▁大力发展	-14538
▁高档	-14539
▁建华	-14540
▁节气	-14541
▁返程	-14542
▁陈坤	-14543
▁萎缩	-14544
▁多样性	-14545
▁凭着	-14546
不已	-14547
▁商贸	-14548
▁一盘	-14549
▁积极参与	-14550
▁摩尔	-14551
▁流感	-14552
▁增值税	-14553
▁圈粉	-14554
▁武将	-14555
▁封盖	-14556
▁缓和	-14557
▁实实在在	-14558
▁北平	-14559
▁模组	-14560
▁投产	-14561
▁GA	-14562
▁回想	-14563
▁算不上	-14564
▁加装	-14565
▁扭曲	-14566
▁北斗	-14567
▁维金斯	-14568
▁奚	-14569
▁Bo	-14570
▁爱尔兰	-14571
▁手持	-14572
▁煽动	-14573
▁迎春	-14574
批评	-14575
排名	-14576
▁签名	-14577
▁焊	-14578
▁驱逐舰	-14579
▁扣篮	-14580
▁实质性	-14581
▁近两年	-14582
▁信赖	-14583
▁受访者	-14584
▁趋于	-14585
▁粒子	-14586
▁逐年	-14587
▁泡泡	-14588
▁虚构	-14589
员工	-14590
▁盛宴	-14591
▁年里	-14592
▁学习成绩	-14593
▁揣	-14594
▁一局	-14595
▁宋丹丹	-14596
▁心跳	-14597
▁靶	-14598
▁京津	-14599
▁金字	-14600
▁清淡	-14601
▁周三	-14602
▁之大	-14603
▁消防员	-14604
▁京城	-14605
▁瀑布	-14606
形态	-14607
▁订阅	-14608
爱凌	-14609
▁洛克	-14610
▁随手	-14611
▁史密斯	-14612
▁事事	-14613
▁慧	-14614
▁绿军	-14615
▁明知	-14616
▁亲王	-14617
▁错失	-14618
指挥	-14619
▁并列	-14620
icture	-14621
监局	-14622
锦赛	-14623
▁大长	-14624
▁胡椒	-14625
MP	-14626
▁各家	-14627
▁赞赏	-14628
▁几名	-14629
▁六大	-14630
▁意向	-14631
▁拖欠	-14632
▁家暴	-14633
▁途经	-14634
▁高点	-14635
▁轻盈	-14636
▁吴宣仪	-14637
▁起亚	-14638
▁谷爱凌	-14639
▁畸	-14640
▁统治者	-14641
39	-14642
▁冲刺	-14643
修斯	-14644
▁初次	-14645
需要	-14646
▁新兴产业	-14647
▁不懈	-14648
▁护卫	-14649
▁表述	-14650
▁黑夜	-14651
▁阿德	-14652
▁盛开	-14653
▁跳动	-14654
▁私家车	-14655
▁痛点	-14656
▁顺势	-14657
▁格斗	-14658
▁容颜	-14659
▁椅子	-14660
▁博时	-14661
▁茫茫	-14662
▁吸取	-14663
▁寒风	-14664
▁蜂蜜	-14665
▁红红	-14666
▁千金	-14667
▁弹幕	-14668
▁这道	-14669
▁烟草	-14670
▁赵露	-14671
▁长城汽车	-14672
实际	-14673
▁顺应	-14674
▁坚果	-14675
▁复旦	-14676
▁孙女	-14677
▁肝癌	-14678
▁保定	-14679
▁婆媳	-14680
▁爪	-14681
▁金庸	-14682
▁陈赓	-14683
▁推向	-14684
▁小年	-14685
▁邮件	-14686
▁多为	-14687
▁大吉	-14688
▁大西	-14689
▁AT	-14690
▁典藏	-14691
▁十多年	-14692
▁看作	-14693
▁托马斯	-14694
▁商业化	-14695
▁尼克	-14696
▁购置	-14697
▁华中	-14698
▁商圈	-14699
▁外包装	-14700
▁其间	-14701
▁调料	-14702
of	-14703
医学	-14704
▁抓手	-14705
▁马超	-14706
▁心脏病	-14707
▁MINI	-14708
▁末期	-14709
▁低位	-14710
▁DM	-14711
▁国庆	-14712
▁诋毁	-14713
▁庆幸	-14714
▁香气	-14715
▁较长	-14716
▁不免	-14717
▁吊带	-14718
▁Mic	-14719
▁两位数	-14720
▁从严治	-14721
▁深入人心	-14722
▁案发	-14723
▁车牌	-14724
▁曙	-14725
▁又名	-14726
▁飞船	-14727
▁持平	-14728
▁血脂	-14729
▁话语权	-14730
▁狭窄	-14731
▁唠	-14732
▁奕	-14733
▁大中	-14734
▁德拉	-14735
NI	-14736
▁硝	-14737
一时	-14738
▁动机	-14739
▁轻型	-14740
▁喝茶	-14741
▁离别	-14742
▁网传	-14743
▁小马	-14744
▁111	-14745
▁往返	-14746
▁第四次	-14747
▁庄村	-14748
▁放眼	-14749
▁肉眼	-14750
埔寨	-14751
▁扰乱	-14752
▁阐述	-14753
位数	-14754
▁历史性	-14755
▁口径	-14756
▁节前	-14757
▁照样	-14758
▁骨折	-14759
▁新任	-14760
▁当属	-14761
▁柬埔寨	-14762
▁功底	-14763
▁敷衍	-14764
▁汇添	-14765
▁时而	-14766
▁离场	-14767
▁佩拉	-14768
▁流逝	-14769
.55	-14770
▁领军	-14771
深处	-14772
ial	-14773
▁这起	-14774
per	-14775
▁铭记	-14776
▁王鸥	-14777
▁娅	-14778
▁随处	-14779
▁陶瓷	-14780
▁福气	-14781
▁华侨	-14782
▁116	-14783
▁这群	-14784
ark	-14785
▁波澜	-14786
▁议题	-14787
▁太小	-14788
co	-14789
▁好心	-14790
▁保利	-14791
▁旋律	-14792
▁超玩	-14793
南山	-14794
▁哈佛	-14795
▁清明	-14796
▁水源	-14797
▁love	-14798
▁comes	-14799
▁望奎县	-14800
▁字体	-14801
▁望远	-14802
▁210	-14803
▁週	-14804
▁戏曲	-14805
▁护照	-14806
▁斯坦	-14807
▁汉服	-14808
▁特区	-14809
▁脑梗	-14810
▁劳务	-14811
▁汉中	-14812
▁扎根	-14813
▁预见	-14814
▁李小璐	-14815
▁楼下	-14816
同期	-14817
▁去年同期	-14818
▁为难	-14819
▁开阔	-14820
▁拖延	-14821
▁搬家	-14822
党委	-14823
▁Wh	-14824
▁再战	-14825
▁利于	-14826
▁长效	-14827
▁看不出	-14828
不移	-14829
.63	-14830
▁硬币	-14831
▁许久	-14832
便宜	-14833
▁梯队	-14834
▁誓言	-14835
▁好身材	-14836
▁厌恶	-14837
▁客串	-14838
▁变迁	-14839
眼里	-14840
▁味儿	-14841
▁湛	-14842
▁国足	-14843
▁球衣	-14844
▁真挚	-14845
▁伙	-14846
▁椰	-14847
底下	-14848
▁敬畏	-14849
▁大势	-14850
46	-14851
▁坦然	-14852
▁董卿	-14853
▁厢	-14854
▁评判	-14855
▁短线	-14856
▁主意	-14857
▁姨	-14858
▁赶快	-14859
▁肺癌	-14860
▁莫里斯	-14861
▁各式	-14862
▁红薯	-14863
媲美	-14864
▁偏离	-14865
▁欣喜	-14866
▁不法	-14867
▁郝蕾	-14868
▁不靠	-14869
▁莫迪	-14870
▁逐一	-14871
▁对标	-14872
▁德州	-14873
友们	-14874
▁勋章	-14875
▁无心	-14876
▁悲惨	-14877
▁字样	-14878
▁人头	-14879
▁稀有	-14880
形势	-14881
▁耻	-14882
▁天子	-14883
▁总司令	-14884
▁社会保障	-14885
att	-14886
▁倒车	-14887
▁不忘	-14888
▁火速	-14889
▁日共	-14890
▁战败	-14891
▁realme	-14892
▁唐僧	-14893
▁ww	-14894
▁勤劳	-14895
▁摔倒	-14896
▁网购	-14897
▁近乎	-14898
▁暑	-14899
其妙	-14900
▁例行	-14901
▁反射	-14902
yn	-14903
▁熄	-14904
▁QG	-14905
▁游览	-14906
▁禁毒	-14907
▁新生代	-14908
▁沧桑	-14909
▁可口	-14910
▁气候变化	-14911
▁皇位	-14912
▁花木	-14913
▁所长	-14914
▁台风	-14915
▁最爱	-14916
▁城管	-14917
▁气味	-14918
▁游乐	-14919
▁最能	-14920
▁游行	-14921
▁病房	-14922
之不易	-14923
▁结果显示	-14924
▁服务平台	-14925
▁雏	-14926
▁多特	-14927
▁升值	-14928
▁并购	-14929
▁凸显出	-14930
▁同色系	-14931
▁奸	-14932
▁忆	-14933
▁清澈	-14934
▁铁道	-14935
▁替补席	-14936
▁第三名	-14937
▁试探	-14938
▁默认	-14939
▁理发	-14940
▁规范化	-14941
▁城际	-14942
▁抢占	-14943
▁纵横	-14944
▁领导者	-14945
▁队史	-14946
▁说好	-14947
▁1940	-14948
▁初始	-14949
▁罪行	-14950
翼翼	-14951
▁卡罗	-14952
▁疏影	-14953
▁超玩会	-14954
▁皓	-14955
▁眼科	-14956
▁棘	-14957
▁凭证	-14958
▁小心翼翼	-14959
▁山顶	-14960
▁同胞	-14961
▁武林	-14962
▁召集	-14963
▁申花	-14964
▁逸	-14965
▁驴	-14966
▁唯美	-14967
四军	-14968
▁我县	-14969
▁直面	-14970
▁我妈	-14971
▁日到	-14972
▁www	-14973
生生	-14974
▁扫黑	-14975
地位	-14976
▁悬崖	-14977
▁标记	-14978
▁入睡	-14979
▁法术	-14980
▁好奇心	-14981
▁联欢	-14982
▁莫名其妙	-14983
理解	-14984
▁打包	-14985
▁开来	-14986
▁俨然	-14987
▁团伙	-14988
▁贴合	-14989
▁加油站	-14990
▁阿伦	-14991
▁围巾	-14992
▁外科	-14993
▁急于	-14994
▁生怕	-14995
▁严密	-14996
▁南山	-14997
▁长期以来	-14998
▁中段	-14999
ath	-15000
▁纳粹	-15001
▁盗墓	-15002
▁六月	-15003
▁伤痛	-15004
▁石墨	-15005
▁项链	-15006
.52	-15007
▁冰冷	-15008
▁射程	-15009
▁蕴含	-15010
航空	-15011
▁1947	-15012
▁OLED	-15013
经营	-15014
▁沿用	-15015
▁墙壁	-15016
▁松懈	-15017
▁岳飞	-15018
▁印证	-15019
▁别克	-15020
▁制品	-15021
▁一地	-15022
▁攻克	-15023
▁掺	-15024
▁该案	-15025
▁无异	-15026
▁问道	-15027
▁丸子	-15028
▁境地	-15029
▁大葱	-15030
▁开门红	-15031
▁殴	-15032
▁picture	-15033
▁追星	-15034
▁捞出	-15035
▁妨碍	-15036
▁一中	-15037
▁严寒	-15038
▁请来	-15039
▁陆游	-15040
▁爆冷	-15041
▁较差	-15042
▁土豪	-15043
▁受过	-15044
▁橙色	-15045
▁城堡	-15046
▁从严治党	-15047
▁出事	-15048
▁回调	-15049
▁口头	-15050
▁心血	-15051
▁胎压	-15052
不通	-15053
▁统计数据	-15054
▁船只	-15055
▁列出	-15056
▁有情	-15057
▁MC	-15058
▁沥	-15059
▁凯多	-15060
▁公安部	-15061
▁总算	-15062
▁或厚	-15063
▁本是	-15064
▁白马	-15065
▁治病	-15066
▁亲身	-15067
▁李先生	-15068
▁定律	-15069
▁煞	-15070
▁满脸	-15071
zi	-15072
▁邨	-15073
▁人居	-15074
▁斗志	-15075
▁譬如	-15076
▁征集	-15077
▁填充	-15078
▁翔	-15079
▁下定	-15080
▁站台	-15081
▁will	-15082
▁认购	-15083
机场	-15084
▁下个	-15085
▁兼具	-15086
▁汁	-15087
▁鑫	-15088
▁光滑	-15089
▁肛	-15090
▁滥用	-15091
▁站稳	-15092
▁1976	-15093
▁承接	-15094
▁收敛	-15095
▁改款	-15096
歌手	-15097
▁保管	-15098
▁车顶	-15099
▁齿	-15100
▁价格上涨	-15101
▁甘肃省	-15102
▁司马懿	-15103
▁来之不易	-15104
▁示意	-15105
▁螺旋	-15106
▁掐	-15107
▁前三	-15108
▁现代人	-15109
印象	-15110
▁TA	-15111
多云	-15112
▁左边	-15113
▁纵队	-15114
▁朋	-15115
▁嬴政	-15116
兰德	-15117
▁市场需求	-15118
▁鸡肉	-15119
▁顾虑	-15120
▁1930	-15121
.31	-15122
▁起火	-15123
▁通俗	-15124
▁棱	-15125
▁源源	-15126
▁俗语	-15127
▁界限	-15128
▁排骨	-15129
▁二维码	-15130
ppy	-15131
▁乐团	-15132
▁村干部	-15133
▁孕妈	-15134
▁张镇	-15135
▁抵挡	-15136
无法	-15137
▁笑脸	-15138
▁不值	-15139
▁汲	-15140
▁金子	-15141
▁领头	-15142
▁响起	-15143
▁韧性	-15144
▁第一期	-15145
▁上港	-15146
一动	-15147
▁蹦	-15148
▁九年	-15149
▁两面	-15150
▁小腿	-15151
▁棒球	-15152
▁沉闷	-15153
▁调理	-15154
▁毫不犹豫	-15155
▁AS	-15156
▁上位	-15157
▁胳	-15158
▁撑起	-15159
▁画像	-15160
▁反之	-15161
▁叮嘱	-15162
▁明清	-15163
▁心上	-15164
效应	-15165
▁玲珑	-15166
▁发改	-15167
▁风头	-15168
▁现时	-15169
▁笔下	-15170
▁大白	-15171
▁王先生	-15172
▁天猫	-15173
▁快报	-15174
ens	-15175
▁两张	-15176
▁扣押	-15177
▁交接	-15178
▁样品	-15179
形式	-15180
不堪	-15181
广播	-15182
▁新政	-15183
▁直属	-15184
▁天气预报	-15185
▁求婚	-15186
▁绝佳	-15187
▁顺位	-15188
▁述	-15189
▁归还	-15190
▁航行	-15191
▁恰到	-15192
▁花儿	-15193
▁贴近	-15194
▁看不起	-15195
▁高腰	-15196
▁拎	-15197
enn	-15198
▁控卫	-15199
▁万名	-15200
47	-15201
工委	-15202
▁休斯	-15203
▁笔试	-15204
41	-15205
▁尽量避免	-15206
▁急诊	-15207
▁滋润	-15208
▁房租	-15209
▁非常简单	-15210
▁不来	-15211
▁分担	-15212
▁显示器	-15213
▁捣	-15214
▁请勿	-15215
▁获批	-15216
比赛	-15217
▁爆棚	-15218
▁广大群众	-15219
▁随身	-15220
IA	-15221
▁联发科	-15222
▁尼奥	-15223
ina	-15224
▁鸿蒙	-15225
▁切勿	-15226
▁1975	-15227
▁因伤	-15228
▁太阳能	-15229
▁揪	-15230
璀璨	-15231
▁迪奥	-15232
▁小个子	-15233
电脑	-15234
▁伴有	-15235
▁止损	-15236
▁第一种	-15237
ire	-15238
▁顺着	-15239
兄弟	-15240
▁不争	-15241
▁赵薇	-15242
▁平庸	-15243
▁成渝	-15244
▁出新	-15245
神经	-15246
▁HS	-15247
▁1938	-15248
祖儿	-15249
▁监视	-15250
▁仅供参考	-15251
▁岩石	-15252
▁爱情故事	-15253
▁大雪	-15254
▁无声	-15255
▁倒闭	-15256
▁贺岁	-15257
▁短期内	-15258
▁埃弗	-15259
▁一侧	-15260
▁伦理	-15261
▁雨雪	-15262
▁中央军	-15263
▁楷	-15264
头来	-15265
▁王思聪	-15266
▁来得及	-15267
▁抗拒	-15268
▁冰川	-15269
▁杨紫	-15270
▁为人	-15271
▁集资	-15272
▁满意度	-15273
▁我来	-15274
无几	-15275
航天	-15276
▁坚定不移	-15277
▁WEY	-15278
▁可言	-15279
▁驾乘	-15280
▁内政	-15281
▁前女友	-15282
▁儒家	-15283
▁盛行	-15284
▁会诊	-15285
▁受贿	-15286
▁渊	-15287
▁后视	-15288
▁中后	-15289
▁地为	-15290
▁埃尔	-15291
29	-15292
▁庭院	-15293
▁菜品	-15294
▁吃喝	-15295
▁嚣	-15296
▁卫冕冠军	-15297
▁养活	-15298
▁望远镜	-15299
▁前世	-15300
▁悠久	-15301
49	-15302
中之	-15303
分局	-15304
▁可调	-15305
▁回味	-15306
▁最差	-15307
▁腕	-15308
▁尽全力	-15309
▁久久	-15310
▁时长	-15311
▁实属	-15312
▁下身	-15313
▁提质	-15314
▁tw	-15315
▁疏导	-15316
ouse	-15317
▁民营企业	-15318
▁三十年	-15319
▁本领	-15320
▁亿万	-15321
沃德	-15322
▁城墙	-15323
▁蜕变	-15324
▁朱棣	-15325
▁IS	-15326
▁前半	-15327
▁淄博	-15328
▁专业化	-15329
▁é	-15330
eno	-15331
▁参谋长	-15332
▁右边	-15333
▁流调	-15334
▁火烧	-15335
▁奥巴马	-15336
▁慵	-15337
▁不动产	-15338
▁观察者	-15339
▁生鲜	-15340
▁就会	-15341
好处	-15342
▁恰到好处	-15343
▁褒	-15344
▁SK	-15345
▁到手	-15346
▁朴实	-15347
▁势必会	-15348
▁一招	-15349
▁龙头企业	-15350
▁衣食	-15351
▁请问	-15352
▁骑手	-15353
▁家喻	-15354
露出	-15355
▁研讨	-15356
▁迟早	-15357
▁舱	-15358
▁也罢	-15359
户晓	-15360
▁客机	-15361
▁相近	-15362
▁医疗卫生	-15363
▁第三位	-15364
▁一团	-15365
▁副本	-15366
▁奇幻	-15367
不良	-15368
▁第十三	-15369
▁餐馆	-15370
▁伤势	-15371
▁运动感	-15372
不掉	-15373
89	-15374
ile	-15375
行政	-15376
▁晃	-15377
纤维	-15378
▁根本无法	-15379
▁第二代	-15380
▁家喻户晓	-15381
▁殴打	-15382
英雄	-15383
▁一曲	-15384
▁景气	-15385
▁无知	-15386
▁呐	-15387
▁本金	-15388
▁进取	-15389
▁常住人口	-15390
▁华泰	-15391
▁新陈	-15392
▁检出	-15393
▁新陈代谢	-15394
▁图中	-15395
▁差异化	-15396
▁宝石	-15397
▁斯诺	-15398
▁iOS	-15399
▁持仓	-15400
▁商报	-15401
▁刘伯	-15402
▁宣誓	-15403
▁周四	-15404
▁增进	-15405
▁沮丧	-15406
▁TF	-15407
▁各界	-15408
▁停下	-15409
理工	-15410
▁欠缺	-15411
▁梧	-15412
▁光泽	-15413
▁韬	-15414
▁油炸	-15415
胡子	-15416
▁红楼梦	-15417
▁机枪	-15418
ron	-15419
▁蚝油	-15420
▁漫漫	-15421
▁跨省	-15422
▁变现	-15423
▁援引	-15424
▁hans	-15425
43	-15426
▁光刻机	-15427
▁不舍	-15428
▁齐国	-15429
▁已成	-15430
▁忧伤	-15431
▁施压	-15432
▁百里	-15433
▁145	-15434
▁觅	-15435
▁时说	-15436
▁民办	-15437
▁陈赫	-15438
▁变换	-15439
▁解开	-15440
▁宫廷	-15441
▁二十三	-15442
▁副作用	-15443
▁第十四	-15444
▁理所当然	-15445
▁阳气	-15446
▁工作组	-15447
▁掉落	-15448
▁答卷	-15449
▁跟不上	-15450
▁谓	-15451
▁苟	-15452
▁辈	-15453
十足	-15454
▁结节	-15455
▁生态系统	-15456
▁瑟	-15457
▁迈克尔	-15458
▁凋	-15459
▁责任人	-15460
▁休假	-15461
▁一户	-15462
▁具体情况	-15463
▁并不大	-15464
▁洞察	-15465
▁皇宫	-15466
▁缩减	-15467
▁阴天	-15468
▁两座	-15469
丞丞	-15470
▁个子	-15471
▁显高	-15472
▁刑事责任	-15473
▁美颜	-15474
▁行使	-15475
▁即时	-15476
▁怀里	-15477
▁蕾丝	-15478
监督	-15479
MS	-15480
▁OS	-15481
▁体面	-15482
运行	-15483
▁气血	-15484
▁信访	-15485
▁切入	-15486
▁县市	-15487
▁流言	-15488
▁胃口	-15489
▁稳居	-15490
▁SH	-15491
▁小雪	-15492
go	-15493
▁宋代	-15494
▁敬佩	-15495
▁绘制	-15496
▁保监会	-15497
▁同曦	-15498
▁到场	-15499
▁by	-15500
▁生命力	-15501
▁现存	-15502
▁试验区	-15503
▁一派	-15504
▁奥林	-15505
▁交战	-15506
▁心痛	-15507
▁抗衡	-15508
▁中考	-15509
▁改良	-15510
▁毛利率	-15511
▁师长	-15512
▁必需	-15513
▁一届	-15514
▁糖果	-15515
▁雷军	-15516
MG	-15517
▁上司	-15518
▁捷达	-15519
▁李沁	-15520
▁追到	-15521
▁人脉	-15522
▁质地	-15523
▁滑动	-15524
▁不留	-15525
▁盛典	-15526
▁曾国藩	-15527
▁怂	-15528
▁特务	-15529
▁着眼	-15530
▁1952	-15531
▁秦朝	-15532
▁使人	-15533
军区	-15534
▁塌	-15535
▁背影	-15536
▁心仪	-15537
▁设想	-15538
▁冷门	-15539
▁食用油	-15540
▁老一辈	-15541
▁张镇麟	-15542
▁显而易	-15543
▁征信	-15544
▁艾瑞	-15545
▁方针	-15546
作战	-15547
▁刻苦	-15548
▁冯提	-15549
▁工信部	-15550
▁八月	-15551
▁参军	-15552
▁反过来	-15553
▁显而易见	-15554
▁迈出	-15555
▁几家	-15556
▁谐	-15557
▁红尘	-15558
房子	-15559
▁贩卖	-15560
▁老鹰队	-15561
▁遥遥	-15562
知道	-15563
▁首领	-15564
▁近半年	-15565
今日	-15566
▁难点	-15567
▁出卖	-15568
▁自卫	-15569
▁面孔	-15570
▁建模	-15571
▁管理人员	-15572
▁这批	-15573
▁义务教育	-15574
▁天价	-15575
▁宫中	-15576
▁食盐	-15577
▁烯	-15578
所欲	-15579
▁一帆	-15580
加哥	-15581
▁政变	-15582
▁AA	-15583
▁接过	-15584
▁肆虐	-15585
▁产妇	-15586
▁漠	-15587
▁宋美	-15588
▁金莎	-15589
▁宣讲	-15590
▁必有	-15591
▁星际	-15592
所述	-15593
▁心声	-15594
▁自古以来	-15595
一新	-15596
▁不在意	-15597
▁缔	-15598
▁打个	-15599
▁汇添富	-15600
▁太快	-15601
▁引力	-15602
▁水上	-15603
▁最高人民法院	-15604
总局	-15605
▁柒	-15606
一筹	-15607
▁仇恨	-15608
▁坐下	-15609
▁知识点	-15610
▁TC	-15611
▁恰当	-15612
▁大成	-15613
▁遍地	-15614
▁第三十	-15615
▁历时	-15616
州区	-15617
▁有事	-15618
▁炙	-15619
▁自立	-15620
▁部份	-15621
.57	-15622
▁无助	-15623
▁被子	-15624
▁这所	-15625
▁乒乓球	-15626
▁著作权	-15627
▁党史	-15628
.56	-15629
▁史蒂	-15630
▁心怀	-15631
▁瞒	-15632
▁公顷	-15633
▁头盔	-15634
▁一瓶	-15635
▁降幅	-15636
▁西路	-15637
▁外婆	-15638
▁特工	-15639
▁想象力	-15640
▁深耕	-15641
▁镇压	-15642
▁李云	-15643
▁国民经济	-15644
▁br	-15645
▁残留	-15646
▁公安分局	-15647
▁裁定	-15648
▁有待	-15649
▁使用者	-15650
▁人流	-15651
▁更让人	-15652
▁构筑	-15653
ork	-15654
▁大打	-15655
▁旱	-15656
▁不得而知	-15657
▁世界级	-15658
▁五位	-15659
▁主攻	-15660
▁数次	-15661
▁蟹	-15662
▁骗取	-15663
▁鲜活	-15664
▁炒房	-15665
斗争	-15666
▁枸	-15667
帷幕	-15668
▁填报	-15669
▁道教	-15670
ich	-15671
▁坪	-15672
▁悠悠	-15673
▁同龄人	-15674
▁佼	-15675
▁阶级	-15676
▁莫里	-15677
▁元朝	-15678
岁月	-15679
▁朝代	-15680
▁花絮	-15681
▁绞	-15682
▁发票	-15683
▁吸血	-15684
▁李鸿	-15685
▁在此	-15686
▁心事	-15687
▁粤港	-15688
▁模板	-15689
▁身形	-15690
▁冈	-15691
gel	-15692
▁叙事	-15693
▁边路	-15694
▁烧烤	-15695
▁不料	-15696
▁告终	-15697
▁算了	-15698
▁足坛	-15699
▁弯曲	-15700
▁现款	-15701
▁姥姥	-15702
▁敞开	-15703
ech	-15704
▁自发	-15705
▁尽管如此	-15706
▁犯下	-15707
▁总局	-15708
▁不顺	-15709
▁攻击力	-15710
▁无缝	-15711
▁曲折	-15712
▁明智	-15713
▁每逢	-15714
▁澳网	-15715
▁宽大	-15716
▁支架	-15717
▁婆家	-15718
▁球鞋	-15719
▁全价	-15720
▁尾巴	-15721
▁胳膊	-15722
▁青岛市	-15723
证书	-15724
▁get	-15725
▁周扬	-15726
▁起身	-15727
▁后视镜	-15728
▁老乡	-15729
▁大宗	-15730
▁遗留	-15731
▁不管怎么	-15732
▁暴击	-15733
▁生日快乐	-15734
▁近来	-15735
▁制片人	-15736
▁一职	-15737
▁大年三十	-15738
▁教科	-15739
▁促成	-15740
▁选取	-15741
▁刘涛	-15742
▁月台	-15743
▁用餐	-15744
▁老人家	-15745
▁扛起	-15746
▁极有	-15747
不在	-15748
▁do	-15749
▁踪	-15750
▁No	-15751
▁la	-15752
▁如此一来	-15753
▁湖泊	-15754
▁新台	-15755
▁代表团	-15756
▁妩	-15757
▁班长	-15758
小小	-15759
▁将士	-15760
▁塔图姆	-15761
▁下巴	-15762
▁175	-15763
▁嚣张	-15764
▁超前	-15765
▁OK	-15766
▁vs	-15767
▁内陆	-15768
▁宋美龄	-15769
▁天龙	-15770
▁农作物	-15771
▁佼佼	-15772
▁赚取	-15773
中学	-15774
▁礼包	-15775
▁四肢	-15776
▁管委会	-15777
▁在线教育	-15778
▁庄园	-15779
OC	-15780
出版	-15781
▁第二种	-15782
▁一趟	-15783
▁基数	-15784
▁芝加哥	-15785
▁璀璨	-15786
▁鞭炮	-15787
▁剃	-15788
▁根基	-15789
▁太强	-15790
▁至尊	-15791
▁2030	-15792
▁第二次世界大战	-15793
治理	-15794
▁出风	-15795
▁断裂	-15796
▁稚	-15797
▁汇总	-15798
▁追寻	-15799
▁段位	-15800
▁爱奇	-15801
▁创伤	-15802
▁霸王	-15803
▁第一条	-15804
▁破碎	-15805
▁成功率	-15806
▁霞	-15807
▁学问	-15808
▁高三	-15809
▁最新消息	-15810
▁一栋	-15811
▁美妙	-15812
▁降至	-15813
▁看得出	-15814
▁整部	-15815
▁IN	-15816
▁举例	-15817
▁放宽	-15818
▁瑕疵	-15819
▁撕裂	-15820
▁辩护	-15821
▁负面影响	-15822
▁辰	-15823
▁MS	-15824
▁文本	-15825
▁老总	-15826
▁脱落	-15827
科大学	-15828
▁制程	-15829
▁参战	-15830
▁酒驾	-15831
▁满怀	-15832
▁卖点	-15833
▁时至今日	-15834
▁摸排	-15835
▁被判	-15836
▁佼佼者	-15837
▁化为	-15838
▁村落	-15839
▁裙摆	-15840
▁强有力	-15841
招呼	-15842
▁拉斯	-15843
作业	-15844
▁世界卫生	-15845
进展	-15846
全国	-15847
▁四面	-15848
▁海沃德	-15849
▁杨钰	-15850
▁大为	-15851
▁再现	-15852
明珠	-15853
▁两颗	-15854
▁公募	-15855
▁编写	-15856
OSS	-15857
▁辱	-15858
▁耶稣	-15859
▁电子产品	-15860
第一	-15861
▁油脂	-15862
▁马德里	-15863
▁深陷	-15864
▁浙江队	-15865
▁数十年	-15866
软件	-15867
▁乖乖	-15868
▁He	-15869
▁另类	-15870
▁蚊	-15871
▁筑牢	-15872
▁聘请	-15873
▁返还	-15874
▁骚扰	-15875
▁杨过	-15876
▁进门	-15877
▁史莱	-15878
▁一楼	-15879
▁大连市	-15880
▁头晕	-15881
▁Ne	-15882
▁共产	-15883
▁在此期间	-15884
▁多款	-15885
▁大夫	-15886
▁有效性	-15887
动力	-15888
▁婚纱	-15889
▁带入	-15890
▁不进	-15891
▁农药	-15892
▁转而	-15893
▁怎能	-15894
▁演习	-15895
▁窘	-15896
▁花开	-15897
▁天赐	-15898
▁心肌	-15899
▁上单	-15900
▁图形	-15901
▁整顿	-15902
▁杨钰莹	-15903
▁亚特兰大	-15904
▁哒	-15905
▁朱德	-15906
▁辞去	-15907
▁70.0	-15908
花开	-15909
▁改建	-15910
▁方正	-15911
▁贯通	-15912
历史上	-15913
▁一帆风	-15914
▁在历史上	-15915
▁反腐	-15916
▁下课	-15917
▁操心	-15918
▁暴跌	-15919
▁埃弗顿	-15920
▁155	-15921
▁群岛	-15922
▁大豆	-15923
▁闯入	-15924
▁放射	-15925
▁一代人	-15926
玩家	-15927
▁1941	-15928
▁手枪	-15929
▁零件	-15930
▁增加值	-15931
▁可疑	-15932
▁词语	-15933
▁戈贝尔	-15934
▁宝玉	-15935
致富	-15936
▁白白	-15937
▁门户	-15938
▁年轻化	-15939
▁公分	-15940
▁搞定	-15941
▁450	-15942
▁涌入	-15943
▁商用	-15944
▁储物	-15945
▁生殖	-15946
▁过量	-15947
▁国资	-15948
心理	-15949
▁职称	-15950
儿童	-15951
▁查找	-15952
▁开销	-15953
密度	-15954
▁七月	-15955
▁单方面	-15956
▁拉蒙德	-15957
而过	-15958
▁1972	-15959
▁中奖	-15960
▁追击	-15961
▁天皇	-15962
orld	-15963
▁改编自	-15964
▁普通话	-15965
▁看吧	-15966
▁仲裁	-15967
▁科室	-15968
▁全面落实	-15969
语言	-15970
▁追剧	-15971
▁传送	-15972
▁全军	-15973
▁抢劫	-15974
▁玛哈	-15975
▁一帆风顺	-15976
▁剂量	-15977
▁友人	-15978
▁脾胃	-15979
▁金币	-15980
▁执业	-15981
▁知乎	-15982
▁花纹	-15983
▁说唱	-15984
▁菊花	-15985
▁史记	-15986
▁放不下	-15987
▁翻倍	-15988
▁好日子	-15989
▁因果	-15990
▁重塑	-15991
不成	-15992
百万	-15993
▁阔腿	-15994
▁东吴	-15995
▁年产	-15996
▁书房	-15997
▁驻车	-15998
▁1951	-15999
▁孤立	-16000
▁钩	-16001
观点	-16002
▁抉	-16003
▁总得	-16004
▁要不然	-16005
▁多发	-16006
▁汤圆	-16007
▁表现出色	-16008
▁登基	-16009
▁强壮	-16010
▁快捷	-16011
▁股本	-16012
▁卡拉	-16013
▁小球	-16014
▁短裤	-16015
▁1953	-16016
▁哥伦比亚	-16017
▁屁股	-16018
▁专人	-16019
▁单车	-16020
▁枸杞	-16021
▁嬉	-16022
▁台车	-16023
▁电流	-16024
▁美满	-16025
▁第三季度	-16026
▁复发	-16027
▁海峡	-16028
▁名号	-16029
▁范丞丞	-16030
潜艇	-16031
▁产地	-16032
▁伊万	-16033
▁飞速	-16034
▁公开赛	-16035
▁倒下	-16036
▁引爆	-16037
▁二手车	-16038
▁兄弟姐妹	-16039
▁开发者	-16040
EN	-16041
▁充斥	-16042
▁衣柜	-16043
▁唾	-16044
▁此生	-16045
▁流向	-16046
▁何炅	-16047
▁悲哀	-16048
▁氮	-16049
ide	-16050
▁农田	-16051
▁带娃	-16052
▁鲨鱼	-16053
▁平底	-16054
▁债权人	-16055
▁氯	-16056
▁祈祷	-16057
▁昏迷	-16058
▁无数次	-16059
▁林心	-16060
▁打铁	-16061
▁洛瑞	-16062
▁NAS	-16063
▁月销量	-16064
oss	-16065
▁问世	-16066
▁卸任	-16067
▁沙滩	-16068
▁降级	-16069
▁进一步提高	-16070
ram	-16071
▁寥寥	-16072
▁巴塞	-16073
▁每经	-16074
许可	-16075
▁面对面	-16076
▁最起	-16077
▁让玩家	-16078
▁质问	-16079
▁出装	-16080
▁旁人	-16081
▁气愤	-16082
83	-16083
拇指	-16084
▁接入	-16085
▁颤	-16086
▁敏锐	-16087
▁马里	-16088
▁世界卫生组织	-16089
▁分量	-16090
本上	-16091
▁最起码	-16092
小心	-16093
▁情谊	-16094
▁拉升	-16095
▁老爸	-16096
IT	-16097
▁爱护	-16098
▁废物	-16099
▁没见	-16100
▁这组	-16101
▁兼任	-16102
▁第三阶段	-16103
▁物件	-16104
▁阖	-16105
▁两委	-16106
▁万余元	-16107
▁并不知道	-16108
▁始终保持	-16109
小编	-16110
▁电视机	-16111
▁山路	-16112
▁赫尔	-16113
▁联合会	-16114
▁坏人	-16115
▁移送	-16116
▁新版	-16117
▁老头	-16118
▁管理制度	-16119
▁维拉	-16120
▁丑闻	-16121
户户	-16122
▁春日	-16123
▁称作	-16124
▁临沂	-16125
选举	-16126
园区	-16127
▁工伤	-16128
▁渡过	-16129
▁欠薪	-16130
▁西拉	-16131
前景	-16132
得多	-16133
▁接替	-16134
比分	-16135
▁听听	-16136
▁潍坊	-16137
▁自知	-16138
▁孟晚	-16139
▁香菇	-16140
▁乡亲	-16141
▁应适	-16142
▁会为	-16143
▁地段	-16144
职人员	-16145
▁家家户户	-16146
▁谅	-16147
▁出海	-16148
▁消费品	-16149
▁身体状况	-16150
▁容器	-16151
▁严厉打击	-16152
▁内核	-16153
▁雇佣	-16154
▁应适当	-16155
▁社会各	-16156
▁回过	-16157
▁商铺	-16158
▁红灯	-16159
▁邂	-16160
▁UF	-16161
疫苗	-16162
▁魁	-16163
▁大熊	-16164
▁归根	-16165
▁产业化	-16166
▁很漂亮	-16167
▁张文	-16168
▁火炮	-16169
▁幼稚	-16170
▁一集	-16171
▁劝阻	-16172
▁淡定	-16173
▁增设	-16174
糊涂	-16175
▁继位	-16176
ish	-16177
▁前列腺	-16178
红俊	-16179
▁黄瓜	-16180
▁RS	-16181
▁纯净	-16182
▁一不小心	-16183
▁胖子	-16184
▁社会各界	-16185
▁核潜艇	-16186
▁源源不断	-16187
OR	-16188
▁高频	-16189
▁八大	-16190
▁本该	-16191
一切	-16192
观念	-16193
▁精彩内容	-16194
▁澜	-16195
▁水稻	-16196
▁巖	-16197
▁Co	-16198
▁急剧	-16199
▁使者	-16200
▁后防	-16201
▁即位	-16202
▁发泄	-16203
洋洋	-16204
▁天眼	-16205
▁不出意外	-16206
▁潜伏	-16207
▁MV	-16208
▁尼斯	-16209
▁确切	-16210
▁精细化	-16211
▁引种	-16212
▁弹道导弹	-16213
美金	-16214
▁专案	-16215
▁公公	-16216
▁幸福美	-16217
▁英国人	-16218
▁初一	-16219
▁分流	-16220
▁轮圈	-16221
怎样	-16222
▁TS	-16223
▁嵌入	-16224
▁愧疚	-16225
▁贝弗	-16226
▁误区	-16227
▁另一边	-16228
▁举个	-16229
▁倪萍	-16230
▁进驻	-16231
▁各路	-16232
▁葬礼	-16233
▁山坡	-16234
▁普攻	-16235
▁两项	-16236
▁乌鲁	-16237
▁县政府	-16238
▁不在少数	-16239
▁综合体	-16240
▁琢	-16241
▁顺水	-16242
gy	-16243
▁第一阶段	-16244
▁数据中心	-16245
▁最难	-16246
▁比喻	-16247
▁轮流	-16248
▁返场	-16249
▁畏惧	-16250
▁核桃	-16251
▁积雪	-16252
▁打游戏	-16253
不忘	-16254
▁保洁	-16255
▁麻醉	-16256
特区	-16257
合理	-16258
▁就是说	-16259
▁充值	-16260
▁匠	-16261
▁国务卿	-16262
▁前言	-16263
▁卡斯	-16264
▁颈部	-16265
▁理查	-16266
▁部件	-16267
▁内有	-16268
▁公然	-16269
▁霉	-16270
▁大体	-16271
▁方程	-16272
▁人才培养	-16273
▁貌似	-16274
▁假日	-16275
ence	-16276
▁美誉	-16277
▁之声	-16278
▁ap	-16279
▁人要	-16280
▁茅台酒	-16281
▁世界冠军	-16282
▁不计	-16283
▁有毒	-16284
▁赌场	-16285
OT	-16286
▁闪烁	-16287
▁直到现在	-16288
ET	-16289
▁等同	-16290
▁大满	-16291
▁骚乱	-16292
▁超车	-16293
▁卡特	-16294
▁165	-16295
▁抠	-16296
▁高雄	-16297
▁烙	-16298
▁每场	-16299
▁直达	-16300
▁粤港澳	-16301
▁我心	-16302
▁口红	-16303
▁年幼	-16304
▁淡水	-16305
▁开水	-16306
▁违规行为	-16307
▁毗	-16308
▁雪山	-16309
▁挺身	-16310
▁牵扯	-16311
▁大本	-16312
▁小林	-16313
▁饥饿	-16314
▁狱	-16315
▁把握住	-16316
▁冯巩	-16317
anc	-16318
▁南站	-16319
.54	-16320
晓川	-16321
▁扎堆	-16322
▁更进一步	-16323
▁赵露思	-16324
▁VR	-16325
▁掰	-16326
▁功耗	-16327
▁米饭	-16328
▁公尺	-16329
▁第五次	-16330
▁分娩	-16331
▁林心如	-16332
▁多处	-16333
▁止血	-16334
▁大满贯	-16335
▁查尔斯	-16336
▁劳累	-16337
▁腊肉	-16338
▁高发	-16339
▁迄今为止	-16340
▁不屑	-16341
▁老兵	-16342
▁校外	-16343
▁司令部	-16344
▁枯燥	-16345
▁控球	-16346
▁这两	-16347
▁绛	-16348
▁坤	-16349
▁准时	-16350
▁敦煌	-16351
▁场次	-16352
▁仕	-16353
▁减免	-16354
▁光电	-16355
.53	-16356
▁封神	-16357
▁求生	-16358
小刚	-16359
▁腊八	-16360
▁噩梦	-16361
▁庶	-16362
▁可知	-16363
▁当着	-16364
▁弗里	-16365
▁抉择	-16366
▁血脉	-16367
▁栗	-16368
▁楼层	-16369
太大	-16370
▁几部	-16371
▁各行	-16372
▁呼声	-16373
▁建档	-16374
▁倔强	-16375
▁战时	-16376
▁卫生院	-16377
▁戍	-16378
▁紧随	-16379
▁老戏	-16380
▁包子	-16381
所能	-16382
▁地道	-16383
▁年级	-16384
▁旅居	-16385
▁背上	-16386
▁奔腾	-16387
▁脱口秀	-16388
▁人行	-16389
▁经查	-16390
▁贝弗利	-16391
▁选秀权	-16392
▁对口	-16393
▁洋溢	-16394
▁霸权	-16395
▁哈利	-16396
▁问到	-16397
▁1956	-16398
▁袁姗姗	-16399
▁通知书	-16400
协议	-16401
▁角度看	-16402
周期	-16403
▁体贴	-16404
学生	-16405
▁砥	-16406
风格	-16407
▁几十万	-16408
执行人	-16409
▁被执行人	-16410
▁实物	-16411
▁相依	-16412
▁高涨	-16413
▁地向	-16414
▁金融服务	-16415
此以	-16416
▁日均	-16417
▁马红俊	-16418
▁息息	-16419
▁为数不多	-16420
▁征求意见	-16421
泰山	-16422
▁苦恼	-16423
▁这事	-16424
▁全资	-16425
▁本届	-16426
▁熟人	-16427
▁海南省	-16428
▁1973	-16429
▁禁忌	-16430
斯曼	-16431
▁血栓	-16432
▁挚	-16433
▁惠州	-16434
▁何鸿	-16435
▁巴尔	-16436
足联	-16437
▁一米	-16438
IF	-16439
.51	-16440
▁一站式	-16441
▁夹克衫	-16442
▁铁矿	-16443
▁上个世纪	-16444
▁225	-16445
▁醇	-16446
▁斋	-16447
▁评委	-16448
▁剪裁	-16449
▁表决	-16450
▁那份	-16451
▁动物园	-16452
▁需求量	-16453
▁东路	-16454
▁大棚	-16455
▁各县	-16456
▁除恶	-16457
▁长春市	-16458
▁510	-16459
▁清算	-16460
▁Facebook	-16461
▁行者	-16462
▁分数线	-16463
▁糕	-16464
▁1962	-16465
尔顿	-16466
▁养老院	-16467
▁城镇化	-16468
▁1100	-16469
▁符合条件	-16470
▁提速	-16471
▁偏好	-16472
表现	-16473
▁报酬	-16474
▁偶像剧	-16475
▁石化	-16476
▁倒地	-16477
▁剧院	-16478
▁排球	-16479
▁汉兰达	-16480
▁辛丑	-16481
▁缩影	-16482
▁邂逅	-16483
▁大增	-16484
▁编程	-16485
▁1942	-16486
▁保温	-16487
▁矫正	-16488
▁蒋南	-16489
▁变种	-16490
▁聆听	-16491
▁迟到	-16492
▁城市群	-16493
▁狐狸	-16494
▁遗迹	-16495
合金	-16496
▁胤	-16497
▁对冲	-16498
▁开好	-16499
▁121	-16500
道路	-16501
▁中单	-16502
▁惯例	-16503
▁埋怨	-16504
▁放缓	-16505
▁所示	-16506
▁大户	-16507
▁纯洁	-16508
▁科技股	-16509
▁纲要	-16510
▁老戏骨	-16511
▁常州	-16512
▁善待	-16513
▁现金流	-16514
way	-16515
▁试卷	-16516
▁首府	-16517
米兰	-16518
▁战舰	-16519
▁洋葱	-16520
▁抨	-16521
▁二百	-16522
▁心存	-16523
▁世事	-16524
▁牌照	-16525
▁尾声	-16526
ance	-16527
▁价钱	-16528
▁魏无	-16529
▁济南市	-16530
▁据此	-16531
▁油菜	-16532
▁接班人	-16533
良好	-16534
▁杜甫	-16535
▁256	-16536
▁开朗	-16537
▁西海	-16538
称号	-16539
▁不得已	-16540
▁实施方案	-16541
▁大明	-16542
▁那句话	-16543
▁掌声	-16544
son	-16545
▁人去	-16546
▁落叶	-16547
大楼	-16548
▁曙光	-16549
▁粗糙	-16550
▁算计	-16551
▁审视	-16552
▁难看	-16553
晚会	-16554
▁院区	-16555
▁首部	-16556
▁中国足	-16557
▁绑定	-16558
▁何种	-16559
▁西北风	-16560
▁调皮	-16561
▁大清	-16562
白色	-16563
▁暴雪	-16564
▁杀青	-16565
▁汕头	-16566
▁RC	-16567
▁不买	-16568
▁史书	-16569
▁横扫	-16570
▁亲民	-16571
亚轩	-16572
▁商业模式	-16573
__	-16574
▁之手	-16575
▁精明	-16576
▁总和	-16577
▁特权	-16578
▁站立	-16579
ite	-16580
▁上空	-16581
▁可笑	-16582
▁固有	-16583
▁查出	-16584
▁求学	-16585
▁辛勤	-16586
浩特	-16587
▁宁王	-16588
▁强强	-16589
▁摄氏	-16590
▁100.0	-16591
▁画质	-16592
▁赶来	-16593
▁医疗保险	-16594
▁炮兵	-16595
▁佣	-16596
▁西南风	-16597
▁无从	-16598
▁礼品	-16599
▁魏无羡	-16600
▁大大小小	-16601
▁布鲁克	-16602
▁经济学家	-16603
▁决定性	-16604
条例	-16605
▁有位	-16606
▁野战军	-16607
▁政协委员	-16608
▁深思	-16609
▁抨击	-16610
▁1927	-16611
▁专栏	-16612
▁漫步	-16613
▁SZ	-16614
班子	-16615
▁掩饰	-16616
▁彩排	-16617
▁红烧	-16618
▁罗伯特	-16619
▁不相	-16620
▁两市	-16621
▁宗旨	-16622
▁吃饱	-16623
▁太监	-16624
紫棋	-16625
▁偏远	-16626
▁魔鬼	-16627
▁药业	-16628
▁随风	-16629
▁解脱	-16630
▁大结	-16631
▁谩	-16632
▁同居	-16633
▁奇特	-16634
▁捷豹	-16635
▁隐蔽	-16636
肚子	-16637
▁报案	-16638
▁磨难	-16639
▁数据分析	-16640
▁发脾气	-16641
▁惦	-16642
▁淡淡的	-16643
▁邓紫棋	-16644
▁贫困人口	-16645
▁不缺	-16646
▁have	-16647
▁不许	-16648
▁终将	-16649
▁贞	-16650
▁出征	-16651
▁创业者	-16652
▁国际米兰	-16653
▁张爱	-16654
▁大结局	-16655
▁息息相关	-16656
▁通关	-16657
▁悬浮式	-16658
▁4500	-16659
▁一岁	-16660
▁万科	-16661
有成	-16662
▁外汇	-16663
中之重	-16664
▁重中之重	-16665
▁颐	-16666
▁区增	-16667
▁手脚	-16668
▁中小学生	-16669
▁重仓	-16670
▁畸形	-16671
达尔	-16672
▁完好	-16673
▁就职典礼	-16674
▁位移	-16675
▁虚伪	-16676
实现	-16677
▁大儿子	-16678
▁古今	-16679
▁借用	-16680
▁猝死	-16681
▁何超	-16682
▁经开	-16683
▁郎平	-16684
特色	-16685
▁大额	-16686
▁西安市	-16687
▁陕北	-16688
▁叙述	-16689
▁交集	-16690
▁焯	-16691
▁负值	-16692
钟情	-16693
不相同	-16694
▁一见钟情	-16695
▁猛龙队	-16696
▁风范	-16697
▁巴特勒	-16698
▁吉尔	-16699
▁1964	-16700
▁妩媚	-16701
▁Pr	-16702
▁硬核	-16703
▁收受	-16704
▁民用	-16705
▁被盗	-16706
▁地级市	-16707
▁卵巢	-16708
▁踏入	-16709
▁不言而	-16710
▁固执	-16711
▁下台	-16712
▁此番	-16713
▁潮湿	-16714
▁乃是	-16715
▁身家	-16716
▁福德	-16717
▁站上	-16718
▁孙侨	-16719
▁支部	-16720
▁路透社	-16721
▁二氧化碳	-16722
电路	-16723
▁克罗	-16724
▁百合	-16725
▁可比	-16726
▁放学	-16727
▁1935	-16728
▁张云	-16729
▁落魄	-16730
▁工银	-16731
公主	-16732
手术	-16733
▁平定	-16734
▁装配	-16735
▁会谈	-16736
▁屋里	-16737
学金	-16738
▁抵抗力	-16739
▁余名	-16740
▁降噪	-16741
▁星辰	-16742
流域	-16743
▁中网	-16744
自由	-16745
▁盼望	-16746
▁随心	-16747
pt	-16748
▁电影节	-16749
▁密封	-16750
▁默默地	-16751
▁常有	-16752
▁整场	-16753
▁福田	-16754
▁副总经理	-16755
▁二十五	-16756
▁生产力	-16757
▁一跃	-16758
▁属相	-16759
▁常驻	-16760
校长	-16761
勒斯	-16762
▁迅猛	-16763
▁邯郸	-16764
训练	-16765
▁月薪	-16766
▁点券	-16767
▁经商	-16768
▁滩	-16769
▁党和	-16770
▁小车	-16771
▁蠢	-16772
▁诚实	-16773
▁文物保护	-16774
▁005	-16775
▁不言而喻	-16776
▁赏识	-16777
▁前瞻	-16778
▁批复	-16779
▁蚕	-16780
▁株洲	-16781
▁略微	-16782
▁鲁班	-16783
所为	-16784
▁多出	-16785
▁代号	-16786
▁居高	-16787
▁第二部	-16788
▁草地	-16789
▁绝不会	-16790
▁1969	-16791
▁ON	-16792
▁飒	-16793
▁打招呼	-16794
▁智库	-16795
▁Not	-16796
▁张艺兴	-16797
▁动力电池	-16798
▁一抹	-16799
▁学士	-16800
▁节日期间	-16801
▁安逸	-16802
▁骗局	-16803
▁枪支	-16804
▁万剂	-16805
▁不太可能	-16806
宁市	-16807
▁梅奥	-16808
▁并发症	-16809
▁衫裤	-16810
▁战乱	-16811
▁河西	-16812
▁客家	-16813
▁海盗	-16814
▁预估	-16815
▁小黑	-16816
▁3500	-16817
▁恼	-16818
▁个人观点	-16819
▁金华	-16820
▁妊	-16821
▁预热	-16822
▁笃	-16823
建议	-16824
木齐	-16825
▁吃不	-16826
▁宫殿	-16827
▁翟晓川	-16828
▁阿联酋	-16829
外交	-16830
▁瘫痪	-16831
▁张女士	-16832
▁独具	-16833
▁克洛	-16834
▁如来	-16835
▁中日	-16836
▁落入	-16837
▁所处	-16838
▁蜀汉	-16839
▁144	-16840
千万	-16841
▁集团军	-16842
▁乌鲁木齐	-16843
▁盲盒	-16844
▁教练组	-16845
▁梦境	-16846
安娜	-16847
▁打折	-16848
▁体育场	-16849
嘉伦	-16850
▁之星	-16851
▁可信	-16852
▁测评	-16853
应用	-16854
▁南美	-16855
▁着陆	-16856
▁1977	-16857
▁谦虚	-16858
▁小儿子	-16859
勃勃	-16860
▁汤姆	-16861
▁闲置	-16862
保健	-16863
▁张杰	-16864
▁末年	-16865
▁从业者	-16866
▁炮弹	-16867
▁宜着	-16868
▁张伯	-16869
▁我区	-16870
▁何鸿燊	-16871
▁昊天	-16872
▁沿途	-16873
▁孙艺	-16874
▁浮现	-16875
▁全家人	-16876
▁姐弟	-16877
▁广为	-16878
▁山药	-16879
▁春暖	-16880
▁贪污	-16881
▁白雪	-16882
▁奥林匹	-16883
▁绅	-16884
▁孙兴	-16885
▁渤海	-16886
▁任嘉伦	-16887
▁啼	-16888
▁台海	-16889
▁染色	-16890
▁健康状况	-16891
▁南路	-16892
▁薛之	-16893
▁领口	-16894
▁第十一	-16895
tra	-16896
▁马克思主义	-16897
▁公办	-16898
▁冲洗	-16899
▁晏	-16900
波罗	-16901
▁天性	-16902
▁本着	-16903
▁祛	-16904
▁万象	-16905
▁公证	-16906
▁市县	-16907
▁震动	-16908
az	-16909
食品	-16910
气囊	-16911
▁漫威	-16912
▁心脑	-16913
▁春光	-16914
▁别样	-16915
▁开打	-16916
▁民意	-16917
▁扫地	-16918
▁入狱	-16919
▁行政拘留	-16920
▁死亡率	-16921
▁厂房	-16922
▁弊端	-16923
▁组长	-16924
▁李鸿章	-16925
▁关乎	-16926
▁圣经	-16927
交道	-16928
▁终生	-16929
方面面	-16930
▁方方面面	-16931
▁大开	-16932
▁贝宁	-16933
▁心机	-16934
▁上个月	-16935
▁封号	-16936
▁厨师	-16937
▁龙门	-16938
▁辩论	-16939
▁清政府	-16940
▁战神	-16941
▁限于	-16942
▁法制	-16943
▁工业化	-16944
▁大象	-16945
▁跟风	-16946
中国家	-16947
▁发展中国家	-16948
▁大将军	-16949
▁伸手	-16950
▁菜市场	-16951
▁FMVP	-16952
▁吼	-16953
▁秘诀	-16954
▁郊区	-16955
▁偏差	-16956
▁中国人民解放军	-16957
▁1974	-16958
年龄	-16959
▁风貌	-16960
▁之家	-16961
榴弹	-16962
▁要不是	-16963
▁汽车品牌	-16964
佩斯	-16965
▁投中	-16966
▁网页	-16967
▁放在心	-16968
▁莆	-16969
自在	-16970
▁证监会	-16971
▁荣誉称号	-16972
▁浦东	-16973
▁积攒	-16974
▁窑	-16975
而生	-16976
▁投影	-16977
▁注销	-16978
▁艾琳	-16979
▁黄海	-16980
CI	-16981
▁男团	-16982
▁能见	-16983
▁陈述	-16984
▁一分钱	-16985
▁感应	-16986
实地	-16987
到大	-16988
▁地主	-16989
▁生计	-16990
▁官司	-16991
▁悼	-16992
场合	-16993
▁中秋	-16994
▁桌面	-16995
得住	-16996
▁真人秀	-16997
▁简历	-16998
▁铺垫	-16999
▁污染物	-17000
▁全开	-17001
▁物理学	-17002
▁四级	-17003
▁空前	-17004
▁出锅	-17005
▁三期	-17006
▁不良反应	-17007
▁交织	-17008
▁光阴	-17009
▁并肩	-17010
丽娅	-17011
▁收复	-17012
▁管理者	-17013
▁脚踏实地	-17014
▁首播	-17015
▁粗暴	-17016
▁红枣	-17017
▁BI	-17018
▁南京市	-17019
不讳	-17020
▁李湘	-17021
▁韦少	-17022
▁红外	-17023
▁结晶	-17024
▁控制中心	-17025
▁削减	-17026
▁宴会	-17027
▁ET	-17028
▁1965	-17029
▁阻断	-17030
▁预留	-17031
▁屡次	-17032
▁念念	-17033
▁双脚	-17034
幸福	-17035
▁发改委	-17036
适量	-17037
▁捆绑	-17038
▁这回	-17039
▁GPU	-17040
▁两级	-17041
▁狂欢	-17042
▁用以	-17043
▁资历	-17044
▁过时	-17045
▁情理	-17046
▁接送	-17047
▁冶	-17048
▁中式	-17049
▁无用	-17050
▁索要	-17051
▁谈起	-17052
▁菜单	-17053
▁晶体	-17054
▁篇章	-17055
▁拉近	-17056
▁主动权	-17057
▁1971	-17058
▁喜事	-17059
▁大本营	-17060
▁时时	-17061
▁西服	-17062
▁暗中	-17063
wit	-17064
▁北洋	-17065
▁命题	-17066
▁游走	-17067
▁华商	-17068
▁山脉	-17069
▁致癌	-17070
▁慷	-17071
十五	-17072
ph	-17073
▁方可	-17074
uff	-17075
RO	-17076
▁早盘	-17077
▁个省	-17078
▁吸气	-17079
▁山村	-17080
▁手腕	-17081
润发	-17082
▁安全气囊	-17083
▁杰克逊	-17084
▁1966	-17085
▁人寿	-17086
不定	-17087
群岛	-17088
▁丰收	-17089
▁分发	-17090
▁发来	-17091
▁无条件	-17092
▁1920	-17093
▁围攻	-17094
▁停车位	-17095
▁一等	-17096
▁融洽	-17097
▁大力支持	-17098
82	-17099
▁宣言	-17100
▁花瓣	-17101
米尔	-17102
频道	-17103
VID	-17104
▁局地	-17105
▁基石	-17106
▁干警	-17107
▁强奸	-17108
▁狂热	-17109
▁解约	-17110
▁方位	-17111
▁孔雀	-17112
▁高峰期	-17113
▁中国足协	-17114
▁四海	-17115
▁脸蛋	-17116
▁载人	-17117
▁乐器	-17118
▁排片	-17119
▁满天	-17120
▁船员	-17121
▁麻花	-17122
▁崇高	-17123
▁组织部	-17124
▁下功夫	-17125
土地	-17126
age	-17127
▁那会	-17128
▁运动鞋	-17129
▁画画	-17130
▁嘿	-17131
▁费城	-17132
▁大洋	-17133
▁如若	-17134
▁干事	-17135
▁昆仑	-17136
▁写信	-17137
▁并存	-17138
▁战区	-17139
▁主食	-17140
▁定向	-17141
▁名牌	-17142
▁挑起	-17143
▁格格	-17144
▁篡	-17145
▁切割	-17146
▁邪恶	-17147
▁知识分子	-17148
▁泰特	-17149
▁短短的	-17150
▁大美	-17151
▁林徽	-17152
▁国脚	-17153
▁技术人员	-17154
▁巡察	-17155
▁贪婪	-17156
▁狩	-17157
▁动车	-17158
▁老王	-17159
▁参议员	-17160
ail	-17161
▁总人口	-17162
▁廉洁	-17163
▁准则	-17164
▁狡	-17165
▁孰	-17166
▁小结	-17167
▁长文	-17168
▁格里芬	-17169
▁母婴	-17170
▁私自	-17171
▁调和	-17172
▁天窗	-17173
▁稿件	-17174
▁1959	-17175
▁矿工	-17176
▁赫赫	-17177
▁那般	-17178
▁海贼王	-17179
▁成家	-17180
▁129	-17181
▁南安	-17182
▁流淌	-17183
▁but	-17184
▁布里	-17185
▁公婆	-17186
▁仙人	-17187
▁意识形态	-17188
▁宇航员	-17189
▁Rob	-17190
▁关口	-17191
▁魏国	-17192
▁王安	-17193
▁换乘	-17194
分明	-17195
▁西侧	-17196
▁百货	-17197
▁怀旧	-17198
▁隐秘	-17199
low	-17200
▁首场	-17201
▁1944	-17202
▁大运	-17203
▁显眼	-17204
▁简易	-17205
▁含金	-17206
▁意境	-17207
▁月末	-17208
▁观望	-17209
▁芙蓉	-17210
▁皖	-17211
▁陈毅	-17212
▁牌子	-17213
▁违和	-17214
▁欺诈	-17215
▁置于	-17216
▁接力	-17217
▁晚餐	-17218
▁下单	-17219
▁小行星	-17220
▁林徽因	-17221
▁绥化市	-17222
▁权限	-17223
高兴	-17224
▁本性	-17225
▁背靠	-17226
▁踢球	-17227
费用	-17228
ner	-17229
▁爱过	-17230
▁孤儿	-17231
▁周日	-17232
巧巧	-17233
▁云端	-17234
扬扬	-17235
▁上岸	-17236
▁记者会	-17237
▁发展趋势	-17238
▁芬兰	-17239
▁兆	-17240
▁极好	-17241
▁非常容易	-17242
▁厂长	-17243
▁跨国	-17244
▁1936	-17245
▁鄙	-17246
不平	-17247
▁草木	-17248
▁挤压	-17249
▁抒	-17250
爱好	-17251
▁身着	-17252
▁嗜	-17253
▁违者	-17254
▁320	-17255
▁原定	-17256
▁龙王	-17257
▁做梦	-17258
▁精髓	-17259
▁发福	-17260
▁驯	-17261
▁应聘	-17262
▁车里	-17263
▁内向	-17264
▁格子	-17265
▁隔空	-17266
▁挺身而出	-17267
健全	-17268
▁战略性	-17269
▁在建	-17270
▁实习生	-17271
▁涅	-17272
▁THE	-17273
▁闪光	-17274
忽视	-17275
▁祝贺	-17276
河市	-17277
▁婚前	-17278
▁双色	-17279
▁妊娠	-17280
▁棉花	-17281
▁征途	-17282
电视台	-17283
▁使用权	-17284
▁宰相	-17285
▁纪念馆	-17286
▁从那	-17287
▁逆势	-17288
▁春夏	-17289
▁猜想	-17290
▁灯火	-17291
▁论证	-17292
丽莎	-17293
▁稳稳	-17294
▁肩负	-17295
▁祖父	-17296
▁幸福生活	-17297
▁出击	-17298
▁率队	-17299
▁跨过	-17300
▁传给	-17301
▁风气	-17302
▁弥漫	-17303
▁撒娇	-17304
▁丁俊	-17305
▁堡垒	-17306
▁亚当斯	-17307
▁Reno	-17308
大笑	-17309
▁市内	-17310
▁薛之谦	-17311
▁综上所述	-17312
▁法学	-17313
▁衰退	-17314
▁魔兽	-17315
▁约瑟	-17316
▁里边	-17317
▁服务区	-17318
▁愚蠢	-17319
▁磅	-17320
▁更衣	-17321
▁III	-17322
▁新风	-17323
▁有点像	-17324
电器	-17325
▁片子	-17326
▁飞翔	-17327
▁款项	-17328
▁吉他	-17329
▁舍弃	-17330
▁术后	-17331
▁氨基	-17332
开心	-17333
▁金巧巧	-17334
ock	-17335
▁宦	-17336
▁著称	-17337
▁三农	-17338
▁东北部	-17339
▁含金量	-17340
▁舰载	-17341
▁深入开展	-17342
▁招待	-17343
人大	-17344
▁惊叹	-17345
▁抛投	-17346
▁下线	-17347
▁蒸汽	-17348
▁新四军	-17349
▁不定	-17350
▁往常	-17351
▁杀掉	-17352
▁鸦片	-17353
▁第十二	-17354
▁成全	-17355
▁没过多久	-17356
演义	-17357
▁查明	-17358
na	-17359
▁点头	-17360
87	-17361
▁冲着	-17362
▁想得	-17363
▁之势	-17364
▁坚固	-17365
▁很早	-17366
▁270	-17367
▁自驾车	-17368
▁配偶	-17369
▁关中	-17370
名词	-17371
▁心脑血管	-17372
▁关门	-17373
▁煎熬	-17374
▁撇	-17375
▁之争	-17376
▁侄子	-17377
▁折扣	-17378
▁虚荣	-17379
谨言	-17380
▁定为	-17381
▁机组	-17382
作家	-17383
▁旷	-17384
盈莹	-17385
▁挽留	-17386
▁麾	-17387
▁二审	-17388
▁车窗	-17389
▁丁俊晖	-17390
▁主摄	-17391
▁怀着	-17392
EV	-17393
▁上山	-17394
罗拉	-17395
▁柔性	-17396
▁字节	-17397
▁新郎	-17398
▁温婉	-17399
▁关税	-17400
▁多条	-17401
▁萨拉	-17402
▁匮	-17403
▁El	-17404
▁战火	-17405
医药	-17406
▁天鹅	-17407
▁偶遇	-17408
▁飘飘	-17409
▁1939	-17410
▁功勋	-17411
▁戴上	-17412
▁正因	-17413
▁迷路	-17414
▁部下	-17415
▁北路	-17416
▁心甘	-17417
▁教科书	-17418
▁灵活性	-17419
▁城乡居民	-17420
▁绷	-17421
▁开战	-17422
▁散文	-17423
▁1963	-17424
不安	-17425
▁印记	-17426
▁丰满	-17427
▁卫国	-17428
▁同伴	-17429
▁泛滥	-17430
▁紧迫	-17431
▁计画	-17432
▁壁纸	-17433
声器	-17434
▁为国	-17435
▁青训	-17436
▁初级	-17437
▁1961	-17438
▁总成	-17439
西斯	-17440
▁哈达	-17441
▁家庭成员	-17442
折不	-17443
▁早春	-17444
▁遗嘱	-17445
▁1968	-17446
▁茄	-17447
▁cos	-17448
难度	-17449
▁万英镑	-17450
▁打交道	-17451
手可	-17452
▁反华	-17453
▁胸部	-17454
▁越来越近	-17455
▁尽责	-17456
此之间	-17457
▁劳动合同	-17458
▁彼此之间	-17459
▁并称	-17460
▁数目	-17461
▁爷爷奶奶	-17462
▁男士	-17463
▁出风口	-17464
▁伤痕	-17465
▁正常人	-17466
器械	-17467
多岁	-17468
▁梅根	-17469
▁阵亡	-17470
▁得分王	-17471
▁线性	-17472
▁淡出	-17473
▁额头	-17474
▁能见度	-17475
多样	-17476
▁那次	-17477
灾害	-17478
▁彭斯	-17479
▁马桶	-17480
ogle	-17481
▁适配	-17482
▁归化	-17483
▁胡子	-17484
▁精神状态	-17485
▁一对一	-17486
▁启蒙	-17487
▁三项	-17488
▁重度	-17489
▁得来	-17490
▁杨柳	-17491
▁负责同志	-17492
▁工匠	-17493
▁有余	-17494
▁和睦	-17495
▁总队	-17496
各业	-17497
▁外号	-17498
▁各行各业	-17499
▁光鲜	-17500
▁远古	-17501
▁推崇	-17502
通知	-17503
音速	-17504
▁风起	-17505
▁焉	-17506
▁专职	-17507
▁风景区	-17508
▁不慎	-17509
▁家伙	-17510
▁DS	-17511
火火	-17512
▁宏远	-17513
▁建立健全	-17514
▁三层	-17515
▁升职	-17516
高原	-17517
▁文科	-17518
▁经受	-17519
▁发自	-17520
▁坚持下去	-17521
少女	-17522
▁票价	-17523
道德	-17524
▁山林	-17525
▁走入	-17526
不及待	-17527
▁间谍	-17528
▁第一代	-17529
▁Or	-17530
▁李一	-17531
母舰	-17532
▁追溯到	-17533
▁航空母舰	-17534
辣椒	-17535
▁往下	-17536
▁成绩单	-17537
▁查阅	-17538
▁舒适度	-17539
▁我用	-17540
万里	-17541
▁秃	-17542
▁保级	-17543
▁钞	-17544
▁让步	-17545
▁安居	-17546
▁泸州	-17547
▁貂蝉	-17548
▁赶往	-17549
▁妾	-17550
▁庄严	-17551
▁郭碧	-17552
海峡	-17553
▁刷屏	-17554
▁迫不及待	-17555
▁联席	-17556
▁历任	-17557
▁相约	-17558
▁RTX	-17559
▁内敛	-17560
▁补齐	-17561
眼睛	-17562
▁国有企业	-17563
▁跌落	-17564
▁胃肠	-17565
▁PM	-17566
▁女艺人	-17567
▁高薪	-17568
▁南阳	-17569
▁高架	-17570
▁泰坦	-17571
▁翻拍	-17572
▁企鹅	-17573
▁第一年	-17574
▁交警大队	-17575
▁极佳	-17576
▁经贸	-17577
▁技术创新	-17578
▁大鱼	-17579
▁机智	-17580
▁招股书	-17581
▁乐于	-17582
▁多长	-17583
▁次节	-17584
▁升降	-17585
▁慷慨	-17586
▁升起	-17587
▁报仇	-17588
▁催生	-17589
▁投稿	-17590
▁高明	-17591
▁以身	-17592
▁一等奖	-17593
▁指甲	-17594
▁雅阁	-17595
▁昇	-17596
▁秋风	-17597
▁卡片	-17598
▁李连	-17599
▁丞相	-17600
▁大喊	-17601
▁衷心	-17602
▁灾害	-17603
▁论述	-17604
▁制服	-17605
▁精锐	-17606
▁电影票	-17607
▁乱象	-17608
▁误导	-17609
▁2.9	-17610
▁人手	-17611
▁明珠	-17612
▁温室	-17613
▁入市	-17614
▁先发	-17615
▁泳	-17616
布局	-17617
▁斯塔	-17618
▁团购	-17619
▁郭碧婷	-17620
▁根本原因	-17621
▁声誉	-17622
▁版图	-17623
▁第一眼	-17624
▁罪犯	-17625
▁做客	-17626
▁抽象	-17627
▁老夫	-17628
▁吃掉	-17629
▁拳头	-17630
▁ex	-17631
▁激起	-17632
▁韦德	-17633
ames	-17634
▁巴塞罗	-17635
▁佟丽娅	-17636
▁年收入	-17637
▁藕	-17638
▁第一任	-17639
▁尔特	-17640
▁饮食习惯	-17641
▁顾及	-17642
▁AP	-17643
▁撰文	-17644
▁试用	-17645
▁憔	-17646
▁机能	-17647
▁张贴	-17648
▁走高	-17649
▁1954	-17650
▁kg	-17651
▁硬盘	-17652
▁$	-17653
▁驻扎	-17654
▁慵懒	-17655
▁虚弱	-17656
▁分期	-17657
▁料理	-17658
▁矛	-17659
▁乖巧	-17660
▁拜访	-17661
▁清香	-17662
▁飞跃	-17663
▁大便	-17664
▁奥利	-17665
▁板凳	-17666
▁精通	-17667
▁脑海中	-17668
▁院线	-17669
▁保有	-17670
▁回乡	-17671
▁疗法	-17672
▁毁掉	-17673
▁有史	-17674
▁领地	-17675
▁试行	-17676
后卫	-17677
▁推销	-17678
CA	-17679
▁张嘉	-17680
▁曲面	-17681
▁补课	-17682
ach	-17683
▁现货	-17684
▁说不出	-17685
▁考证	-17686
▁年头	-17687
▁组装	-17688
▁东山	-17689
▁联军	-17690
▁巴塞罗那	-17691
▁眉毛	-17692
▁拉文	-17693
▁会以	-17694
▁触动	-17695
▁暗杀	-17696
▁巢	-17697
▁看透	-17698
▁过瘾	-17699
基因	-17700
效益	-17701
▁内衣	-17702
▁大龙	-17703
▁1928	-17704
▁反垄断	-17705
▁这么久	-17706
▁微妙	-17707
▁爱奇艺	-17708
▁AMD	-17709
▁三辐式	-17710
▁寄生	-17711
▁照射	-17712
▁县长	-17713
▁范儿	-17714
华区	-17715
▁买来	-17716
▁滋生	-17717
▁缩水	-17718
▁拉拢	-17719
.10	-17720
▁紧跟	-17721
▁规模化	-17722
▁主宰	-17723
▁花木兰	-17724
▁心甘情愿	-17725
▁医疗器械	-17726
▁宁可	-17727
▁暴躁	-17728
▁毫升	-17729
▁热销	-17730
▁中外	-17731
▁坐标	-17732
▁军事实力	-17733
▁孩	-17734
▁克斯	-17735
▁总价	-17736
▁没得	-17737
▁试着	-17738
▁研究者	-17739
▁顶峰	-17740
▁遵义	-17741
▁憔悴	-17742
▁师资	-17743
▁晴好	-17744
▁首相	-17745
▁标致	-17746
▁健身房	-17747
▁感性	-17748
▁供养	-17749
▁登山	-17750
▁瞩目	-17751
▁虞书	-17752
南北	-17753
▁三元	-17754
▁不上	-17755
▁后裔	-17756
▁复核	-17757
▁玄彬	-17758
▁齐齐	-17759
▁反扑	-17760
▁李斯	-17761
▁战功	-17762
▁人脸识别	-17763
▁电路	-17764
▁应用程序	-17765
▁BO	-17766
▁义无	-17767
▁公爵	-17768
▁偏凉	-17769
▁观感	-17770
▁不受	-17771
▁秦王	-17772
外交部	-17773
▁瞬	-17774
▁秦昊	-17775
▁银川	-17776
哈尔	-17777
▁尚有	-17778
▁闪现	-17779
▁羁绊	-17780
▁大熊猫	-17781
已久	-17782
▁纽约时报	-17783
▁拿走	-17784
▁1900	-17785
对待	-17786
▁人称	-17787
▁昼夜	-17788
▁订购	-17789
▁请假	-17790
▁秒杀	-17791
▁球场上	-17792
▁别有	-17793
▁斯蒂	-17794
▁磷酸	-17795
体温	-17796
悠久	-17797
▁国美	-17798
▁大手	-17799
▁历史悠久	-17800
情绪	-17801
▁互换	-17802
▁BU	-17803
▁西门	-17804
可爱	-17805
▁远近	-17806
▁播种	-17807
▁硬化	-17808
▁愿景	-17809
▁身子	-17810
▁追光	-17811
▁余万元	-17812
会长	-17813
称作	-17814
▁古巴	-17815
▁米粉	-17816
▁雪地	-17817
▁被称作	-17818
▁倍感	-17819
▁威慑	-17820
视频	-17821
▁厚厚	-17822
▁回馈	-17823
▁停工	-17824
▁帖子	-17825
▁Angel	-17826
▁二十二	-17827
▁笼罩	-17828
▁足迹	-17829
▁世界观	-17830
▁充裕	-17831
▁秉承	-17832
▁两倍	-17833
▁香菜	-17834
▁一举一动	-17835
▁测算	-17836
▁淹没	-17837
▁欢笑	-17838
84	-17839
▁西红	-17840
aker	-17841
▁深得	-17842
▁亨利	-17843
▁次韵	-17844
▁扬声器	-17845
▁出家	-17846
红军	-17847
▁南瓜	-17848
▁李女士	-17849
立卡	-17850
▁偏低	-17851
▁洗礼	-17852
▁京津冀	-17853
▁建档立卡	-17854
▁冲天	-17855
▁优于	-17856
▁随处可见	-17857
▁大雨	-17858
▁影业	-17859
▁问问	-17860
▁分组	-17861
▁悟空	-17862
▁能为	-17863
▁万众	-17864
▁贴身	-17865
▁赶赴	-17866
▁不规则	-17867
▁媲美	-17868
在于	-17869
▁变相	-17870
▁尼古	-17871
▁效仿	-17872
▁穿透	-17873
▁高层次	-17874
▁卷入	-17875
▁囧	-17876
总额	-17877
▁王永	-17878
▁物业管理	-17879
▁慕容	-17880
▁公共交通	-17881
未来	-17882
▁不畏	-17883
▁琢磨	-17884
▁拽	-17885
▁长生	-17886
▁坚守岗位	-17887
潜力	-17888
▁870	-17889
人民政府	-17890
▁医美	-17891
▁各族	-17892
▁航海	-17893
说是	-17894
▁赡	-17895
▁袁绍	-17896
▁东南部	-17897
▁认罪	-17898
▁厚实	-17899
相信	-17900
▁满洲	-17901
▁激增	-17902
▁听话	-17903
▁所作所为	-17904
▁依规	-17905
▁得体	-17906
▁找寻	-17907
▁无偿	-17908
▁马刺队	-17909
▁作物	-17910
▁叹息	-17911
▁中国科学院	-17912
▁超人	-17913
▁汽车产业	-17914
▁侧重	-17915
▁牛气	-17916
▁住所	-17917
▁抢走	-17918
▁空头	-17919
不错	-17920
▁滞留	-17921
▁皇太	-17922
莉莎	-17923
▁La	-17924
▁人民网	-17925
▁致歉	-17926
▁打脸	-17927
▁相貌	-17928
▁苑	-17929
▁备考	-17930
▁海绵	-17931
▁社群	-17932
▁诱导	-17933
▁杀入	-17934
▁快点	-17935
太阳	-17936
▁刘禅	-17937
▁前两天	-17938
▁主业	-17939
▁平息	-17940
▁直通	-17941
▁太低	-17942
▁匮乏	-17943
▁比拼	-17944
攻击	-17945
▁拉伸	-17946
▁李铁	-17947
▁1967	-17948
▁相传	-17949
反顾	-17950
诉讼	-17951
▁Max	-17952
▁有史以来	-17953
▁蝶	-17954
广告	-17955
▁按理说	-17956
▁杭州市	-17957
▁李宗	-17958
▁一封信	-17959
▁动静	-17960
▁呦	-17961
男友	-17962
▁东侧	-17963
▁前男友	-17964
▁喻	-17965
▁心得	-17966
▁义无反顾	-17967
▁冰糖	-17968
▁篮板球	-17969
▁病毒感染	-17970
▁官职	-17971
▁系数	-17972
分泌	-17973
▁台北市	-17974
▁衰落	-17975
▁传染性	-17976
▁炭	-17977
▁鸽	-17978
▁钟南山	-17979
▁谱写	-17980
▁首届	-17981
▁扮演者	-17982
▁芹	-17983
▁卡姆	-17984
▁懦	-17985
▁红火	-17986
▁剁	-17987
▁周刊	-17988
▁2035	-17989
▁异议	-17990
▁淋巴	-17991
▁战线	-17992
▁苛刻	-17993
▁豪斯	-17994
ass	-17995
▁光源	-17996
▁狩猎	-17997
热闹	-17998
言之	-17999
▁当上	-18000
▁私立	-18001
▁养家	-18002
▁下定决心	-18003
▁悲观	-18004
▁做空	-18005
▁送礼	-18006
旅游	-18007
▁每每	-18008
谨慎	-18009
▁麻木	-18010
▁换挡	-18011
▁留存	-18012
▁刘昊	-18013
▁守望	-18014
▁相符	-18015
自主	-18016
▁体谅	-18017
▁网剧	-18018
▁长短	-18019
▁一个多月	-18020
势力	-18021
▁湘西	-18022
▁典雅	-18023
▁年华	-18024
士顿	-18025
▁如是	-18026
▁容积	-18027
▁胚胎	-18028
▁出入口	-18029
▁12.3	-18030
▁矿山	-18031
▁伤人	-18032
▁做错	-18033
▁唐昊	-18034
▁灰尘	-18035
▁台湾地区	-18036
▁小妹	-18037
▁画作	-18038
▁建业	-18039
▁清军	-18040
▁执行力	-18041
▁光影	-18042
▁托管	-18043
▁大树	-18044
考虑	-18045
▁楼上	-18046
▁一粒	-18047
▁路飞	-18048
▁整体实力	-18049
▁特里	-18050
▁献给	-18051
▁五花肉	-18052
▁买不起	-18053
▁NG	-18054
▁小张	-18055
▁人性化	-18056
▁常委会	-18057
▁植株	-18058
▁米格	-18059
▁疆	-18060
▁不配	-18061
▁几万	-18062
▁热评	-18063
▁脸书	-18064
▁大通	-18065
▁一袭	-18066
▁格雷	-18067
▁省外	-18068
▁居多	-18069
▁西红柿	-18070
▁打听	-18071
▁橘子	-18072
▁早起	-18073
▁紧盯	-18074
▁上头	-18075
股票	-18076
▁运动版	-18077
▁夷	-18078
▁木材	-18079
▁正向	-18080
▁隶属于	-18081
▁上旬	-18082
▁全村	-18083
▁走亲	-18084
▁冒充	-18085
轿车	-18086
▁严格遵守	-18087
▁财力	-18088
▁征兵	-18089
▁底蕴	-18090
▁单人	-18091
▁飞天	-18092
传播	-18093
▁写成	-18094
▁质押	-18095
▁不分	-18096
▁主城区	-18097
▁艾瑞泽	-18098
▁个头	-18099
▁定格	-18100
▁低保	-18101
▁嘴唇	-18102
上来	-18103
▁体操	-18104
▁档期	-18105
▁鳄鱼	-18106
▁编织	-18107
▁上分	-18108
ert	-18109
▁尼亚	-18110
▁新篇	-18111
▁5.2	-18112
af	-18113
号码	-18114
注目	-18115
▁仓位	-18116
▁UNI	-18117
▁身在	-18118
发现	-18119
▁吴前	-18120
▁昆凌	-18121
▁内分泌	-18122
▁排序	-18123
▁go	-18124
▁民心	-18125
▁递交	-18126
▁一朝	-18127
▁原住	-18128
▁迁徙	-18129
▁同日	-18130
▁利器	-18131
仪式	-18132
▁救命	-18133
▁中央军委	-18134
▁该市	-18135
▁刑事拘留	-18136
活力	-18137
▁西域	-18138
▁活下去	-18139
▁过大年	-18140
▁进士	-18141
▁唐门	-18142
▁产品质量	-18143
▁河水	-18144
▁落泪	-18145
▁何以	-18146
▁转动	-18147
▁一路上	-18148
菲特	-18149
▁XX	-18150
▁刊登	-18151
▁封存	-18152
多利亚	-18153
▁甚至于	-18154
▁不菲	-18155
▁戒烟	-18156
▁新鲜感	-18157
▁臀部	-18158
件事	-18159
▁围剿	-18160
▁马修斯	-18161
▁上当	-18162
▁利用率	-18163
▁所幸	-18164
▁缸	-18165
▁秉持	-18166
民主	-18167
▁第一件	-18168
▁保鲜	-18169
▁径	-18170
▁平生	-18171
▁省钱	-18172
▁提达	-18173
▁听证	-18174
▁不放	-18175
▁扩充	-18176
▁要钱	-18177
▁万公里	-18178
▁1931	-18179
▁管理条例	-18180
ren	-18181
▁近些年来	-18182
▁优异成绩	-18183
▁风向	-18184
▁首家	-18185
后果	-18186
▁很差	-18187
▁核电	-18188
▁发音	-18189
▁逼近	-18190
▁裤装	-18191
▁金字塔	-18192
▁重大项目	-18193
▁吴秀	-18194
▁驳回	-18195
▁编码	-18196
▁醒目	-18197
▁付豪	-18198
▁化疗	-18199
不顾	-18200
▁系统性	-18201
▁初六	-18202
▁沉寂	-18203
▁而生	-18204
▁提振	-18205
体现	-18206
▁潭	-18207
▁事关	-18208
▁试想	-18209
▁化学反应	-18210
▁领导班子	-18211
▁想方	-18212
▁柑	-18213
▁跌破	-18214
▁钛	-18215
▁加里	-18216
▁远征	-18217
▁匿	-18218
▁慜	-18219
▁RW	-18220
▁胡椒粉	-18221
设法	-18222
▁想方设法	-18223
▁升华	-18224
▁玄武	-18225
▁车库	-18226
▁一首歌	-18227
贵妃	-18228
高于	-18229
▁现将	-18230
▁摄氏度	-18231
▁无线电	-18232
▁犯人	-18233
▁打断	-18234
▁风生	-18235
▁施肥	-18236
▁静脉	-18237
宝骏	-18238
▁干货	-18239
▁英军	-18240
发宝	-18241
▁青春期	-18242
▁庸	-18243
莱斯	-18244
▁葫芦	-18245
▁开放式	-18246
▁不弃	-18247
▁影帝	-18248
阳区	-18249
▁席卷	-18250
▁母爱	-18251
▁真是太	-18252
▁成像	-18253
▁居委会	-18254
▁翩	-18255
▁置换	-18256
▁赛罗	-18257
▁送达	-18258
▁心理健康	-18259
▁竟是	-18260
▁新低	-18261
▁施加	-18262
▁齐达	-18263
▁划算	-18264
▁中银	-18265
▁检察长	-18266
▁多变	-18267
▁纸币	-18268
▁过早	-18269
窒息	-18270
▁周扬青	-18271
▁沉香	-18272
▁1943	-18273
▁从没	-18274
▁伤感	-18275
▁贝壳	-18276
▁超员	-18277
▁一环	-18278
▁齐达内	-18279
▁夜景	-18280
▁养眼	-18281
▁反省	-18282
▁漂泊	-18283
▁出栏	-18284
▁蒋南孙	-18285
▁搜集	-18286
▁终审	-18287
▁成员国	-18288
▁主战	-18289
▁说明书	-18290
伯特	-18291
▁as	-18292
▁想尽	-18293
▁处罚金	-18294
▁春暖花开	-18295
▁陨石	-18296
起伏	-18297
▁有幸	-18298
▁吸毒	-18299
▁老去	-18300
▁迈进	-18301
▁掏出	-18302
▁至极	-18303
▁血量	-18304
▁看不懂	-18305
▁湘潭	-18306
▁体外	-18307
文帝	-18308
江区	-18309
▁准入	-18310
▁虐待	-18311
尼西亚	-18312
mg	-18313
大陆	-18314
▁海棠	-18315
▁山川	-18316
▁仓储	-18317
▁重男	-18318
▁动不动	-18319
▁银行业	-18320
马尔	-18321
▁看电视	-18322
▁尽量减少	-18323
▁辨别	-18324
▁知足	-18325
▁告诫	-18326
▁小微	-18327
▁Google	-18328
▁锅里	-18329
▁倾诉	-18330
轻女	-18331
不应	-18332
▁二十八	-18333
▁经济损失	-18334
黄色	-18335
▁离子	-18336
▁继而	-18337
▁别致	-18338
▁首饰	-18339
▁限购	-18340
▁共青	-18341
▁祈福	-18342
▁便利性	-18343
▁更深	-18344
▁产值	-18345
▁挑剔	-18346
▁纵深	-18347
▁小明	-18348
▁母公司	-18349
▁1957	-18350
▁蓬松	-18351
▁一夜之间	-18352
▁全靠	-18353
▁购物中心	-18354
▁一哥	-18355
▁办好	-18356
网站	-18357
▁亲眼	-18358
▁重男轻女	-18359
▁一倍	-18360
▁李现	-18361
▁147	-18362
▁如火	-18363
▁揭晓	-18364
▁收看	-18365
▁转折点	-18366
▁巾	-18367
▁顶端	-18368
▁乾坤	-18369
▁一席之地	-18370
▁上层	-18371
▁钖	-18372
▁百变	-18373
ory	-18374
▁刚需	-18375
▁朝鲜战争	-18376
▁名词	-18377
仁杰	-18378
▁相邻	-18379
▁黄花	-18380
▁刘昊然	-18381
▁深深地	-18382
▁战车	-18383
▁耗资	-18384
▁吞噬	-18385
▁连忙	-18386
▁Ste	-18387
▁棍	-18388
▁复旦大学	-18389
▁喔	-18390
▁演艺事业	-18391
▁黄圣	-18392
▁自来水	-18393
▁靳	-18394
广场	-18395
▁抽奖	-18396
▁沦陷	-18397
▁忙于	-18398
▁探望	-18399
▁退伍	-18400
▁区政府	-18401
▁艾顿	-18402
▁跟腱	-18403
▁单个	-18404
▁攀比	-18405
▁海湾	-18406
▁经济圈	-18407
▁交通枢纽	-18408
▁增至	-18409
▁影迷	-18410
▁不如意	-18411
▁互助	-18412
▁手艺	-18413
▁平均水平	-18414
▁致以	-18415
▁沙拉	-18416
把手	-18417
▁停靠	-18418
▁特大	-18419
▁无畏	-18420
▁加码	-18421
▁530	-18422
▁传授	-18423
纳斯	-18424
▁折射	-18425
▁车轮	-18426
▁默默无	-18427
▁年关	-18428
▁芜	-18429
▁大西洋	-18430
▁极少	-18431
▁偷袭	-18432
▁q	-18433
▁腥	-18434
▁长沙市	-18435
▁嘉兴	-18436
▁肇事	-18437
▁赞扬	-18438
▁揭露	-18439
▁闸	-18440
▁南沙	-18441
▁张翰	-18442
▁策兰	-18443
▁岭南	-18444
▁起源于	-18445
▁稳中	-18446
▁舰艇	-18447
▁暖和	-18448
▁鲜血	-18449
▁民政局	-18450
▁视感	-18451
▁开好局	-18452
▁库克	-18453
▁磨练	-18454
▁日本政府	-18455
▁霏	-18456
▁稳妥	-18457
▁日程	-18458
▁不起眼	-18459
▁挡住	-18460
▁王位	-18461
▁皮衣	-18462
▁虞书欣	-18463
▁逊色	-18464
▁痘	-18465
▁出境	-18466
▁电线	-18467
▁app	-18468
▁讨伐	-18469
▁东站	-18470
▁已久	-18471
▁all	-18472
▁万例	-18473
▁归宿	-18474
▁日语	-18475
▁消息人士	-18476
▁电压	-18477
ML	-18478
▁严苛	-18479
▁多加	-18480
▁广州队	-18481
▁姊	-18482
▁地势	-18483
▁多亿	-18484
▁工程建设	-18485
▁传导	-18486
▁千百	-18487
▁可乐	-18488
一次	-18489
渠道	-18490
▁无理	-18491
▁无证	-18492
▁负荷	-18493
▁民兵	-18494
▁大雾	-18495
▁中央纪委	-18496
▁冰冻	-18497
▁捕捞	-18498
待遇	-18499
▁缝隙	-18500
MB	-18501
一世	-18502
高中	-18503
▁屠杀	-18504
▁钾	-18505
▁地名	-18506
▁热身	-18507
▁经开区	-18508
▁国力	-18509
▁苹果公司	-18510
▁克劳	-18511
▁找准	-18512
▁萨达	-18513
▁优惠政策	-18514
▁资本主义	-18515
▁老天	-18516
▁漩	-18517
▁全明星赛	-18518
▁施展	-18519
▁粪便	-18520
▁肘	-18521
心病	-18522
温度	-18523
之又	-18524
▁统统	-18525
▁试管	-18526
▁建制	-18527
▁装载	-18528
▁齐心	-18529
▁默克尔	-18530
▁参选	-18531
▁幸存	-18532
▁二楼	-18533
▁高中生	-18534
shy	-18535
▁这些年来	-18536
▁夏洛	-18537
▁抢购	-18538
▁覆盖率	-18539
▁一文	-18540
▁一点儿	-18541
江县	-18542
▁科创板	-18543
▁心智	-18544
▁票据	-18545
▁菠菜	-18546
▁飘逸	-18547
治疗	-18548
▁以东	-18549
▁当面	-18550
▁握手	-18551
▁高开	-18552
▁中下	-18553
▁之久	-18554
▁莫里森	-18555
81	-18556
▁追回	-18557
▁LOL	-18558
▁抓住机会	-18559
▁第一轮	-18560
▁和珅	-18561
▁专业人士	-18562
褐色	-18563
▁种业	-18564
层楼	-18565
▁日日	-18566
▁置身	-18567
▁儿时	-18568
▁排便	-18569
▁督察	-18570
▁不比	-18571
eng	-18572
▁佳节	-18573
▁庆生	-18574
▁未免	-18575
▁人中	-18576
▁丰富多彩	-18577
▁跳跃	-18578
▁电池容量	-18579
▁王建	-18580
▁祠	-18581
▁之位	-18582
▁死神	-18583
▁失效	-18584
▁胸怀	-18585
▁车市	-18586
蝙蝠	-18587
▁刺绣	-18588
▁集成电路	-18589
▁短片	-18590
atch	-18591
▁营救	-18592
▁办公厅	-18593
▁共产党员	-18594
▁立交	-18595
了名	-18596
▁再三	-18597
节奏	-18598
▁指着	-18599
▁海淀	-18600
▁震慑	-18601
▁两句	-18602
▁别提	-18603
▁宋亚轩	-18604
▁u	-18605
鲁能	-18606
▁Ed	-18607
▁小女儿	-18608
▁紊	-18609
▁够用	-18610
▁阔腿裤	-18611
▁灼	-18612
▁中来	-18613
▁沸沸	-18614
▁赡养	-18615
▁钱学	-18616
isa	-18617
兢兢	-18618
▁出游	-18619
▁大意	-18620
▁太好了	-18621
▁哥们	-18622
▁枣庄	-18623
▁只为	-18624
▁伊巴	-18625
▁卡纳	-18626
▁查理	-18627
▁换下	-18628
▁崩塌	-18629
而至	-18630
▁分会	-18631
▁害羞	-18632
▁126	-18633
▁博士学位	-18634
▁揭示	-18635
▁土匪	-18636
▁长篇	-18637
纠纷	-18638
▁蓝图	-18639
▁软弱	-18640
▁该项	-18641
▁批量	-18642
▁迫于	-18643
▁住址	-18644
▁梁朝	-18645
▁真假	-18646
▁亮色	-18647
▁落成	-18648
▁不符	-18649
▁之夜	-18650
▁仙子	-18651
▁两类	-18652
▁随之而来	-18653
▁心安	-18654
▁给力	-18655
权利	-18656
▁刚刚开始	-18657
▁疗效	-18658
▁转会费	-18659
▁皮革	-18660
▁拉力	-18661
▁接球	-18662
▁故而	-18663
ign	-18664
▁指战	-18665
▁无职	-18666
▁说来	-18667
▁蝙蝠	-18668
▁古墓	-18669
▁Con	-18670
▁钵	-18671
▁去往	-18672
▁受邀	-18673
▁运载	-18674
太宗	-18675
▁山里	-18676
▁亿年	-18677
▁攻占	-18678
▁3.9	-18679
▁专访	-18680
▁互补	-18681
▁巴拉	-18682
▁洋气	-18683
▁画卷	-18684
very	-18685
▁卡塔	-18686
▁身世	-18687
▁盛大	-18688
▁综合征	-18689
▁一气	-18690
▁欢呼	-18691
▁sp	-18692
▁估算	-18693
合适	-18694
▁美化	-18695
▁逆行	-18696
▁深沉	-18697
▁赞叹	-18698
▁百家	-18699
▁橡胶	-18700
▁\	-18701
▁字幕	-18702
▁矢	-18703
▁湿润	-18704
▁顺丰	-18705
降低	-18706
▁性情	-18707
▁水下	-18708
▁政治家	-18709
▁信徒	-18710
▁天问	-18711
▁铭文	-18712
▁沁	-18713
▁小狗	-18714
▁试剂	-18715
▁地盘	-18716
雷达	-18717
▁就任	-18718
▁郭晶晶	-18719
▁人马	-18720
▁绝非	-18721
▁突兀	-18722
▁间隙	-18723
▁OMG	-18724
▁外籍	-18725
耳曼	-18726
▁沸沸扬扬	-18727
▁桌上	-18728
猛进	-18729
▁急忙	-18730
▁奥林匹克	-18731
▁磁场	-18732
▁谈谈	-18733
▁运河	-18734
▁指点	-18735
▁干旱	-18736
fer	-18737
▁津津	-18738
▁山中	-18739
▁确需	-18740
▁指战员	-18741
▁诡异	-18742
▁追问	-18743
▁新奇	-18744
▁两手	-18745
▁珠江	-18746
▁设在	-18747
▁第一季度	-18748
▁前程	-18749
▁吉克	-18750
▁昆虫	-18751
▁称帝	-18752
公安局	-18753
▁大厂	-18754
▁配文	-18755
▁安然	-18756
▁衡水	-18757
▁中超联赛	-18758
▁保驾	-18759
▁调剂	-18760
▁鸡毛	-18761
▁等国	-18762
▁李佳	-18763
▁hk	-18764
▁水流	-18765
▁漳州	-18766
住宅	-18767
▁九个	-18768
▁肩上	-18769
▁保证金	-18770
肯定	-18771
▁美美	-18772
▁胜过	-18773
▁风电	-18774
▁李连杰	-18775
▁去向	-18776
▁切除	-18777
▁数一	-18778
▁更上	-18779
▁热衷于	-18780
▁卒	-18781
ose	-18782
▁刺痛	-18783
▁理赔	-18784
▁露天	-18785
▁恨不得	-18786
王朝	-18787
▁一改	-18788
▁因地	-18789
▁圣地	-18790
▁136	-18791
▁泥土	-18792
▁辱骂	-18793
▁ne	-18794
▁基站	-18795
▁科举	-18796
▁小康社会	-18797
▁武切	-18798
▁紊乱	-18799
▁太行	-18800
▁叉	-18801
▁兵马	-18802
▁催化	-18803
▁联系方式	-18804
尼黑	-18805
▁一并	-18806
▁八字	-18807
▁班列	-18808
▁背心	-18809
▁血缘	-18810
▁好笑	-18811
▁座舱	-18812
▁世锦赛	-18813
▁之多	-18814
▁军用	-18815
▁中科院	-18816
▁校友	-18817
▁逃亡	-18818
▁问责	-18819
▁看守	-18820
▁关切	-18821
惨重	-18822
▁扳平	-18823
▁博览	-18824
▁江北	-18825
▁杨振	-18826
▁聚力	-18827
▁并用	-18828
▁名录	-18829
▁镂	-18830
▁唐嫣	-18831
▁录用	-18832
▁轰轰	-18833
▁酿酒	-18834
▁后备箱	-18835
▁大权	-18836
▁预告片	-18837
尔多	-18838
▁待人	-18839
▁各个方面	-18840
▁类人	-18841
▁止步	-18842
▁孙艺珍	-18843
ris	-18844
▁吴秀波	-18845
▁财政部	-18846
▁市政协	-18847
▁威海	-18848
移动	-18849
▁宋庆	-18850
成分	-18851
▁化作	-18852
▁巴菲特	-18853
▁真空	-18854
克萨斯州	-18855
▁家风	-18856
▁两极	-18857
▁军中	-18858
▁南宫	-18859
▁跳出	-18860
▁分管	-18861
▁白衣	-18862
▁连载	-18863
▁服务体系	-18864
创作	-18865
▁CNN	-18866
▁ONE	-18867
▁代名词	-18868
▁高冷	-18869
▁涟	-18870
▁痛风	-18871
▁折合	-18872
▁音响	-18873
▁海尔	-18874
▁谍	-18875
▁几张	-18876
▁文体	-18877
▁疏散	-18878
▁黑粉	-18879
▁懒得	-18880
▁抹胸	-18881
▁生出	-18882
▁舒心	-18883
▁狄仁杰	-18884
▁死角	-18885
▁戏称	-18886
▁Space	-18887
▁营养价值	-18888
▁理科	-18889
▁采纳	-18890
▁祁发宝	-18891
▁辍	-18892
宏光	-18893
疾病	-18894
▁亨特	-18895
▁更多人	-18896
▁1400	-18897
▁一发	-18898
感兴趣	-18899
▁唐山	-18900
▁粤语	-18901
▁三件	-18902
▁CCTV	-18903
兵团	-18904
ary	-18905
▁迈入	-18906
▁该院	-18907
▁塑料袋	-18908
▁汉人	-18909
▁马丽	-18910
▁微弱	-18911
▁高能	-18912
青山	-18913
▁五号	-18914
▁酶	-18915
玻璃	-18916
▁数一数	-18917
▁领略	-18918
▁卤素	-18919
▁穆斯	-18920
▁水浒	-18921
▁明确规定	-18922
▁呼和	-18923
▁展出	-18924
▁吴白	-18925
▁减值	-18926
▁刘嘉	-18927
▁菜鸟	-18928
▁更快	-18929
▁国产车	-18930
▁风生水	-18931
▁孔令	-18932
领先	-18933
▁迷信	-18934
▁音乐会	-18935
▁赞成	-18936
▁面容	-18937
▁有效期	-18938
▁五彩	-18939
▁兴业	-18940
▁庇护	-18941
▁呼和浩特	-18942
▁三方	-18943
▁供货	-18944
▁小到	-18945
▁纯真	-18946
亚于	-18947
▁浅浅的	-18948
▁艺术品	-18949
▁引人注目	-18950
▁猎人	-18951
▁迫害	-18952
▁重现	-18953
▁鞍	-18954
▁两万	-18955
▁煮熟	-18956
了个	-18957
▁寄予	-18958
▁筹集	-18959
▁单挑	-18960
▁ro	-18961
▁环球时报	-18962
▁更衣室	-18963
▁细微	-18964
▁修剪	-18965
▁老气	-18966
▁片酬	-18967
▁长假	-18968
▁NASA	-18969
足球	-18970
▁配上	-18971
▁越军	-18972
▁墓地	-18973
▁标语	-18974
▁Me	-18975
▁血清	-18976
▁雅典	-18977
▁一排	-18978
▁没钱	-18979
▁殆	-18980
▁桃园	-18981
▁胰岛	-18982
▁一勺	-18983
▁摩根	-18984
▁潇湘	-18985
▁通货	-18986
▁芬芳	-18987
▁发源	-18988
▁大帝	-18989
▁经常出现	-18990
▁禹	-18991
▁保持良好	-18992
▁市场竞争	-18993
▁姚晨	-18994
▁建信	-18995
▁华山	-18996
▁懒惰	-18997
▁戴安娜	-18998
▁牛米	-18999
▁同性	-19000
▁葱花	-19001
▁第一家	-19002
护航	-19003
▁出狱	-19004
▁极易	-19005
▁绅士	-19006
▁BOSS	-19007
▁保驾护航	-19008
▁褶	-19009
肿瘤	-19010
▁受阻	-19011
▁节节	-19012
▁二十一	-19013
▁点多	-19014
▁apos	-19015
▁厮	-19016
▁国乒	-19017
▁武士	-19018
不振	-19019
▁划定	-19020
▁差评	-19021
▁交友	-19022
▁谭松	-19023
▁捅	-19024
▁椒	-19025
▁KS	-19026
▁没少	-19027
▁4.4	-19028
▁浮夸	-19029
▁木星	-19030
▁经由	-19031
▁夏侯	-19032
▁忍耐	-19033
▁最优	-19034
▁饰品	-19035
圆圆	-19036
▁精度	-19037
▁耻辱	-19038
出版社	-19039
▁漩涡	-19040
▁所有权	-19041
▁期刊	-19042
▁书法家	-19043
▁启示	-19044
▁进京	-19045
▁退缩	-19046
▁不单	-19047
▁情有	-19048
▁属鸡	-19049
▁李宇	-19050
▁濮	-19051
▁三维	-19052
▁居前	-19053
篮球	-19054
▁特长	-19055
▁颁奖典礼	-19056
▁钱学森	-19057
▁对准	-19058
信心	-19059
▁开庭	-19060
▁宋庆龄	-19061
▁企事业	-19062
▁缤	-19063
▁美妆	-19064
▁司空	-19065
▁戎	-19066
▁八角	-19067
▁外省	-19068
▁有缘	-19069
▁战罢	-19070
进取	-19071
▁小龙女	-19072
▁出席会议	-19073
▁浅色	-19074
▁哼	-19075
▁苏亚	-19076
▁北站	-19077
▁教育资源	-19078
劳动	-19079
▁不看	-19080
▁江淮	-19081
▁两段	-19082
▁点位	-19083
▁马达	-19084
▁总收入	-19085
▁怀斯曼	-19086
UI	-19087
▁の	-19088
事变	-19089
▁谭松韵	-19090
▁巴克	-19091
龙头	-19092
▁寄语	-19093
▁惨淡	-19094
▁柔情	-19095
▁激战	-19096
▁本科生	-19097
▁谋取	-19098
▁以太	-19099
暴力	-19100
▁九州	-19101
▁告白	-19102
▁不亚于	-19103
▁理应	-19104
▁呼唤	-19105
只是	-19106
▁子弟	-19107
▁仅仅只是	-19108
▁故人	-19109
▁科维奇	-19110
▁一去	-19111
▁陀	-19112
▁名爵	-19113
▁小生	-19114
▁山谷	-19115
▁发病率	-19116
▁慕尼黑	-19117
▁方舟	-19118
▁智利	-19119
▁定下	-19120
▁照耀	-19121
▁胜出	-19122
▁主干	-19123
▁血统	-19124
▁沿岸	-19125
▁费尔	-19126
▁闲暇	-19127
▁捐献	-19128
▁奶油	-19129
▁翰	-19130
▁冷暖	-19131
▁新婚	-19132
▁午餐	-19133
▁合一	-19134
鲁克	-19135
▁饭局	-19136
▁富足	-19137
▁画师	-19138
▁沐浴	-19139
▁邢台市	-19140
▁听闻	-19141
▁集会	-19142
▁远比	-19143
▁橱	-19144
师傅	-19145
▁朋克	-19146
院校	-19147
▁跳水	-19148
▁过关	-19149
▁逃生	-19150
▁私信	-19151
▁编审	-19152
▁一队	-19153
▁已婚	-19154
▁虎牙	-19155
▁政府部门	-19156
▁下落	-19157
▁剔	-19158
作风	-19159
▁稀少	-19160
▁奖学金	-19161
▁忽悠	-19162
▁此案	-19163
▁猿	-19164
硬化	-19165
▁停下来	-19166
▁青海省	-19167
围绕	-19168
▁紧紧围绕	-19169
▁索取	-19170
ux	-19171
▁不通	-19172
▁努尔	-19173
▁毛巾	-19174
▁垃圾桶	-19175
▁半点	-19176
▁名家	-19177
▁驻守	-19178
▁照料	-19179
▁摸索	-19180
▁可转	-19181
▁Int	-19182
▁电报	-19183
▁组团	-19184
▁定档	-19185
▁进站	-19186
▁背包	-19187
▁麻痹	-19188
▁铺设	-19189
▁清零	-19190
▁创造力	-19191
▁低级	-19192
▁雾灯	-19193
▁Ph	-19194
▁李家	-19195
▁汲取	-19196
▁全日	-19197
▁瘟	-19198
▁视察	-19199
▁头球	-19200
▁自强	-19201
▁高诗	-19202
▁127	-19203
▁旗舰机	-19204
▁搜寻	-19205
▁不死	-19206
泊尔	-19207
▁英国政府	-19208
▁福字	-19209
▁距今	-19210
▁渔民	-19211
▁驻村	-19212
▁退款	-19213
▁军民	-19214
▁网络平台	-19215
▁那不	-19216
▁风靡	-19217
▁改写	-19218
▁大专	-19219
▁赘肉	-19220
▁龙泉	-19221
▁耐用	-19222
▁有无	-19223
▁入味	-19224
▁现年	-19225
▁纯属	-19226
必究	-19227
▁乌龙	-19228
▁党工委	-19229
为力	-19230
▁华润	-19231
▁劣迹	-19232
▁透支	-19233
▁羯	-19234
▁固体	-19235
▁出发点	-19236
▁哉	-19237
now	-19238
▁因涉	-19239
▁国防部	-19240
ton	-19241
▁历来	-19242
▁无能为力	-19243
▁动辄	-19244
▁晒太阳	-19245
▁失信	-19246
▁骆驼	-19247
▁拖累	-19248
▁蒸发	-19249
▁规章	-19250
▁一滴	-19251
▁起好	-19252
▁麻辣	-19253
roid	-19254
EX	-19255
▁地中	-19256
ings	-19257
▁商务部	-19258
▁砥砺	-19259
▁耳熟	-19260
▁微量	-19261
▁诗意	-19262
▁贱	-19263
ree	-19264
▁严查	-19265
▁一案	-19266
▁新乐	-19267
▁崇祯	-19268
▁徐志	-19269
▁树上	-19270
▁吴昕	-19271
▁比较简单	-19272
▁Br	-19273
▁霾	-19274
东家	-19275
▁到家	-19276
▁马可	-19277
▁4.8	-19278
▁马尚	-19279
▁雀	-19280
▁分校	-19281
▁弗利	-19282
WS	-19283
▁成团	-19284
▁长长的	-19285
▁引以为	-19286
▁经济性	-19287
▁边上	-19288
▁like	-19289
▁田野	-19290
▁梁朝伟	-19291
▁未经许可	-19292
▁桔	-19293
▁力求	-19294
▁首创	-19295
▁三球	-19296
▁推断	-19297
产量	-19298
▁嘟	-19299
▁碱	-19300
▁文明城市	-19301
团结	-19302
▁装机	-19303
▁莆田	-19304
▁每隔	-19305
▁澹	-19306
▁铠甲	-19307
[...]
